<unk>	0
<s>	0
</s>	0
<0x00>	0
<0x01>	0
<0x02>	0
<0x03>	0
<0x04>	0
<0x05>	0
<0x06>	0
<0x07>	0
<0x08>	0
<0x09>	0
<0x0A>	0
<0x0B>	0
<0x0C>	0
<0x0D>	0
<0x0E>	0
<0x0F>	0
<0x10>	0
<0x11>	0
<0x12>	0
<0x13>	0
<0x14>	0
<0x15>	0
<0x16>	0
<0x17>	0
<0x18>	0
<0x19>	0
<0x1A>	0
<0x1B>	0
<0x1C>	0
<0x1D>	0
<0x1E>	0
<0x1F>	0
<0x20>	0
<0x21>	0
<0x22>	0
<0x23>	0
<0x24>	0
<0x25>	0
<0x26>	0
<0x27>	0
<0x28>	0
<0x29>	0
<0x2A>	0
<0x2B>	0
<0x2C>	0
<0x2D>	0
<0x2E>	0
<0x2F>	0
<0x30>	0
<0x31>	0
<0x32>	0
<0x33>	0
<0x34>	0
<0x35>	0
<0x36>	0
<0x37>	0
<0x38>	0
<0x39>	0
<0x3A>	0
<0x3B>	0
<0x3C>	0
<0x3D>	0
<0x3E>	0
<0x3F>	0
<0x40>	0
<0x41>	0
<0x42>	0
<0x43>	0
<0x44>	0
<0x45>	0
<0x46>	0
<0x47>	0
<0x48>	0
<0x49>	0
<0x4A>	0
<0x4B>	0
<0x4C>	0
<0x4D>	0
<0x4E>	0
<0x4F>	0
<0x50>	0
<0x51>	0
<0x52>	0
<0x53>	0
<0x54>	0
<0x55>	0
<0x56>	0
<0x57>	0
<0x58>	0
<0x59>	0
<0x5A>	0
<0x5B>	0
<0x5C>	0
<0x5D>	0
<0x5E>	0
<0x5F>	0
<0x60>	0
<0x61>	0
<0x62>	0
<0x63>	0
<0x64>	0
<0x65>	0
<0x66>	0
<0x67>	0
<0x68>	0
<0x69>	0
<0x6A>	0
<0x6B>	0
<0x6C>	0
<0x6D>	0
<0x6E>	0
<0x6F>	0
<0x70>	0
<0x71>	0
<0x72>	0
<0x73>	0
<0x74>	0
<0x75>	0
<0x76>	0
<0x77>	0
<0x78>	0
<0x79>	0
<0x7A>	0
<0x7B>	0
<0x7C>	0
<0x7D>	0
<0x7E>	0
<0x7F>	0
<0x80>	0
<0x81>	0
<0x82>	0
<0x83>	0
<0x84>	0
<0x85>	0
<0x86>	0
<0x87>	0
<0x88>	0
<0x89>	0
<0x8A>	0
<0x8B>	0
<0x8C>	0
<0x8D>	0
<0x8E>	0
<0x8F>	0
<0x90>	0
<0x91>	0
<0x92>	0
<0x93>	0
<0x94>	0
<0x95>	0
<0x96>	0
<0x97>	0
<0x98>	0
<0x99>	0
<0x9A>	0
<0x9B>	0
<0x9C>	0
<0x9D>	0
<0x9E>	0
<0x9F>	0
<0xA0>	0
<0xA1>	0
<0xA2>	0
<0xA3>	0
<0xA4>	0
<0xA5>	0
<0xA6>	0
<0xA7>	0
<0xA8>	0
<0xA9>	0
<0xAA>	0
<0xAB>	0
<0xAC>	0
<0xAD>	0
<0xAE>	0
<0xAF>	0
<0xB0>	0
<0xB1>	0
<0xB2>	0
<0xB3>	0
<0xB4>	0
<0xB5>	0
<0xB6>	0
<0xB7>	0
<0xB8>	0
<0xB9>	0
<0xBA>	0
<0xBB>	0
<0xBC>	0
<0xBD>	0
<0xBE>	0
<0xBF>	0
<0xC0>	0
<0xC1>	0
<0xC2>	0
<0xC3>	0
<0xC4>	0
<0xC5>	0
<0xC6>	0
<0xC7>	0
<0xC8>	0
<0xC9>	0
<0xCA>	0
<0xCB>	0
<0xCC>	0
<0xCD>	0
<0xCE>	0
<0xCF>	0
<0xD0>	0
<0xD1>	0
<0xD2>	0
<0xD3>	0
<0xD4>	0
<0xD5>	0
<0xD6>	0
<0xD7>	0
<0xD8>	0
<0xD9>	0
<0xDA>	0
<0xDB>	0
<0xDC>	0
<0xDD>	0
<0xDE>	0
<0xDF>	0
<0xE0>	0
<0xE1>	0
<0xE2>	0
<0xE3>	0
<0xE4>	0
<0xE5>	0
<0xE6>	0
<0xE7>	0
<0xE8>	0
<0xE9>	0
<0xEA>	0
<0xEB>	0
<0xEC>	0
<0xED>	0
<0xEE>	0
<0xEF>	0
<0xF0>	0
<0xF1>	0
<0xF2>	0
<0xF3>	0
<0xF4>	0
<0xF5>	0
<0xF6>	0
<0xF7>	0
<0xF8>	0
<0xF9>	0
<0xFA>	0
<0xFB>	0
<0xFC>	0
<0xFD>	0
<0xFE>	0
<0xFF>	0
▁t	-0
he	-1
in	-2
▁a	-3
er	-4
on	-5
▁the	-6
or	-7
an	-8
en	-9
es	-10
ed	-11
at	-12
▁o	-13
is	-14
▁s	-15
ar	-16
al	-17
▁w	-18
it	-19
▁of	-20
▁in	-21
nd	-22
▁f	-23
▁c	-24
re	-25
as	-26
ic	-27
▁b	-28
▁p	-29
ing	-30
▁and	-31
▁S	-32
ion	-33
ro	-34
▁C	-35
le	-36
▁T	-37
▁A	-38
▁to	-39
▁m	-40
ou	-41
▁d	-42
il	-43
ent	-44
▁M	-45
▁h	-46
am	-47
▁B	-48
el	-49
ol	-50
om	-51
▁P	-52
st	-53
▁(	-54
▁R	-55
ur	-56
ac	-57
▁l	-58
▁I	-59
▁H	-60
ad	-61
et	-62
ec	-63
iv	-64
ers	-65
▁The	-66
ation	-67
ir	-68
▁was	-69
▁D	-70
▁L	-71
▁n	-72
▁re	-73
▁F	-74
ig	-75
ot	-76
id	-77
us	-78
▁th	-79
▁for	-80
ay	-81
ter	-82
▁on	-83
▁G	-84
▁N	-85
▁e	-86
ly	-87
▁E	-88
im	-89
▁W	-90
ch	-91
▁is	-92
ist	-93
em	-94
▁g	-95
ut	-96
ow	-97
▁as	-98
un	-99
th	-100
ith	-101
▁J	-102
and	-103
ct	-104
▁r	-105
her	-106
ag	-107
▁st	-108
ul	-109
ce	-110
▁with	-111
▁O	-112
▁by	-113
est	-114
▁al	-115
um	-116
os	-117
rom	-118
op	-119
ver	-120
▁at	-121
▁be	-122
ri	-123
ain	-124
▁wh	-125
▁K	-126
oc	-127
▁an	-128
▁from	-129
ian	-130
ap	-131
▁U	-132
▁con	-133
▁In	-134
av	-135
▁"	-136
▁he	-137
ab	-138
all	-139
ess	-140
▁v	-141
ity	-142
ia	-143
od	-144
ies	-145
ber	-146
▁that	-147
▁St	-148
ts	-149
ill	-150
▁com	-151
ate	-152
if	-153
ew	-154
▁pro	-155
up	-156
▁pl	-157
ard	-158
▁|	-159
art	-160
▁de	-161
ud	-162
ip	-163
ak	-164
ub	-165
ear	-166
▁it	-167
igh	-168
▁Ch	-169
▁V	-170
▁his	-171
▁Re	-172
ich	-173
ort	-174
ated	-175
▁or	-176
ov	-177
ld	-178
oun	-179
ary	-180
qu	-181
ish	-182
ge	-183
mer	-184
our	-185
fer	-186
ment	-187
ive	-188
se	-189
end	-190
ug	-191
og	-192
ong	-193
▁are	-194
▁ch	-195
ial	-196
ks	-197
ast	-198
ere	-199
und	-200
▁se	-201
ell	-202
ran	-203
enc	-204
ine	-205
▁ex	-206
ust	-207
ord	-208
▁were	-209
▁He	-210
ant	-211
so	-212
ame	-213
uc	-214
ra	-215
ore	-216
▁Un	-217
tern	-218
),	-219
ect	-220
ions	-221
▁le	-222
ical	-223
ost	-224
ue	-225
▁play	-226
▁sp	-227
▁also	-228
ack	-229
ric	-230
ign	-231
ie	-232
▁which	-233
ep	-234
age	-235
▁comp	-236
ass	-237
ther	-238
▁y	-239
▁sh	-240
▁–	-241
ff	-242
rit	-243
ry	-244
ount	-245
ure	-246
▁Y	-247
▁k	-248
ire	-249
pp	-250
irst	-251
man	-252
cl	-253
ight	-254
res	-255
ous	-256
▁Al	-257
▁cl	-258
▁It	-259
▁un	-260
ences	-261
▁had	-262
iz	-263
land	-264
▁Ar	-265
ational	-266
erv	-267
ember	-268
ork	-269
ond	-270
▁ar	-271
own	-272
hed	-273
▁Th	-274
ide	-275
ory	-276
ican	-277
orn	-278
ok	-279
ations	-280
▁||	-281
ang	-282
per	-283
ice	-284
amp	-285
ave	-286
▁has	-287
ens	-288
▁first	-289
ome	-290
ferences	-291
▁not	-292
▁res	-293
fter	-294
te	-295
ater	-296
ach	-297
ib	-298
▁whe	-299
▁ro	-300
ey	-301
▁References	-302
wo	-303
▁Amer	-304
ates	-305
act	-306
▁cont	-307
ited	-308
ence	-309
▁Mar	-310
ool	-311
▁te	-312
ition	-313
lect	-314
uct	-315
▁ad	-316
▁us	-317
to	-318
▁who	-319
ilm	-320
eop	-321
aw	-322
ree	-323
▁j	-324
ult	-325
ball	-326
▁their	-327
ace	-328
▁its	-329
ime	-330
ath	-331
▁An	-332
▁Le	-333
ound	-334
port	-335
▁tr	-336
▁New	-337
ild	-338
eople	-339
out	-340
ubl	-341
old	-342
ik	-343
ail	-344
cc	-345
).	-346
ite	-347
▁year	-348
pl	-349
▁-	-350
over	-351
▁Ex	-352
ivers	-353
▁ab	-354
oot	-355
iss	-356
▁app	-357
▁Com	-358
▁part	-359
oll	-360
clud	-361
ors	-362
ents	-363
▁her	-364
▁but	-365
▁American	-366
inal	-367
wn	-368
▁one	-369
hip	-370
ugh	-371
pt	-372
▁As	-373
chool	-374
ee	-375
les	-376
ile	-377
▁rec	-378
are	-379
▁ag	-380
hn	-381
▁per	-382
ade	-383
for	-384
▁man	-385
ual	-386
▁En	-387
▁two	-388
ress	-389
▁includ	-390
uring	-391
▁sc	-392
io	-393
ould	-394
ons	-395
oy	-396
▁On	-397
ward	-398
▁have	-399
ton	-400
ased	-401
oin	-402
▁bec	-403
ark	-404
ob	-405
ings	-406
▁this	-407
▁all	-408
we	-409
▁comm	-410
ied	-411
urn	-412
▁des	-413
ase	-414
▁Sp	-415
ted	-416
gh	-417
outh	-418
ind	-419
▁been	-420
▁lin	-421
▁other	-422
▁film	-423
ics	-424
ely	-425
able	-426
▁pr	-427
▁after	-428
ury	-429
▁dis	-430
hy	-431
ished	-432
uch	-433
ral	-434
▁act	-435
▁off	-436
eb	-437
ft	-438
▁im	-439
gan	-440
one	-441
ood	-442
▁up	-443
▁United	-444
vel	-445
▁over	-446
orld	-447
way	-448
rop	-449
ootball	-450
▁Sh	-451
▁en	-452
ren	-453
▁serv	-454
anc	-455
▁out	-456
cent	-457
ance	-458
rap	-459
▁und	-460
ames	-461
ision	-462
orth	-463
iversity	-464
ternal	-465
ah	-466
▁loc	-467
ans	-468
ason	-469
ale	-470
▁Pro	-471
▁people	-472
▁new	-473
▁Jo	-474
ex	-475
▁Ind	-476
▁into	-477
olog	-478
▁they	-479
ough	-480
▁players	-481
▁ev	-482
amil	-483
ram	-484
ake	-485
rib	-486
▁Z	-487
ists	-488
ont	-489
▁Col	-490
▁gro	-491
als	-492
▁links	-493
ock	-494
uary	-495
▁bu	-496
ouse	-497
ick	-498
iel	-499
▁External	-500
▁she	-501
ose	-502
ounty	-503
▁Cl	-504
▁under	-505
ann	-506
▁att	-507
▁work	-508
az	-509
ict	-510
▁Eng	-511
▁pre	-512
▁Sc	-513
rough	-514
rans	-515
▁sec	-516
▁University	-517
eral	-518
ix	-519
▁time	-520
red	-521
inn	-522
ince	-523
▁kn	-524
▁reg	-525
ious	-526
duc	-527
eat	-528
▁team	-529
ities	-530
hes	-531
mp	-532
oci	-533
▁bet	-534
▁him	-535
▁est	-536
ina	-537
form	-538
ier	-539
▁cons	-540
▁years	-541
oth	-542
ife	-543
ative	-544
▁For	-545
opul	-546
abl	-547
ever	-548
hen	-549
▁Br	-550
▁publ	-551
aj	-552
▁ass	-553
▁ind	-554
irect	-555
use	-556
▁States	-557
enn	-558
▁when	-559
ll	-560
▁co	-561
▁cent	-562
▁pol	-563
ident	-564
son	-565
bum	-566
usic	-567
ional	-568
air	-569
▁De	-570
ollow	-571
att	-572
ague	-573
ween	-574
reat	-575
emb	-576
▁again	-577
▁Pl	-578
▁more	-579
▁football	-580
▁ret	-581
▁County	-582
any	-583
▁This	-584
▁col	-585
resent	-586
ley	-587
▁sub	-588
iving	-589
round	-590
▁where	-591
ober	-592
▁during	-593
▁would	-594
▁bo	-595
istric	-596
pr	-597
ograp	-598
▁gen	-599
str	-600
der	-601
▁form	-602
▁stud	-603
▁Is	-604
arly	-605
▁only	-606
▁War	-607
overn	-608
istory	-609
eries	-610
▁qu	-611
ement	-612
▁found	-613
▁sup	-614
▁spec	-615
arl	-616
▁National	-617
▁between	-618
▁John	-619
▁fl	-620
▁Comm	-621
ash	-622
▁Fran	-623
iam	-624
▁can	-625
▁rel	-626
▁At	-627
▁sy	-628
▁season	-629
▁rele	-630
ield	-631
▁dec	-632
erman	-633
▁most	-634
▁three	-635
ific	-636
▁album	-637
ins	-638
iver	-639
duct	-640
▁about	-641
▁World	-642
▁Aust	-643
▁She	-644
▁ac	-645
▁there	-646
▁ed	-647
▁Con	-648
ros	-649
▁through	-650
▁inter	-651
▁Q	-652
cess	-653
▁bir	-654
▁acc	-655
▁med	-656
▁school	-657
▁art	-658
▁famil	-659
ept	-660
istrict	-661
▁elect	-662
▁sing	-663
une	-664
▁Bl	-665
▁rem	-666
▁made	-667
▁end	-668
ank	-669
ern	-670
▁them	-671
▁Pr	-672
fore	-673
▁later	-674
▁popul	-675
▁follow	-676
▁Brit	-677
▁School	-678
erson	-679
ths	-680
ve	-681
▁second	-682
▁num	-683
ten	-684
pen	-685
▁establ	-686
▁me	-687
▁record	-688
ating	-689
▁inc	-690
".	-691
▁then	-692
oss	-693
ower	-694
▁used	-695
▁writ	-696
erm	-697
arg	-698
velop	-699
▁mov	-700
▁def	-701
▁May	-702
por	-703
ures	-704
▁Or	-705
its	-706
ett	-707
▁trans	-708
uss	-709
▁Tr	-710
▁Can	-711
▁so	-712
ived	-713
▁direct	-714
▁known	-715
▁Ad	-716
▁&	-717
ese	-718
."	-719
▁Ph	-720
ax	-721
▁Ge	-722
▁inv	-723
ars	-724
▁prov	-725
urch	-726
▁Jan	-727
iew	-728
▁ent	-729
▁exp	-730
els	-731
▁str	-732
▁became	-733
ounc	-734
▁such	-735
",	-736
▁than	-737
▁German	-738
lev	-739
ron	-740
▁South	-741
ments	-742
stit	-743
▁some	-744
ural	-745
▁four	-746
til	-747
▁bl	-748
ternational	-749
="	-750
let	-751
▁Pol	-752
ai	-753
arn	-754
▁am	-755
eg	-756
▁mon	-757
ute	-758
ism	-759
▁York	-760
▁including	-761
ph	-762
other	-763
▁song	-764
▁being	-765
very	-766
▁Ju	-767
ise	-768
by	-769
ister	-770
ampions	-771
▁lead	-772
ces	-773
ty	-774
▁well	-775
arri	-776
▁Nov	-777
▁call	-778
ays	-779
tain	-780
ike	-781
ae	-782
amed	-783
▁group	-784
▁against	-785
born	-786
▁series	-787
▁do	-788
ather	-789
▁Wh	-790
▁After	-791
▁death	-792
ull	-793
ets	-794
▁gr	-795
▁.	-796
stem	-797
ians	-798
▁rep	-799
au	-800
omen	-801
▁go	-802
▁cap	-803
my	-804
▁Austral	-805
▁int	-806
istor	-807
▁Dec	-808
▁oper	-809
▁British	-810
▁family	-811
aid	-812
▁bro	-813
ugust	-814
▁char	-815
areer	-816
▁build	-817
▁min	-818
▁sur	-819
▁par	-820
sp	-821
ution	-822
ean	-823
▁before	-824
▁Cent	-825
▁See	-826
ne	-827
▁add	-828
▁played	-829
▁sign	-830
▁no	-831
ives	-832
ica	-833
ke	-834
lish	-835
▁high	-836
isc	-837
▁appear	-838
▁develop	-839
▁Co	-840
▁while	-841
▁offic	-842
eptember	-843
▁until	-844
▁League	-845
▁may	-846
▁August	-847
▁rece	-848
▁show	-849
owever	-850
▁All	-851
▁Car	-852
ject	-853
▁own	-854
eng	-855
▁area	-856
elf	-857
▁class	-858
▁North	-859
▁orig	-860
▁name	-861
▁many	-862
rist	-863
▁main	-864
ired	-865
▁music	-866
▁back	-867
ology	-868
overnment	-869
▁Ed	-870
icip	-871
lege	-872
ized	-873
▁March	-874
▁Bo	-875
ctober	-876
▁September	-877
ev	-878
▁|-	-879
▁Gr	-880
▁English	-881
▁Eu	-882
eth	-883
▁Reg	-884
▁mod	-885
aces	-886
▁cre	-887
▁both	-888
yp	-889
▁number	-890
ales	-891
▁City	-892
▁former	-893
inc	-894
▁June	-895
▁Ass	-896
fess	-897
pril	-898
ages	-899
▁Gu	-900
ently	-901
uth	-902
▁dr	-903
▁Cal	-904
▁gu	-905
ott	-906
oman	-907
gram	-908
embers	-909
▁town	-910
▁July	-911
ium	-912
▁Canad	-913
▁January	-914
ajor	-915
▁births	-916
ior	-917
▁October	-918
ission	-919
▁Rec	-920
urr	-921
▁Will	-922
ampionship	-923
ital	-924
▁Fl	-925
▁sever	-926
eed	-927
ross	-928
▁dep	-929
▁polit	-930
ery	-931
▁Be	-932
ains	-933
wards	-934
▁won	-935
▁April	-936
▁released	-937
ird	-938
ered	-939
century	-940
▁city	-941
ient	-942
▁Am	-943
sh	-944
imes	-945
▁run	-946
▁open	-947
▁Par	-948
led	-949
▁br	-950
▁Man	-951
▁Comp	-952
iet	-953
▁count	-954
orts	-955
ebr	-956
ues	-957
▁vill	-958
▁organ	-959
▁sm	-960
▁design	-961
▁feat	-962
▁State	-963
ved	-964
itt	-965
▁mat	-966
▁Bro	-967
▁game	-968
▁dif	-969
▁Af	-970
▁ann	-971
ilt	-972
yl	-973
▁house	-974
▁II	-975
▁November	-976
osed	-977
▁state	-978
ography	-979
▁December	-980
▁His	-981
ines	-982
▁ext	-983
arm	-984
ove	-985
▁commun	-986
ret	-987
yn	-988
▁produc	-989
▁films	-990
apan	-991
▁var	-992
ually	-993
▁em	-994
ham	-995
▁men	-996
▁King	-997
ony	-998
fl	-999
amb	-1000
ket	-1001
▁Europ	-1002
▁long	-1003
▁system	-1004
▁History	-1005
▁ph	-1006
▁near	-1007
▁population	-1008
▁Bar	-1009
ful	-1010
ris	-1011
ung	-1012
ular	-1013
ause	-1014
ained	-1015
▁club	-1016
min	-1017
▁ob	-1018
ven	-1019
▁final	-1020
▁child	-1021
▁Air	-1022
▁desc	-1023
▁public	-1024
▁return	-1025
▁life	-1026
▁Sw	-1027
▁air	-1028
▁list	-1029
▁West	-1030
▁several	-1031
levision	-1032
▁'	-1033
▁Gre	-1034
af	-1035
▁fin	-1036
▁Har	-1037
▁career	-1038
▁called	-1039
▁Med	-1040
▁Geor	-1041
vent	-1042
ices	-1043
ange	-1044
▁imp	-1045
ebruary	-1046
aking	-1047
ille	-1048
resident	-1049
▁same	-1050
ilit	-1051
▁Te	-1052
▁start	-1053
▁US	-1054
▁following	-1055
▁Japan	-1056
..	-1057
oint	-1058
ility	-1059
▁And	-1060
ene	-1061
▁suc	-1062
▁Christ	-1063
▁age	-1064
▁early	-1065
rench	-1066
▁El	-1067
▁contin	-1068
ants	-1069
The	-1070
▁will	-1071
erg	-1072
ured	-1073
view	-1074
▁bel	-1075
struct	-1076
orks	-1077
onom	-1078
▁located	-1079
▁They	-1080
ible	-1081
▁land	-1082
yle	-1083
com	-1084
▁established	-1085
ington	-1086
▁There	-1087
▁original	-1088
ator	-1089
bo	-1090
▁February	-1091
ially	-1092
▁Mc	-1093
▁named	-1094
the	-1095
ival	-1096
angu	-1097
▁Ro	-1098
▁any	-1099
ally	-1100
▁High	-1101
▁Min	-1102
▁program	-1103
▁Ab	-1104
▁disc	-1105
▁since	-1106
▁compet	-1107
▁head	-1108
ided	-1109
▁Rep	-1110
ster	-1111
ued	-1112
▁use	-1113
ino	-1114
aly	-1115
ert	-1116
urg	-1117
▁French	-1118
echn	-1119
▁pass	-1120
▁based	-1121
ats	-1122
ford	-1123
▁Gen	-1124
▁station	-1125
▁comple	-1126
▁$	-1127
lymp	-1128
aced	-1129
ane	-1130
ects	-1131
ata	-1132
▁resp	-1133
ality	-1134
ourn	-1135
▁these	-1136
ised	-1137
▁Se	-1138
ky	-1139
ended	-1140
▁Olymp	-1141
▁tit	-1142
▁William	-1143
ience	-1144
iness	-1145
aint	-1146
▁began	-1147
ner	-1148
cept	-1149
▁College	-1150
▁prom	-1151
▁members	-1152
augh	-1153
orm	-1154
che	-1155
ech	-1156
▁met	-1157
▁dist	-1158
▁along	-1159
▁eff	-1160
ivision	-1161
acks	-1162
uk	-1163
▁Res	-1164
▁occ	-1165
ection	-1166
▁place	-1167
▁District	-1168
▁Afric	-1169
▁village	-1170
▁small	-1171
▁support	-1172
adem	-1173
▁band	-1174
ored	-1175
▁member	-1176
me	-1177
row	-1178
▁product	-1179
aining	-1180
ociation	-1181
ana	-1182
ically	-1183
▁eng	-1184
▁Part	-1185
▁held	-1186
▁we	-1187
ode	-1188
ondon	-1189
earch	-1190
▁government	-1191
ourt	-1192
aster	-1193
itions	-1194
alth	-1195
ights	-1196
▁old	-1197
▁games	-1198
▁manag	-1199
ublic	-1200
▁law	-1201
▁Russ	-1202
▁bus	-1203
▁Dav	-1204
▁Championship	-1205
▁each	-1206
▁did	-1207
▁Not	-1208
que	-1209
aving	-1210
estern	-1211
▁sim	-1212
▁home	-1213
▁major	-1214
▁Film	-1215
ards	-1216
▁line	-1217
▁north	-1218
atic	-1219
aul	-1220
▁People	-1221
▁Cup	-1222
▁X	-1223
▁Sec	-1224
ck	-1225
▁built	-1226
oung	-1227
▁International	-1228
idge	-1229
▁vers	-1230
eter	-1231
rew	-1232
▁set	-1233
▁served	-1234
▁person	-1235
ety	-1236
▁Art	-1237
▁national	-1238
▁century	-1239
ately	-1240
▁,	-1241
▁Sy	-1242
▁company	-1243
▁Her	-1244
▁took	-1245
▁London	-1246
▁La	-1247
osition	-1248
▁sl	-1249
ides	-1250
rol	-1251
ract	-1252
▁List	-1253
▁species	-1254
▁bas	-1255
▁Park	-1256
▁Dr	-1257
arge	-1258
▁profess	-1259
▁Phil	-1260
ple	-1261
▁single	-1262
▁Indian	-1263
ords	-1264
▁down	-1265
▁local	-1266
▁describ	-1267
▁women	-1268
ped	-1269
▁No	-1270
▁cr	-1271
ummer	-1272
▁born	-1273
ches	-1274
artment	-1275
▁present	-1276
lin	-1277
▁Ang	-1278
ency	-1279
▁world	-1280
med	-1281
ording	-1282
arried	-1283
illion	-1284
▁However	-1285
ffic	-1286
▁leg	-1287
▁Sup	-1288
▁success	-1289
par	-1290
▁refer	-1291
side	-1292
▁Gl	-1293
▁published	-1294
ature	-1295
ilitary	-1296
▁within	-1297
▁Ac	-1298
▁south	-1299
▁event	-1300
▁join	-1301
idd	-1302
▁television	-1303
ison	-1304
▁House	-1305
▁around	-1306
ows	-1307
▁Mich	-1308
▁po	-1309
ling	-1310
ze	-1311
▁could	-1312
uthor	-1313
▁now	-1314
▁—	-1315
▁Cor	-1316
umb	-1317
▁River	-1318
▁player	-1319
▁hel	-1320
co	-1321
▁San	-1322
▁deb	-1323
▁differ	-1324
▁term	-1325
ara	-1326
▁car	-1327
omin	-1328
▁appro	-1329
▁last	-1330
ether	-1331
reet	-1332
▁Act	-1333
▁Char	-1334
ief	-1335
▁received	-1336
ified	-1337
akes	-1338
raft	-1339
▁six	-1340
▁rest	-1341
tt	-1342
iforn	-1343
ouncil	-1344
▁left	-1345
▁general	-1346
▁educ	-1347
iod	-1348
▁due	-1349
▁history	-1350
sc	-1351
umn	-1352
▁Living	-1353
ki	-1354
unct	-1355
ifornia	-1356
▁ep	-1357
▁Des	-1358
gr	-1359
▁died	-1360
▁district	-1361
aus	-1362
▁red	-1363
▁Mon	-1364
ailway	-1365
ization	-1366
iven	-1367
oks	-1368
hold	-1369
uf	-1370
▁camp	-1371
ps	-1372
int	-1373
▁five	-1374
anguage	-1375
aim	-1376
▁California	-1377
ected	-1378
ones	-1379
▁building	-1380
▁Dep	-1381
▁include	-1382
▁Sch	-1383
vers	-1384
eal	-1385
ble	-1386
▁fr	-1387
alk	-1388
▁Per	-1389
▁During	-1390
adio	-1391
▁England	-1392
▁short	-1393
ideo	-1394
day	-1395
▁children	-1396
ka	-1397
▁tri	-1398
urs	-1399
ler	-1400
▁det	-1401
istr	-1402
▁la	-1403
.,	-1404
unicip	-1405
ize	-1406
▁day	-1407
though	-1408
▁Gro	-1409
▁Roy	-1410
▁large	-1411
acter	-1412
ument	-1413
▁water	-1414
▁third	-1415
era	-1416
▁order	-1417
▁Island	-1418
uck	-1419
urther	-1420
▁Acc	-1421
▁said	-1422
▁included	-1423
▁fem	-1424
leg	-1425
▁because	-1426
▁Ag	-1427
eek	-1428
▁curr	-1429
ald	-1430
▁represent	-1431
ico	-1432
br	-1433
▁non	-1434
▁male	-1435
col	-1436
ocial	-1437
▁son	-1438
▁post	-1439
▁requ	-1440
▁Nor	-1441
useum	-1442
inning	-1443
▁ref	-1444
▁By	-1445
riend	-1446
▁Pre	-1447
▁East	-1448
▁top	-1449
▁prot	-1450
line	-1451
ily	-1452
▁consid	-1453
▁Mo	-1454
ring	-1455
▁power	-1456
▁mark	-1457
▁larg	-1458
field	-1459
▁stand	-1460
ively	-1461
▁Roman	-1462
▁arch	-1463
▁deaths	-1464
▁av	-1465
ody	-1466
ef	-1467
▁those	-1468
osp	-1469
vious	-1470
▁Australia	-1471
▁result	-1472
lement	-1473
hern	-1474
▁style	-1475
hem	-1476
▁adv	-1477
▁just	-1478
▁typ	-1479
▁lo	-1480
ext	-1481
▁report	-1482
▁Me	-1483
iter	-1484
▁Town	-1485
▁Mor	-1486
omb	-1487
▁dem	-1488
uman	-1489
alf	-1490
▁France	-1491
▁Bel	-1492
▁Church	-1493
▁service	-1494
▁book	-1495
alt	-1496
aff	-1497
ipp	-1498
▁Qu	-1499
▁Dem	-1500
ady	-1501
▁perform	-1502
▁period	-1503
tal	-1504
▁kill	-1505
ste	-1506
ink	-1507
▁Sm	-1508
▁Port	-1509
▁iss	-1510
▁establish	-1511
ours	-1512
na	-1513
lex	-1514
▁stat	-1515
▁vis	-1516
ops	-1517
app	-1518
ox	-1519
hel	-1520
▁war	-1521
▁fac	-1522
ama	-1523
▁Rober	-1524
▁field	-1525
▁addition	-1526
▁cor	-1527
▁Australian	-1528
▁Music	-1529
ius	-1530
▁repl	-1531
istoric	-1532
▁Football	-1533
uel	-1534
avy	-1535
▁moved	-1536
▁different	-1537
▁One	-1538
lection	-1539
▁web	-1540
orthern	-1541
ander	-1542
ote	-1543
▁arr	-1544
▁business	-1545
ecut	-1546
▁align	-1547
▁still	-1548
▁another	-1549
ribut	-1550
▁Em	-1551
ground	-1552
ociety	-1553
▁described	-1554
uit	-1555
▁incre	-1556
▁Thom	-1557
▁make	-1558
▁Army	-1559
▁James	-1560
gin	-1561
▁Award	-1562
▁ec	-1563
of	-1564
ville	-1565
▁win	-1566
ania	-1567
▁like	-1568
▁opp	-1569
astern	-1570
ael	-1571
ests	-1572
▁country	-1573
▁sold	-1574
ensus	-1575
▁el	-1576
ministr	-1577
▁sett	-1578
▁George	-1579
▁round	-1580
▁very	-1581
epend	-1582
ivil	-1583
ript	-1584
▁Club	-1585
▁author	-1586
ship	-1587
▁Cap	-1588
▁construct	-1589
dom	-1590
▁hand	-1591
▁announc	-1592
▁Val	-1593
▁equ	-1594
ries	-1595
▁side	-1596
▁conc	-1597
ested	-1598
▁trad	-1599
▁Bu	-1600
▁crit	-1601
▁Rich	-1602
▁if	-1603
ering	-1604
ugg	-1605
▁led	-1606
▁international	-1607
▁del	-1608
ograph	-1609
iber	-1610
site	-1611
▁father	-1612
itar	-1613
▁every	-1614
▁India	-1615
attle	-1616
▁pat	-1617
▁best	-1618
ago	-1619
▁Red	-1620
▁activ	-1621
▁title	-1622
▁exper	-1623
▁Paul	-1624
▁Pal	-1625
▁nov	-1626
▁Lou	-1627
▁David	-1628
ched	-1629
▁site	-1630
adu	-1631
▁When	-1632
▁level	-1633
ms	-1634
▁General	-1635
▁Hol	-1636
ases	-1637
ament	-1638
▁Year	-1639
▁character	-1640
▁produced	-1641
ivid	-1642
ush	-1643
ense	-1644
ness	-1645
▁Party	-1646
anish	-1647
ournal	-1648
▁Canada	-1649
▁Division	-1650
▁cult	-1651
work	-1652
▁ship	-1653
thern	-1654
▁port	-1655
▁community	-1656
▁Mal	-1657
▁With	-1658
olic	-1659
ined	-1660
▁mag	-1661
▁ne	-1662
▁married	-1663
▁written	-1664
▁European	-1665
hys	-1666
▁among	-1667
outhern	-1668
forman	-1669
▁late	-1670
▁aver	-1671
ploy	-1672
▁though	-1673
▁Association	-1674
▁total	-1675
▁Flor	-1676
▁previous	-1677
▁Canadian	-1678
ories	-1679
▁award	-1680
▁Royal	-1681
▁debut	-1682
xt	-1683
▁Academ	-1684
▁often	-1685
center	-1686
▁struct	-1687
▁Street	-1688
▁turn	-1689
▁Que	-1690
ena	-1691
olution	-1692
▁household	-1693
▁official	-1694
formation	-1695
off	-1696
▁cover	-1697
▁came	-1698
▁techn	-1699
raw	-1700
acy	-1701
irc	-1702
▁works	-1703
reek	-1704
reg	-1705
abor	-1706
reen	-1707
atri	-1708
iment	-1709
▁Commun	-1710
▁invol	-1711
ves	-1712
▁America	-1713
ti	-1714
▁poss	-1715
▁My	-1716
▁aff	-1717
itor	-1718
bor	-1719
▁es	-1720
▁even	-1721
▁given	-1722
▁epis	-1723
▁bre	-1724
▁Trans	-1725
lo	-1726
▁Ital	-1727
align	-1728
▁vol	-1729
▁Germany	-1730
▁expl	-1731
▁went	-1732
ha	-1733
▁import	-1734
ij	-1735
ney	-1736
▁Vir	-1737
▁young	-1738
▁fact	-1739
▁role	-1740
▁created	-1741
irl	-1742
▁Stud	-1743
hib	-1744
▁First	-1745
iol	-1746
▁Sen	-1747
▁sw	-1748
ced	-1749
err	-1750
omet	-1751
stitute	-1752
▁allow	-1753
ots	-1754
▁started	-1755
▁Mary	-1756
▁development	-1757
ida	-1758
▁Council	-1759
▁version	-1760
▁chang	-1761
ades	-1762
▁engine	-1763
iron	-1764
oph	-1765
▁Arch	-1766
▁Road	-1767
lected	-1768
▁Jos	-1769
▁val	-1770
▁tw	-1771
▁million	-1772
self	-1773
ope	-1774
ared	-1775
bert	-1776
▁fre	-1777
ma	-1778
▁init	-1779
▁what	-1780
ocr	-1781
back	-1782
▁From	-1783
hers	-1784
eak	-1785
▁much	-1786
▁politic	-1787
▁professional	-1788
ividual	-1789
▁common	-1790
▁albums	-1791
▁Sl	-1792
▁Group	-1793
eration	-1794
ached	-1795
▁Wash	-1796
ibr	-1797
▁pres	-1798
▁Mag	-1799
cast	-1800
▁Mount	-1801
▁tem	-1802
odes	-1803
▁church	-1804
▁Mart	-1805
▁process	-1806
ances	-1807
▁Prov	-1808
▁sit	-1809
▁various	-1810
▁footballers	-1811
▁Sing	-1812
de	-1813
▁opened	-1814
▁Hen	-1815
▁Union	-1816
▁Hall	-1817
ological	-1818
ults	-1819
ban	-1820
ari	-1821
ole	-1822
right	-1823
▁next	-1824
ogn	-1825
▁announced	-1826
▁become	-1827
▁President	-1828
▁average	-1829
umni	-1830
▁video	-1831
ointed	-1832
ittle	-1833
▁military	-1834
rote	-1835
▁Ber	-1836
▁Black	-1837
▁prop	-1838
▁special	-1839
▁Cr	-1840
▁et	-1841
men	-1842
▁having	-1843
ators	-1844
▁Ser	-1845
▁Law	-1846
▁students	-1847
berg	-1848
▁returned	-1849
▁songs	-1850
ona	-1851
▁claim	-1852
▁voc	-1853
▁joined	-1854
ream	-1855
iction	-1856
▁read	-1857
BC	-1858
raz	-1859
ming	-1860
▁[	-1861
▁Ne	-1862
▁Mex	-1863
▁Italian	-1864
▁Washington	-1865
itte	-1866
▁production	-1867
▁election	-1868
▁These	-1869
▁prim	-1870
▁Robert	-1871
▁host	-1872
burg	-1873
▁few	-1874
iles	-1875
aken	-1876
▁pri	-1877
▁sent	-1878
▁gl	-1879
▁conf	-1880
▁According	-1881
▁Company	-1882
▁Play	-1883
▁Japanese	-1884
▁Tur	-1885
▁region	-1886
ston	-1887
oon	-1888
ilar	-1889
▁Cath	-1890
▁living	-1891
ources	-1892
ference	-1893
▁using	-1894
▁Scott	-1895
iddle	-1896
tr	-1897
▁Pri	-1898
unn	-1899
▁star	-1900
▁Other	-1901
▁Records	-1902
tar	-1903
▁Best	-1904
▁intro	-1905
▁Mont	-1906
▁league	-1907
lands	-1908
▁performan	-1909
▁Tex	-1910
▁sol	-1911
▁political	-1912
anies	-1913
itz	-1914
▁road	-1915
▁worked	-1916
rian	-1917
▁take	-1918
oints	-1919
▁municip	-1920
color	-1921
ills	-1922
▁match	-1923
▁beg	-1924
▁Thomas	-1925
iography	-1926
▁()	-1927
wood	-1928
▁Miss	-1929
▁coach	-1930
▁way	-1931
▁Games	-1932
ention	-1933
ination	-1934
▁position	-1935
▁Court	-1936
sequ	-1937
▁east	-1938
▁times	-1939
▁African	-1940
▁beh	-1941
stitut	-1942
▁Ir	-1943
▁website	-1944
▁infl	-1945
ya	-1946
itect	-1947
atch	-1948
▁Sam	-1949
▁broad	-1950
icle	-1951
▁base	-1952
ges	-1953
▁Cast	-1954
▁need	-1955
▁however	-1956
▁hig	-1957
quad	-1958
▁services	-1959
▁miss	-1960
▁story	-1961
oor	-1962
▁mar	-1963
▁China	-1964
▁Cont	-1965
aughter	-1966
▁teams	-1967
▁brother	-1968
▁Educ	-1969
▁Kh	-1970
▁Sal	-1971
▁Mad	-1972
▁We	-1973
▁great	-1974
▁sk	-1975
year	-1976
▁friend	-1977
▁director	-1978
unt	-1979
▁Center	-1980
▁Olympics	-1981
ateg	-1982
aur	-1983
ape	-1984
▁Vol	-1985
▁Serv	-1986
▁Europe	-1987
ule	-1988
▁half	-1989
▁full	-1990
▁Kn	-1991
▁areas	-1992
CA	-1993
west	-1994
idae	-1995
▁events	-1996
▁individual	-1997
▁wrote	-1998
▁Summer	-1999
▁Don	-2000
▁project	-2001
mit	-2002
estival	-2003
▁To	-2004
▁popular	-2005
▁Kingdom	-2006
▁see	-2007
▁hous	-2008
▁histor	-2009
▁without	-2010
▁pract	-2011
▁Louis	-2012
▁Grand	-2013
▁mult	-2014
▁recorded	-2015
aves	-2016
▁Men	-2017
▁Central	-2018
▁tog	-2019
▁Offic	-2020
▁Charles	-2021
ending	-2022
▁president	-2023
ani	-2024
iers	-2025
▁mid	-2026
▁completed	-2027
▁particip	-2028
▁together	-2029
▁west	-2030
▁conn	-2031
▁Department	-2032
▁Bay	-2033
▁Alex	-2034
▁Virgin	-2035
▁Press	-2036
▁comb	-2037
▁lost	-2038
▁Museum	-2039
atural	-2040
▁indust	-2041
aper	-2042
▁Leg	-2043
▁founded	-2044
▁ren	-2045
▁medal	-2046
atter	-2047
ying	-2048
▁attem	-2049
▁continued	-2050
▁lim	-2051
ishing	-2052
imately	-2053
rd	-2054
▁proper	-2055
▁Society	-2056
▁signed	-2057
ells	-2058
▁Angel	-2059
▁Michael	-2060
▁Russian	-2061
ketball	-2062
val	-2063
asons	-2064
▁Franc	-2065
▁attack	-2066
▁right	-2067
▁control	-2068
uce	-2069
▁wife	-2070
▁Met	-2071
▁Ste	-2072
▁schools	-2073
▁hon	-2074
ising	-2075
cer	-2076
craft	-2077
▁guitar	-2078
▁inf	-2079
aign	-2080
▁Great	-2081
mar	-2082
arliam	-2083
eh	-2084
▁priv	-2085
▁examp	-2086
▁vict	-2087
▁Texas	-2088
▁groups	-2089
▁ident	-2090
▁days	-2091
▁Penn	-2092
ota	-2093
▁find	-2094
thlet	-2095
uz	-2096
aged	-2097
ification	-2098
rick	-2099
▁=	-2100
▁Jew	-2101
▁White	-2102
ittee	-2103
▁TV	-2104
▁point	-2105
arliament	-2106
▁administr	-2107
▁promot	-2108
▁Inter	-2109
▁directed	-2110
icles	-2111
▁Western	-2112
▁surv	-2113
▁di	-2114
▁Christian	-2115
wh	-2116
used	-2117
▁Pat	-2118
less	-2119
▁Mac	-2120
▁econom	-2121
▁education	-2122
▁Green	-2123
eph	-2124
▁Mus	-2125
▁Awards	-2126
▁relations	-2127
▁considered	-2128
▁Gold	-2129
▁UK	-2130
reland	-2131
isl	-2132
▁places	-2133
band	-2134
▁Sim	-2135
etwork	-2136
▁Tom	-2137
▁dest	-2138
▁Vict	-2139
▁Historic	-2140
▁invest	-2141
▁race	-2142
▁enc	-2143
▁sports	-2144
▁similar	-2145
▁Ben	-2146
▁research	-2147
aine	-2148
▁points	-2149
▁ten	-2150
▁Zeal	-2151
▁stations	-2152
▁appointed	-2153
▁real	-2154
▁further	-2155
lic	-2156
):	-2157
▁my	-2158
iding	-2159
▁You	-2160
idence	-2161
ger	-2162
▁Cong	-2163
▁Zealand	-2164
▁Camp	-2165
▁Fr	-2166
▁Republic	-2167
oul	-2168
▁census	-2169
▁Railway	-2170
ellow	-2171
▁Academy	-2172
▁alumni	-2173
▁ins	-2174
▁Song	-2175
▁caus	-2176
▁fe	-2177
▁Chin	-2178
▁appeared	-2179
▁Catholic	-2180
▁track	-2181
▁Lat	-2182
▁Wil	-2183
▁hold	-2184
▁social	-2185
▁Mass	-2186
play	-2187
▁Carol	-2188
gcolor	-2189
▁grow	-2190
arth	-2191
ably	-2192
ederal	-2193
duced	-2194
▁help	-2195
ella	-2196
ership	-2197
▁formed	-2198
▁view	-2199
arter	-2200
▁Frank	-2201
▁elected	-2202
▁Institute	-2203
▁Africa	-2204
▁Lake	-2205
ements	-2206
gar	-2207
▁div	-2208
▁Richard	-2209
||	-2210
ockey	-2211
be	-2212
▁developed	-2213
ula	-2214
▁buildings	-2215
▁“	-2216
▁Sports	-2217
▁z	-2218
alls	-2219
▁case	-2220
▁Public	-2221
▁Spanish	-2222
▁trav	-2223
▁Peter	-2224
▁coll	-2225
rael	-2226
▁office	-2227
▁important	-2228
▁meet	-2229
▁cond	-2230
▁Bur	-2231
▁week	-2232
kn	-2233
▁live	-2234
ecutive	-2235
▁good	-2236
ique	-2237
roll	-2238
▁novel	-2239
▁Dan	-2240
▁/	-2241
apt	-2242
▁doc	-2243
▁mot	-2244
▁establishments	-2245
▁offer	-2246
▁assist	-2247
ylv	-2248
sy	-2249
ailed	-2250
▁making	-2251
anding	-2252
▁Bas	-2253
▁Tor	-2254
▁companies	-2255
ither	-2256
hi	-2257
▁Del	-2258
ensive	-2259
▁Pet	-2260
viron	-2261
▁influ	-2262
▁bgcolor	-2263
▁review	-2264
▁Bill	-2265
ys	-2266
ria	-2267
▁aut	-2268
cle	-2269
▁less	-2270
ycl	-2271
▁Mer	-2272
▁cer	-2273
▁phot	-2274
▁Early	-2275
▁playing	-2276
▁employ	-2277
▁Olympic	-2278
bour	-2279
▁Cons	-2280
▁Hon	-2281
▁avail	-2282
▁release	-2283
eated	-2284
▁Vill	-2285
olf	-2286
pro	-2287
arch	-2288
ini	-2289
azine	-2290
aries	-2291
uation	-2292
▁Mel	-2293
atre	-2294
▁radio	-2295
ada	-2296
ependent	-2297
▁cast	-2298
▁ground	-2299
▁does	-2300
ged	-2301
▁tradition	-2302
▁recogn	-2303
▁While	-2304
acing	-2305
▁language	-2306
ude	-2307
▁Second	-2308
▁Women	-2309
iff	-2310
ume	-2311
▁FC	-2312
▁mother	-2313
itive	-2314
▁partic	-2315
▁Cro	-2316
▁goal	-2317
ning	-2318
▁Henry	-2319
▁daughter	-2320
▁himself	-2321
▁App	-2322
▁But	-2323
▁Im	-2324
utes	-2325
▁reported	-2326
atives	-2327
▁human	-2328
ibrary	-2329
▁fund	-2330
▁low	-2331
ita	-2332
go	-2333
edy	-2334
▁others	-2335
ado	-2336
▁Sant	-2337
▁eight	-2338
ergy	-2339
▁should	-2340
▁working	-2341
▁cross	-2342
iation	-2343
▁Georg	-2344
ump	-2345
▁mater	-2346
▁across	-2347
▁female	-2348
▁fire	-2349
▁Chic	-2350
▁Rock	-2351
▁contract	-2352
▁Ev	-2353
ishop	-2354
▁body	-2355
▁laun	-2356
▁Spec	-2357
▁gradu	-2358
unction	-2359
ospital	-2360
▁rev	-2361
most	-2362
▁party	-2363
ender	-2364
▁Chinese	-2365
▁Los	-2366
asc	-2367
▁artist	-2368
▁black	-2369
▁rul	-2370
▁Virginia	-2371
jects	-2372
uter	-2373
errit	-2374
▁Ec	-2375
▁anim	-2376
▁Rev	-2377
▁exist	-2378
▁modern	-2379
▁Swed	-2380
atriate	-2381
idents	-2382
▁Ireland	-2383
igan	-2384
▁Go	-2385
▁becom	-2386
▁tra	-2387
ala	-2388
gen	-2389
pite	-2390
▁Israel	-2391
▁free	-2392
▁Che	-2393
▁Democr	-2394
roy	-2395
ceed	-2396
ano	-2397
iting	-2398
▁effect	-2399
▁never	-2400
ele	-2401
ugby	-2402
▁Victor	-2403
time	-2404
▁Education	-2405
eck	-2406
ura	-2407
▁cour	-2408
▁Kore	-2409
▁der	-2410
igned	-2411
▁phys	-2412
▁Smith	-2413
▁cle	-2414
▁Super	-2415
ux	-2416
▁Direct	-2417
hood	-2418
atory	-2419
oice	-2420
udd	-2421
itch	-2422
▁Ol	-2423
▁separ	-2424
▁available	-2425
▁Saint	-2426
emor	-2427
▁Rob	-2428
ways	-2429
▁successful	-2430
ym	-2431
▁viol	-2432
▁episode	-2433
▁construction	-2434
ams	-2435
ilities	-2436
nel	-2437
▁belie	-2438
▁performed	-2439
▁Land	-2440
ethod	-2441
▁Some	-2442
▁Its	-2443
▁information	-2444
▁Notes	-2445
▁Sir	-2446
▁vot	-2447
▁architect	-2448
gress	-2449
▁killed	-2450
writ	-2451
imate	-2452
▁acqu	-2453
ought	-2454
II	-2455
▁example	-2456
▁although	-2457
▁scored	-2458
▁mus	-2459
oma	-2460
▁Paris	-2461
▁Def	-2462
vironment	-2463
▁Atl	-2464
▁bar	-2465
people	-2466
ports	-2467
▁includes	-2468
stead	-2469
▁birth	-2470
▁Du	-2471
aval	-2472
ranch	-2473
uty	-2474
▁inst	-2475
▁books	-2476
here	-2477
ylvania	-2478
▁campaign	-2479
,"	-2480
utch	-2481
▁Ob	-2482
▁strong	-2483
▁Day	-2484
▁finished	-2485
▁light	-2486
▁conduct	-2487
▁Popul	-2488
▁away	-2489
razil	-2490
▁taken	-2491
▁Films	-2492
oviet	-2493
overnor	-2494
ked	-2495
▁how	-2496
▁Chicago	-2497
▁Hill	-2498
head	-2499
▁Mil	-2500
ece	-2501
▁Ill	-2502
ids	-2503
▁Order	-2504
▁deg	-2505
airs	-2506
chie	-2507
▁associ	-2508
ability	-2509
ta	-2510
▁winn	-2511
▁performance	-2512
▁dev	-2513
aps	-2514
▁originally	-2515
▁Force	-2516
▁size	-2517
▁paint	-2518
ential	-2519
▁months	-2520
▁stage	-2521
▁features	-2522
▁Str	-2523
mon	-2524
▁Minister	-2525
▁sil	-2526
▁fight	-2527
▁rock	-2528
"|	-2529
▁Florida	-2530
anded	-2531
▁gave	-2532
▁plant	-2533
▁Province	-2534
elling	-2535
▁once	-2536
▁jud	-2537
▁Tour	-2538
▁access	-2539
▁ste	-2540
▁relig	-2541
gy	-2542
▁largest	-2543
rov	-2544
▁Emp	-2545
onn	-2546
▁followed	-2547
▁dram	-2548
ola	-2549
▁current	-2550
aches	-2551
pe	-2552
▁Do	-2553
▁cost	-2554
▁Mr	-2555
▁tourn	-2556
▁Brazil	-2557
ricket	-2558
yd	-2559
istan	-2560
▁Brown	-2561
▁Scot	-2562
▁Carl	-2563
abit	-2564
▁ra	-2565
▁Sub	-2566
▁units	-2567
ios	-2568
▁seven	-2569
▁Ma	-2570
▁Er	-2571
ores	-2572
▁Penns	-2573
▁vocals	-2574
▁tour	-2575
▁qual	-2576
▁#	-2577
▁put	-2578
bb	-2579
▁Pan	-2580
istry	-2581
serv	-2582
▁shows	-2583
▁:	-2584
▁foc	-2585
▁tro	-2586
▁agre	-2587
▁lab	-2588
▁Life	-2589
▁mix	-2590
▁Mark	-2591
omm	-2592
ificant	-2593
inals	-2594
merc	-2595
read	-2596
▁aircraft	-2597
oms	-2598
▁court	-2599
▁training	-2600
▁Oh	-2601
ems	-2602
erous	-2603
▁artists	-2604
▁circ	-2605
unk	-2606
▁Ann	-2607
▁designed	-2608
▁inj	-2609
▁Pennsylvania	-2610
orpor	-2611
▁attempt	-2612
och	-2613
▁Exp	-2614
▁Just	-2615
▁Turk	-2616
▁Championships	-2617
▁gold	-2618
▁Italy	-2619
▁Class	-2620
▁approx	-2621
▁compos	-2622
road	-2623
▁material	-2624
enced	-2625
▁remained	-2626
▁journal	-2627
Ch	-2628
▁Two	-2629
▁politician	-2630
▁families	-2631
▁Government	-2632
▁ide	-2633
▁featured	-2634
▁health	-2635
▁pos	-2636
▁throughout	-2637
▁rank	-2638
urp	-2639
▁must	-2640
▁Oper	-2641
order	-2642
▁Arts	-2643
hest	-2644
rel	-2645
▁Sur	-2646
▁market	-2647
▁Count	-2648
▁civil	-2649
▁dam	-2650
aching	-2651
▁Irish	-2652
▁listed	-2653
▁plan	-2654
▁mount	-2655
▁awarded	-2656
▁leading	-2657
duction	-2658
incip	-2659
▁cou	-2660
▁Mexico	-2661
▁private	-2662
urity	-2663
▁Und	-2664
za	-2665
uff	-2666
ites	-2667
ón	-2668
▁Off	-2669
rest	-2670
rey	-2671
▁Although	-2672
▁forces	-2673
iano	-2674
▁front	-2675
olk	-2676
▁railway	-2677
▁ill	-2678
ource	-2679
icated	-2680
▁Soviet	-2681
▁Register	-2682
▁central	-2683
▁study	-2684
▁sem	-2685
▁Gall	-2686
▁sound	-2687
▁test	-2688
▁transfer	-2689
ands	-2690
hire	-2691
▁CD	-2692
erry	-2693
▁county	-2694
▁Navy	-2695
km	-2696
▁white	-2697
▁Mod	-2698
▁press	-2699
▁singer	-2700
uns	-2701
▁Since	-2702
▁stri	-2703
▁seen	-2704
▁Pe	-2705
▁significant	-2706
St	-2707
▁Bus	-2708
istics	-2709
▁Cat	-2710
aught	-2711
ribution	-2712
rant	-2713
▁Person	-2714
▁dou	-2715
embly	-2716
▁sen	-2717
sel	-2718
aker	-2719
vert	-2720
Amer	-2721
cher	-2722
▁transl	-2723
shire	-2724
▁eventually	-2725
ware	-2726
▁Festival	-2727
sk	-2728
ift	-2729
▁Commission	-2730
▁consist	-2731
▁Base	-2732
▁Win	-2733
yr	-2734
▁Den	-2735
▁Old	-2736
oys	-2737
▁Angeles	-2738
▁earn	-2739
▁Av	-2740
▁Official	-2741
▁proble	-2742
ili	-2743
inct	-2744
fic	-2745
▁model	-2746
▁sugg	-2747
▁earl	-2748
▁income	-2749
annel	-2750
▁capt	-2751
ription	-2752
▁wind	-2753
▁entire	-2754
ask	-2755
▁loss	-2756
▁added	-2757
ufact	-2758
ector	-2759
▁Most	-2760
▁Techn	-2761
▁Sil	-2762
▁Poland	-2763
▁Arg	-2764
▁involved	-2765
▁liter	-2766
▁key	-2767
▁treat	-2768
▁past	-2769
▁wid	-2770
left	-2771
▁respons	-2772
▁countries	-2773
▁Ha	-2774
▁subsequ	-2775
gian	-2776
▁Over	-2777
▁Columb	-2778
▁competition	-2779
lor	-2780
▁Profess	-2781
▁Northern	-2782
▁conv	-2783
▁Pac	-2784
▁seasons	-2785
▁Places	-2786
▁above	-2787
▁currently	-2788
▁championship	-2789
andid	-2790
uture	-2791
mier	-2792
▁capital	-2793
▁Wales	-2794
▁association	-2795
FL	-2796
▁board	-2797
▁basketball	-2798
▁rights	-2799
▁Carolina	-2800
mercial	-2801
icy	-2802
heast	-2803
▁Mill	-2804
▁college	-2805
. 	-2806
▁range	-2807
▁replaced	-2808
▁center	-2809
▁you	-2810
ersey	-2811
▁Major	-2812
▁Found	-2813
mph	-2814
▁introduced	-2815
▁Di	-2816
FA	-2817
▁Po	-2818
);	-2819
▁able	-2820
ww	-2821
▁fourth	-2822
▁media	-2823
oke	-2824
▁Fort	-2825
ca	-2826
now	-2827
▁writer	-2828
▁police	-2829
▁close	-2830
▁Parliament	-2831
▁Joseph	-2832
arian	-2833
omp	-2834
▁God	-2835
rial	-2836
mb	-2837
▁provided	-2838
elt	-2839
asing	-2840
▁ran	-2841
amily	-2842
acters	-2843
▁Sk	-2844
▁approximately	-2845
ette	-2846
▁data	-2847
iana	-2848
▁northern	-2849
▁hom	-2850
▁Lu	-2851
▁Wood	-2852
ansas	-2853
antic	-2854
face	-2855
▁aud	-2856
ularly	-2857
▁bi	-2858
▁Out	-2859
▁Rou	-2860
▁Polit	-2861
▁fig	-2862
▁get	-2863
▁either	-2864
▁Ros	-2865
...	-2866
▁discover	-2867
▁("	-2868
▁results	-2869
rought	-2870
▁river	-2871
▁Jim	-2872
▁writers	-2873
▁Dou	-2874
▁Elect	-2875
enth	-2876
▁document	-2877
agon	-2878
▁syn	-2879
▁Love	-2880
bur	-2881
American	-2882
AS	-2883
▁Service	-2884
▁least	-2885
arr	-2886
ees	-2887
medi	-2888
▁Greek	-2889
erve	-2890
▁pe	-2891
▁reached	-2892
▁Fre	-2893
▁neigh	-2894
▁ser	-2895
la	-2896
▁upon	-2897
porary	-2898
▁Fin	-2899
ength	-2900
▁clos	-2901
▁Je	-2902
▁actress	-2903
▁households	-2904
iences	-2905
ients	-2906
▁Martin	-2907
▁Congress	-2908
▁goals	-2909
▁Liber	-2910
▁staff	-2911
sych	-2912
iqu	-2913
▁southern	-2914
oring	-2915
text	-2916
▁farm	-2917
known	-2918
▁learn	-2919
▁saw	-2920
▁Career	-2921
▁Ohio	-2922
▁states	-2923
▁change	-2924
▁via	-2925
▁placed	-2926
azz	-2927
▁sch	-2928
▁Sa	-2929
ental	-2930
ises	-2931
stant	-2932
den	-2933
In	-2934
▁older	-2935
▁Science	-2936
board	-2937
adium	-2938
istic	-2939
▁cop	-2940
▁reb	-2941
aying	-2942
▁Dutch	-2943
▁Medal	-2944
TV	-2945
▁Committee	-2946
han	-2947
▁Fred	-2948
▁municipality	-2949
ends	-2950
ua	-2951
▁interest	-2952
ultural	-2953
▁night	-2954
▁singles	-2955
▁Battle	-2956
▁Radio	-2957
ss	-2958
▁Mos	-2959
▁tre	-2960
ora	-2961
▁tournament	-2962
eep	-2963
▁Hot	-2964
urt	-2965
▁achie	-2966
ibl	-2967
▁Valley	-2968
▁Asian	-2969
ply	-2970
▁express	-2971
.)	-2972
▁stated	-2973
▁park	-2974
ulture	-2975
▁natural	-2976
oo	-2977
▁Arab	-2978
▁ap	-2979
▁critic	-2980
▁Empire	-2981
▁contribut	-2982
▁Up	-2983
▁occup	-2984
▁sex	-2985
▁meas	-2986
▁Build	-2987
▁fav	-2988
well	-2989
iga	-2990
▁tax	-2991
▁section	-2992
ctor	-2993
▁winning	-2994
▁Cross	-2995
lim	-2996
▁How	-2997
▁usually	-2998
ić	-2999
ien	-3000
▁Spain	-3001
▁Township	-3002
▁far	-3003
oe	-3004
▁Sol	-3005
▁fir	-3006
kr	-3007
gl	-3008
▁action	-3009
▁runs	-3010
retary	-3011
ils	-3012
▁Further	-3013
ato	-3014
ption	-3015
pts	-3016
▁decided	-3017
▁fif	-3018
▁Russia	-3019
etts	-3020
▁respect	-3021
▁pot	-3022
ampion	-3023
▁Bul	-3024
▁Scottish	-3025
▁Michigan	-3026
▁purch	-3027
▁defeated	-3028
▁producer	-3029
rup	-3030
▁nomin	-3031
▁Series	-3032
▁mean	-3033
▁provide	-3034
ration	-3035
▁Bob	-3036
▁Star	-3037
pec	-3038
ye	-3039
urb	-3040
")	-3041
▁Follow	-3042
▁closed	-3043
mond	-3044
▁parts	-3045
▁organiz	-3046
▁Final	-3047
stitution	-3048
▁Jack	-3049
▁Jud	-3050
AR	-3051
isco	-3052
▁want	-3053
▁whose	-3054
inois	-3055
▁Team	-3056
▁Civil	-3057
▁know	-3058
state	-3059
overs	-3060
▁cat	-3061
reme	-3062
▁candid	-3063
▁mur	-3064
▁mass	-3065
venue	-3066
achus	-3067
▁poet	-3068
▁division	-3069
▁Gar	-3070
lam	-3071
▁So	-3072
▁Inc	-3073
usp	-3074
▁Long	-3075
▁Hel	-3076
▁arg	-3077
▁Haw	-3078
▁actor	-3079
▁wood	-3080
based	-3081
▁previously	-3082
▁Are	-3083
orse	-3084
▁department	-3085
uments	-3086
▁Southern	-3087
▁characters	-3088
ero	-3089
▁Ap	-3090
▁musical	-3091
arily	-3092
quare	-3093
▁genus	-3094
▁Military	-3095
ugu	-3096
▁degree	-3097
lements	-3098
▁cut	-3099
ati	-3100
▁Big	-3101
▁Tim	-3102
▁Ox	-3103
▁pain	-3104
▁exhib	-3105
mark	-3106
▁prison	-3107
anda	-3108
▁Board	-3109
▁bank	-3110
ipl	-3111
▁Kent	-3112
▁relationship	-3113
▁deal	-3114
▁Post	-3115
▁studio	-3116
language	-3117
NA	-3118
▁Jersey	-3119
▁Illinois	-3120
▁Times	-3121
▁fall	-3122
▁type	-3123
▁broadcast	-3124
itan	-3125
▁space	-3126
▁attended	-3127
▁method	-3128
▁network	-3129
▁plann	-3130
▁brought	-3131
▁du	-3132
usband	-3133
▁Mic	-3134
▁hit	-3135
▁Research	-3136
BA	-3137
▁coast	-3138
▁Ep	-3139
▁Kar	-3140
▁girl	-3141
▁pred	-3142
unior	-3143
▁changed	-3144
▁manufact	-3145
▁active	-3146
ometimes	-3147
ingu	-3148
▁below	-3149
▁Later	-3150
▁Rel	-3151
▁reve	-3152
▁Sar	-3153
▁median	-3154
▁culture	-3155
▁organization	-3156
▁anc	-3157
▁collect	-3158
▁lower	-3159
▁Tri	-3160
▁Edward	-3161
ving	-3162
▁Rh	-3163
▁edition	-3164
quadron	-3165
achusetts	-3166
▁McC	-3167
owers	-3168
▁Following	-3169
▁Young	-3170
▁leader	-3171
▁primary	-3172
wer	-3173
▁grand	-3174
▁owned	-3175
▁Mat	-3176
ancial	-3177
▁Tw	-3178
▁structure	-3179
▁instead	-3180
▁accept	-3181
iger	-3182
▁newsp	-3183
oir	-3184
▁industry	-3185
lying	-3186
ulty	-3187
▁manager	-3188
awa	-3189
ened	-3190
war	-3191
ension	-3192
▁outside	-3193
ider	-3194
bury	-3195
▁Massachusetts	-3196
▁Bank	-3197
▁draw	-3198
▁footballer	-3199
▁lik	-3200
▁names	-3201
▁Loc	-3202
▁sum	-3203
▁behind	-3204
▁rather	-3205
▁island	-3206
▁Members	-3207
▁Pacific	-3208
▁route	-3209
▁operations	-3210
▁Open	-3211
▁neg	-3212
ridge	-3213
▁Lee	-3214
wan	-3215
▁ball	-3216
clus	-3217
▁king	-3218
ulation	-3219
amous	-3220
▁pers	-3221
▁Philipp	-3222
sis	-3223
▁esc	-3224
▁Inf	-3225
▁collection	-3226
elled	-3227
▁systems	-3228
▁Hung	-3229
▁almost	-3230
ador	-3231
▁shot	-3232
▁reading	-3233
▁matches	-3234
▁analy	-3235
▁End	-3236
alled	-3237
▁Argent	-3238
▁Minn	-3239
▁Line	-3240
▁ended	-3241
▁imm	-3242
igital	-3243
▁defeat	-3244
▁transport	-3245
oston	-3246
▁Athlet	-3247
▁Pak	-3248
▁force	-3249
ko	-3250
orporated	-3251
▁frequ	-3252
itors	-3253
cy	-3254
▁Bre	-3255
ray	-3256
▁stop	-3257
▁Luc	-3258
▁Engine	-3259
▁Jewish	-3260
▁Conn	-3261
▁Web	-3262
like	-3263
▁magazine	-3264
▁Under	-3265
▁Camb	-3266
▁hard	-3267
▁Back	-3268
▁possible	-3269
▁summer	-3270
 –	-3271
stra	-3272
iro	-3273
▁Jul	-3274
▁regular	-3275
▁contains	-3276
ublican	-3277
▁Iran	-3278
▁Bor	-3279
▁Social	-3280
▁Cle	-3281
iety	-3282
▁territ	-3283
▁spent	-3284
raph	-3285
▁maintain	-3286
▁commission	-3287
anced	-3288
elebr	-3289
▁canc	-3290
▁ever	-3291
abb	-3292
▁cred	-3293
ails	-3294
imb	-3295
▁Top	-3296
▁bur	-3297
▁allowed	-3298
isions	-3299
▁investig	-3300
▁regard	-3301
▁movement	-3302
▁academ	-3303
inary	-3304
inated	-3305
▁Chief	-3306
velopment	-3307
eign	-3308
▁minor	-3309
▁travel	-3310
oid	-3311
▁III	-3312
▁represented	-3313
▁husband	-3314
▁beginning	-3315
▁Ver	-3316
▁Assembly	-3317
▁scient	-3318
▁Dev	-3319
▁Cam	-3320
yan	-3321
ias	-3322
bon	-3323
▁care	-3324
pecially	-3325
ecess	-3326
ounter	-3327
itiz	-3328
▁cur	-3329
fit	-3330
▁independent	-3331
▁commercial	-3332
▁Gal	-3333
down	-3334
▁plays	-3335
▁Ham	-3336
▁Wal	-3337
▁gener	-3338
burgh	-3339
▁food	-3340
▁enter	-3341
▁whom	-3342
▁Boston	-3343
▁princip	-3344
▁Middle	-3345
▁Station	-3346
▁Georgia	-3347
▁bass	-3348
▁Mot	-3349
▁personal	-3350
▁Scotland	-3351
adel	-3352
ima	-3353
aut	-3354
▁complet	-3355
▁quarter	-3356
▁plat	-3357
CC	-3358
▁Univers	-3359
▁ant	-3360
▁Library	-3361
▁Matt	-3362
▁mission	-3363
rated	-3364
ao	-3365
▁victory	-3366
▁text	-3367
▁writing	-3368
▁mer	-3369
▁complex	-3370
▁Ur	-3371
▁anti	-3372
▁Britain	-3373
▁location	-3374
▁i	-3375
▁determ	-3376
arden	-3377
▁studies	-3378
▁according	-3379
house	-3380
▁News	-3381
▁break	-3382
▁elev	-3383
▁little	-3384
▁soon	-3385
▁Track	-3386
▁observ	-3387
osing	-3388
▁Os	-3389
▁structures	-3390
ennis	-3391
ums	-3392
▁Lo	-3393
▁itself	-3394
▁Queen	-3395
▁missing	-3396
▁screen	-3397
▁Disc	-3398
aring	-3399
▁unit	-3400
▁box	-3401
▁veh	-3402
iple	-3403
▁clubs	-3404
▁hockey	-3405
▁concern	-3406
▁Television	-3407
▁females	-3408
▁destroy	-3409
▁western	-3410
▁lived	-3411
▁taking	-3412
▁appearance	-3413
oral	-3414
▁Democratic	-3415
▁Lord	-3416
▁insp	-3417
▁Health	-3418
▁Ok	-3419
▁pay	-3420
uffer	-3421
▁Polish	-3422
▁towards	-3423
▁remov	-3424
▁che	-3425
▁Field	-3426
▁den	-3427
▁schol	-3428
▁Det	-3429
▁date	-3430
▁too	-3431
▁property	-3432
▁Route	-3433
▁battle	-3434
▁operated	-3435
▁sat	-3436
igg	-3437
▁highest	-3438
ibility	-3439
alc	-3440
aka	-3441
▁science	-3442
▁Columbia	-3443
▁chair	-3444
▁Cz	-3445
▁self	-3446
▁Theatre	-3447
▁surround	-3448
▁Book	-3449
▁retired	-3450
▁environment	-3451
ols	-3452
▁additional	-3453
▁money	-3454
change	-3455
▁higher	-3456
add	-3457
▁Sun	-3458
ira	-3459
echan	-3460
ali	-3461
▁Jones	-3462
▁launched	-3463
▁except	-3464
▁army	-3465
▁ge	-3466
▁drama	-3467
▁seat	-3468
fect	-3469
▁month	-3470
▁length	-3471
with	-3472
▁officer	-3473
ny	-3474
▁Charl	-3475
▁Kr	-3476
▁issues	-3477
▁required	-3478
▁Tre	-3479
etic	-3480
▁Head	-3481
ng	-3482
▁Mah	-3483
▁Director	-3484
▁future	-3485
▁Water	-3486
▁related	-3487
ensity	-3488
▁Eastern	-3489
▁look	-3490
ready	-3491
▁occur	-3492
▁Dis	-3493
▁traditional	-3494
▁Transport	-3495
▁Prot	-3496
ds	-3497
▁noted	-3498
▁That	-3499
occer	-3500
▁Asia	-3501
▁Coast	-3502
▁expatriate	-3503
▁disp	-3504
▁Blue	-3505
▁especially	-3506
▁Ukr	-3507
▁don	-3508
▁super	-3509
▁phil	-3510
▁Tem	-3511
ih	-3512
anks	-3513
▁Journal	-3514
▁sea	-3515
▁soft	-3516
ication	-3517
▁Manag	-3518
▁opening	-3519
▁quest	-3520
king	-3521
▁keep	-3522
aled	-3523
▁management	-3524
▁means	-3525
cel	-3526
▁trib	-3527
▁Williams	-3528
▁Conference	-3529
▁decl	-3530
//	-3531
▁command	-3532
mm	-3533
▁Little	-3534
▁Of	-3535
▁activities	-3536
ervation	-3537
▁arran	-3538
▁Prince	-3539
▁chief	-3540
▁Francisco	-3541
ify	-3542
▁Ram	-3543
▁score	-3544
▁running	-3545
▁dom	-3546
▁Republican	-3547
iled	-3548
▁senior	-3549
ja	-3550
obal	-3551
▁Bow	-3552
▁baseball	-3553
▁susp	-3554
action	-3555
SA	-3556
acher	-3557
antry	-3558
oper	-3559
no	-3560
▁train	-3561
▁Wild	-3562
▁Bet	-3563
▁come	-3564
▁communities	-3565
▁Sand	-3566
▁Jac	-3567
▁let	-3568
standing	-3569
▁prior	-3570
▁Many	-3571
▁Stan	-3572
▁love	-3573
▁Represent	-3574
▁Step	-3575
▁associated	-3576
▁!	-3577
▁woman	-3578
▁selected	-3579
▁Az	-3580
▁editor	-3581
arriage	-3582
▁Child	-3583
▁practice	-3584
▁Ari	-3585
▁Wind	-3586
▁Bh	-3587
▁Die	-3588
://	-3589
rich	-3590
▁Tax	-3591
▁cricket	-3592
▁Ell	-3593
▁rad	-3594
▁MP	-3595
▁ships	-3596
vention	-3597
▁Game	-3598
▁races	-3599
▁earlier	-3600
▁applic	-3601
▁union	-3602
▁Sat	-3603
▁Econom	-3604
▁regional	-3605
▁trade	-3606
▁rail	-3607
▁Van	-3608
▁Lab	-3609
rying	-3610
▁pen	-3611
▁thus	-3612
arters	-3613
▁numerous	-3614
▁focus	-3615
rid	-3616
hester	-3617
▁Baseball	-3618
▁suffer	-3619
▁Card	-3620
▁entered	-3621
▁Oxford	-3622
▁System	-3623
file	-3624
▁individuals	-3625
▁decision	-3626
▁Johnson	-3627
▁wide	-3628
emorial	-3629
▁annual	-3630
▁Broad	-3631
▁standard	-3632
▁Albert	-3633
▁equip	-3634
▁student	-3635
gypt	-3636
▁Bern	-3637
▁Development	-3638
▁er	-3639
▁sometimes	-3640
▁Good	-3641
▁adop	-3642
va	-3643
ii	-3644
▁Four	-3645
▁Organ	-3646
ties	-3647
itation	-3648
▁ens	-3649
ken	-3650
▁Creek	-3651
wa	-3652
uten	-3653
Ar	-3654
ulf	-3655
▁appearances	-3656
isters	-3657
▁Alb	-3658
▁interview	-3659
▁Mid	-3660
▁course	-3661
▁ice	-3662
ackson	-3663
▁actors	-3664
emporary	-3665
▁threat	-3666
▁move	-3667
▁programs	-3668
iginal	-3669
inet	-3670
▁museum	-3671
▁personnel	-3672
raf	-3673
▁religious	-3674
▁feature	-3675
unc	-3676
▁hot	-3677
eeks	-3678
▁emer	-3679
rief	-3680
attal	-3681
▁cases	-3682
▁generally	-3683
▁increased	-3684
▁becoming	-3685
▁certain	-3686
eds	-3687
ila	-3688
▁saf	-3689
umber	-3690
▁already	-3691
▁Pres	-3692
▁terms	-3693
▁issue	-3694
iy	-3695
:#	-3696
▁eastern	-3697
▁Municip	-3698
ucle	-3699
▁pi	-3700
▁subject	-3701
▁Special	-3702
▁institut	-3703
▁serving	-3704
rants	-3705
▁attract	-3706
▁lines	-3707
▁Bal	-3708
▁Gh	-3709
illa	-3710
▁legal	-3711
het	-3712
track	-3713
aya	-3714
ruct	-3715
▁Bir	-3716
▁murder	-3717
isher	-3718
▁diffic	-3719
FF	-3720
▁celebr	-3721
▁prob	-3722
▁uses	-3723
onse	-3724
isk	-3725
▁nine	-3726
▁federal	-3727
uts	-3728
▁ord	-3729
▁Ly	-3730
▁cust	-3731
▁news	-3732
▁If	-3733
▁Ke	-3734
▁Governor	-3735
▁Corn	-3736
▁council	-3737
▁Serb	-3738
▁hum	-3739
▁Centre	-3740
▁Alexander	-3741
▁status	-3742
▁Egypt	-3743
▁centre	-3744
onia	-3745
▁abs	-3746
▁Office	-3747
▁medical	-3748
mitted	-3749
▁Time	-3750
▁caused	-3751
abeth	-3752
uan	-3753
▁ded	-3754
▁Jackson	-3755
▁purp	-3756
▁indic	-3757
▁Ray	-3758
▁majority	-3759
ela	-3760
▁Vo	-3761
▁comedy	-3762
▁Writ	-3763
▁Sea	-3764
▁Anton	-3765
án	-3766
ropol	-3767
▁Populated	-3768
▁Their	-3769
▁better	-3770
▁Histor	-3771
▁changes	-3772
irit	-3773
iance	-3774
aters	-3775
▁FI	-3776
▁Death	-3777
uer	-3778
asy	-3779
▁complete	-3780
rown	-3781
encies	-3782
▁colon	-3783
una	-3784
▁su	-3785
▁pil	-3786
▁BC	-3787
emic	-3788
usc	-3789
aded	-3790
▁instr	-3791
▁initially	-3792
▁lic	-3793
▁Foundation	-3794
▁studied	-3795
▁Home	-3796
▁sister	-3797
▁Biography	-3798
aven	-3799
isation	-3800
▁creat	-3801
nam	-3802
▁mostly	-3803
▁administrative	-3804
▁Girl	-3805
NE	-3806
RA	-3807
▁Album	-3808
▁economic	-3809
▁Cop	-3810
win	-3811
mann	-3812
▁percent	-3813
istricts	-3814
▁Kenn	-3815
▁Islands	-3816
▁remains	-3817
▁shown	-3818
ections	-3819
▁tracks	-3820
▁limited	-3821
▁forced	-3822
▁Jean	-3823
▁Ul	-3824
inem	-3825
▁thought	-3826
▁officers	-3827
▁Andrew	-3828
▁collabor	-3829
▁recording	-3830
▁occas	-3831
aily	-3832
rast	-3833
▁obtain	-3834
▁Way	-3835
▁lies	-3836
wide	-3837
urban	-3838
▁Les	-3839
▁chart	-3840
ading	-3841
▁minutes	-3842
ava	-3843
town	-3844
FC	-3845
▁belong	-3846
▁immedi	-3847
▁Int	-3848
▁Latin	-3849
▁Ken	-3850
▁cell	-3851
▁Week	-3852
▁Main	-3853
▁job	-3854
▁vir	-3855
▁Sund	-3856
▁Common	-3857
▁Czech	-3858
uge	-3859
▁Max	-3860
ares	-3861
▁organizations	-3862
▁passed	-3863
▁overall	-3864
▁sn	-3865
▁Jeff	-3866
▁famous	-3867
▁Jr	-3868
adelph	-3869
ective	-3870
▁bene	-3871
bl	-3872
org	-3873
▁fle	-3874
▁Ak	-3875
ips	-3876
▁Rog	-3877
▁records	-3878
▁exc	-3879
▁takes	-3880
▁Add	-3881
inent	-3882
▁multiple	-3883
▁Fed	-3884
▁Night	-3885
sen	-3886
▁Band	-3887
▁lack	-3888
▁claimed	-3889
emet	-3890
apers	-3891
esota	-3892
enty	-3893
▁bound	-3894
▁rap	-3895
stein	-3896
▁legisl	-3897
bre	-3898
ulpt	-3899
background	-3900
▁BBC	-3901
▁energy	-3902
Th	-3903
tainment	-3904
osop	-3905
▁Joe	-3906
▁appears	-3907
▁university	-3908
▁historical	-3909
▁altern	-3910
ession	-3911
▁dise	-3912
ortun	-3913
▁mention	-3914
▁som	-3915
inger	-3916
mission	-3917
yard	-3918
▁impro	-3919
ires	-3920
▁going	-3921
adelphia	-3922
▁account	-3923
▁Victoria	-3924
▁pit	-3925
▁give	-3926
bass	-3927
▁middle	-3928
▁Swedish	-3929
▁Att	-3930
▁medalists	-3931
▁create	-3932
ieuten	-3933
▁Ba	-3934
▁acquired	-3935
▁Enter	-3936
bers	-3937
▁Corpor	-3938
rad	-3939
▁bomb	-3940
▁Wall	-3941
▁weeks	-3942
rem	-3943
▁Color	-3944
▁Ret	-3945
▁rate	-3946
▁subsequently	-3947
▁Tod	-3948
▁Three	-3949
▁Kong	-3950
▁evidence	-3951
▁Minnesota	-3952
▁Family	-3953
▁presented	-3954
%)	-3955
▁Som	-3956
▁Mu	-3957
▁Eliz	-3958
imum	-3959
illy	-3960
ba	-3961
AA	-3962
▁houses	-3963
▁discuss	-3964
bec	-3965
hol	-3966
▁speed	-3967
cean	-3968
▁hours	-3969
▁meeting	-3970
onic	-3971
oz	-3972
▁Daniel	-3973
▁Viet	-3974
▁block	-3975
▁Publ	-3976
▁Coll	-3977
tegr	-3978
kins	-3979
ault	-3980
iant	-3981
▁Rod	-3982
inson	-3983
acts	-3984
▁supported	-3985
▁op	-3986
onto	-3987
▁Ash	-3988
▁descent	-3989
▁inn	-3990
agn	-3991
teen	-3992
▁earned	-3993
een	-3994
▁Gallery	-3995
▁arm	-3996
▁competed	-3997
▁remain	-3998
▁Show	-3999
▁Business	-4000
▁rac	-4001
▁raised	-4002
▁Ant	-4003
ouri	-4004
▁financial	-4005
ims	-4006
▁technology	-4007
▁Berlin	-4008
▁Ven	-4009
▁leaving	-4010
▁Bibl	-4011
▁elections	-4012
▁Songs	-4013
▁larger	-4014
;"	-4015
▁longer	-4016
▁sequ	-4017
izing	-4018
▁inh	-4019
▁foreign	-4020
chestra	-4021
▁Notable	-4022
▁today	-4023
▁province	-4024
ighter	-4025
▁chall	-4026
▁govern	-4027
ications	-4028
▁Philadelphia	-4029
▁Arm	-4030
▁composed	-4031
▁Stat	-4032
▁surface	-4033
▁provides	-4034
▁Police	-4035
▁Hong	-4036
▁failed	-4037
ropical	-4038
▁platform	-4039
▁border	-4040
▁residents	-4041
pan	-4042
▁quick	-4043
hens	-4044
▁Corps	-4045
▁density	-4046
▁reduc	-4047
peror	-4048
▁Harv	-4049
▁helped	-4050
▁policy	-4051
▁passeng	-4052
▁native	-4053
▁Slov	-4054
▁troops	-4055
▁consists	-4056
▁lay	-4057
▁Geography	-4058
ledge	-4059
▁fort	-4060
▁Regiment	-4061
▁Despite	-4062
▁shoot	-4063
▁particularly	-4064
▁municipal	-4065
▁Far	-4066
ried	-4067
▁Mov	-4068
itude	-4069
▁Nether	-4070
▁Islam	-4071
ables	-4072
▁Syd	-4073
hew	-4074
▁remaining	-4075
▁Boy	-4076
duce	-4077
uated	-4078
▁got	-4079
icks	-4080
▁citiz	-4081
▁referred	-4082
ression	-4083
▁ven	-4084
▁Region	-4085
▁specific	-4086
▁increase	-4087
da	-4088
▁Program	-4089
▁Dist	-4090
▁Ott	-4091
struction	-4092
▁USA	-4093
wegian	-4094
thur	-4095
▁Li	-4096
imated	-4097
ears	-4098
ieutenant	-4099
▁room	-4100
▁politicians	-4101
▁step	-4102
uries	-4103
rice	-4104
▁variety	-4105
▁rugby	-4106
▁Jer	-4107
▁cities	-4108
▁Federal	-4109
▁)	-4110
▁carried	-4111
▁believed	-4112
ione	-4113
▁merg	-4114
▁word	-4115
▁psych	-4116
BS	-4117
▁Avenue	-4118
▁starting	-4119
▁Books	-4120
▁function	-4121
▁Pen	-4122
▁hospital	-4123
▁Indiana	-4124
ker	-4125
▁forms	-4126
▁mach	-4127
anguages	-4128
▁Lim	-4129
▁Cub	-4130
▁particular	-4131
ez	-4132
akh	-4133
▁Both	-4134
selves	-4135
▁Senate	-4136
▁themselves	-4137
owa	-4138
▁Mike	-4139
▁professor	-4140
resp	-4141
▁Personal	-4142
▁opt	-4143
andon	-4144
▁mem	-4145
▁Tay	-4146
▁log	-4147
▁Bell	-4148
▁von	-4149
AT	-4150
▁awards	-4151
lav	-4152
▁Bang	-4153
omer	-4154
itage	-4155
amm	-4156
▁norm	-4157
▁Light	-4158
utt	-4159
▁offered	-4160
▁nearby	-4161
▁parents	-4162
▁response	-4163
▁silver	-4164
▁crew	-4165
edd	-4166
▁separate	-4167
▁categ	-4168
▁bridge	-4169
▁ver	-4170
▁mainly	-4171
▁Hy	-4172
▁Ho	-4173
▁Raj	-4174
▁km	-4175
▁Bol	-4176
▁Lew	-4177
▁theory	-4178
▁housing	-4179
▁adj	-4180
rect	-4181
▁background	-4182
onsin	-4183
▁Chap	-4184
▁targ	-4185
▁Est	-4186
stitu	-4187
▁Norwegian	-4188
mir	-4189
▁Earth	-4190
itting	-4191
▁diss	-4192
IS	-4193
▁temper	-4194
▁marriage	-4195
▁Anth	-4196
▁confl	-4197
class	-4198
▁Baron	-4199
▁listing	-4200
▁Dar	-4201
▁foot	-4202
isconsin	-4203
erland	-4204
▁label	-4205
▁Harris	-4206
▁prepar	-4207
▁Works	-4208
▁Cas	-4209
▁Santa	-4210
▁episodes	-4211
dis	-4212
mas	-4213
ologist	-4214
▁Born	-4215
▁page	-4216
▁Hospital	-4217
▁Hind	-4218
▁Secretary	-4219
▁Chris	-4220
▁peak	-4221
▁Sydney	-4222
▁brief	-4223
▁Korea	-4224
▁newspaper	-4225
▁articles	-4226
rance	-4227
▁males	-4228
▁Jon	-4229
iot	-4230
▁operation	-4231
▁Der	-4232
▁heavy	-4233
worth	-4234
▁prote	-4235
ais	-4236
▁Sher	-4237
▁Tenn	-4238
▁movie	-4239
▁source	-4240
ancy	-4241
▁partn	-4242
▁Netherlands	-4243
▁meaning	-4244
ogue	-4245
atively	-4246
▁Human	-4247
▁Work	-4248
tario	-4249
attalion	-4250
ensis	-4251
▁Bab	-4252
ova	-4253
▁Rail	-4254
▁Hal	-4255
eman	-4256
▁corn	-4257
osa	-4258
▁latter	-4259
▁poor	-4260
aria	-4261
▁Wisconsin	-4262
▁proposed	-4263
establ	-4264
▁Community	-4265
▁youth	-4266
▁renamed	-4267
amin	-4268
illed	-4269
ulated	-4270
▁Elizabeth	-4271
▁depart	-4272
ping	-4273
▁£	-4274
▁athlet	-4275
▁makes	-4276
▁Es	-4277
▁charg	-4278
ru	-4279
▁Nations	-4280
▁alleg	-4281
▁article	-4282
▁Aut	-4283
▁capac	-4284
▁online	-4285
▁cann	-4286
▁distinct	-4287
▁Iv	-4288
▁transferred	-4289
▁Bishop	-4290
even	-4291
enz	-4292
obile	-4293
▁Fair	-4294
ucky	-4295
▁Sem	-4296
more	-4297
range	-4298
bourne	-4299
mi	-4300
▁promoted	-4301
▁require	-4302
aska	-4303
▁Prize	-4304
▁electric	-4305
▁Premier	-4306
▁assistant	-4307
▁conditions	-4308
regon	-4309
▁deep	-4310
▁serve	-4311
rupt	-4312
▁covered	-4313
▁dro	-4314
yer	-4315
▁neighbor	-4316
▁always	-4317
▁object	-4318
▁Kansas	-4319
▁Pit	-4320
▁gran	-4321
▁Bad	-4322
erb	-4323
rics	-4324
▁Ontario	-4325
▁succeed	-4326
▁winner	-4327
▁Another	-4328
▁here	-4329
stone	-4330
▁deliver	-4331
▁htt	-4332
▁Form	-4333
▁responsible	-4334
ji	-4335
▁Mir	-4336
▁turned	-4337
▁double	-4338
▁ly	-4339
ube	-4340
urches	-4341
▁chem	-4342
▁oil	-4343
▁constructed	-4344
lers	-4345
oses	-4346
▁recent	-4347
▁comment	-4348
lit	-4349
▁Brig	-4350
ronic	-4351
aging	-4352
anth	-4353
▁prevent	-4354
uing	-4355
▁Prim	-4356
▁finally	-4357
ounts	-4358
▁Rome	-4359
▁musicians	-4360
▁society	-4361
▁Toronto	-4362
▁fail	-4363
▁settlement	-4364
▁nearly	-4365
▁bring	-4366
▁Duke	-4367
▁plans	-4368
▁ess	-4369
▁path	-4370
▁managed	-4371
▁Down	-4372
▁Supreme	-4373
ounds	-4374
▁pp	-4375
ifying	-4376
zy	-4377
heim	-4378
▁fifth	-4379
rovers	-4380
▁Media	-4381
▁More	-4382
oto	-4383
▁Oregon	-4384
▁products	-4385
▁done	-4386
onym	-4387
▁master	-4388
nes	-4389
▁cultural	-4390
ID	-4391
▁origin	-4392
=#	-4393
▁problems	-4394
▁soldiers	-4395
ressed	-4396
wick	-4397
▁Highway	-4398
▁dyn	-4399
quarters	-4400
▁parish	-4401
ously	-4402
▁Winn	-4403
▁Korean	-4404
▁difficult	-4405
▁Id	-4406
ellig	-4407
▁Justice	-4408
emetery	-4409
rie	-4410
▁despite	-4411
▁extended	-4412
▁Airport	-4413
▁Ut	-4414
▁Forest	-4415
▁experience	-4416
▁van	-4417
▁stay	-4418
icted	-4419
ocks	-4420
ropolitan	-4421
▁vote	-4422
▁speak	-4423
▁Lady	-4424
writer	-4425
▁Bi	-4426
yo	-4427
▁table	-4428
▁Steve	-4429
▁Tro	-4430
▁towns	-4431
cription	-4432
▁touch	-4433
▁featuring	-4434
umed	-4435
astic	-4436
▁Fore	-4437
▁arrived	-4438
▁Tok	-4439
omot	-4440
AC	-4441
▁Pakistan	-4442
undred	-4443
▁stories	-4444
oration	-4445
▁Colorado	-4446
▁honor	-4447
Al	-4448
▁confir	-4449
▁Kir	-4450
▁architecture	-4451
▁Rem	-4452
▁Mountain	-4453
▁issued	-4454
▁Tra	-4455
▁Administr	-4456
▁executive	-4457
▁Guard	-4458
ingham	-4459
▁Ministry	-4460
pped	-4461
▁spread	-4462
▁discovered	-4463
▁mechan	-4464
▁historic	-4465
▁Cambridge	-4466
ples	-4467
▁Stadium	-4468
▁pick	-4469
iat	-4470
light	-4471
▁Aff	-4472
asts	-4473
▁Pers	-4474
▁Indust	-4475
▁Squadron	-4476
▁influence	-4477
▁Marc	-4478
▁Wilson	-4479
▁Adv	-4480
▁Winter	-4481
▁projects	-4482
edia	-4483
▁primarily	-4484
icine	-4485
▁Live	-4486
▁Mexican	-4487
▁Census	-4488
▁piano	-4489
▁might	-4490
▁CE	-4491
▁Castle	-4492
▁levels	-4493
▁sched	-4494
▁likely	-4495
▁gun	-4496
▁Revolution	-4497
▁univers	-4498
▁leave	-4499
▁lives	-4500
▁Maryland	-4501
▁sculpt	-4502
▁Hay	-4503
hr	-4504
▁Rugby	-4505
▁nature	-4506
▁Bridge	-4507
▁spe	-4508
▁Ca	-4509
ternet	-4510
▁Dam	-4511
western	-4512
▁winners	-4513
▁graduated	-4514
▁solo	-4515
▁Technology	-4516
uv	-4517
▁Pass	-4518
▁ancient	-4519
inity	-4520
ocese	-4521
▁enough	-4522
▁dead	-4523
bro	-4524
▁concept	-4525
▁ang	-4526
▁captain	-4527
▁Ta	-4528
iform	-4529
▁Colon	-4530
orr	-4531
orning	-4532
▁Jes	-4533
▁Spring	-4534
essee	-4535
▁Clark	-4536
▁Video	-4537
▁face	-4538
▁Also	-4539
▁chap	-4540
bell	-4541
▁card	-4542
▁necess	-4543
▁Lt	-4544
▁champion	-4545
▁firm	-4546
▁Queens	-4547
▁Power	-4548
ishes	-4549
▁Corporation	-4550
▁Sus	-4551
vin	-4552
▁whole	-4553
▁Muslim	-4554
▁Barb	-4555
▁Sweden	-4556
eld	-4557
▁numbers	-4558
▁Design	-4559
▁habit	-4560
▁plants	-4561
▁elements	-4562
▁friends	-4563
ependence	-4564
▁told	-4565
▁asked	-4566
▁Review	-4567
amber	-4568
▁directly	-4569
▁agric	-4570
▁demon	-4571
anta	-4572
zona	-4573
▁bron	-4574
▁assigned	-4575
▁Master	-4576
ully	-4577
▁cause	-4578
▁Country	-4579
con	-4580
▁@	-4581
enge	-4582
▁paper	-4583
▁pra	-4584
▁terr	-4585
perial	-4586
▁progress	-4587
▁our	-4588
urd	-4589
▁conducted	-4590
▁Golden	-4591
▁Captain	-4592
oud	-4593
▁mic	-4594
▁drug	-4595
reng	-4596
▁Beach	-4597
ibb	-4598
▁green	-4599
▁domin	-4600
▁voice	-4601
▁Arthur	-4602
▁Circ	-4603
ambig	-4604
▁thr	-4605
rog	-4606
▁appl	-4607
▁format	-4608
emy	-4609
▁words	-4610
▁mountain	-4611
orship	-4612
▁consider	-4613
▁Crit	-4614
bit	-4615
▁Tennessee	-4616
▁Div	-4617
aga	-4618
book	-4619
▁Taylor	-4620
▁Mun	-4621
▁increasing	-4622
▁Inv	-4623
▁security	-4624
▁Short	-4625
▁funct	-4626
▁sources	-4627
ging	-4628
▁notable	-4629
▁Area	-4630
arp	-4631
▁sal	-4632
weight	-4633
water	-4634
LA	-4635
ui	-4636
▁Bec	-4637
▁ult	-4638
▁Kel	-4639
sex	-4640
eller	-4641
An	-4642
itted	-4643
▁Alf	-4644
aped	-4645
▁saying	-4646
aki	-4647
EC	-4648
rolled	-4649
▁divided	-4650
▁squad	-4651
▁dedicated	-4652
▁Kal	-4653
▁sites	-4654
▁Rad	-4655
▁Missouri	-4656
osh	-4657
ga	-4658
▁Fire	-4659
ée	-4660
thing	-4661
▁unknown	-4662
▁fell	-4663
▁dark	-4664
istance	-4665
athan	-4666
▁participated	-4667
get	-4668
enes	-4669
▁Norway	-4670
▁capacity	-4671
▁Rom	-4672
▁Op	-4673
▁sport	-4674
▁nation	-4675
▁initial	-4676
▁Prime	-4677
▁growth	-4678
edom	-4679
▁kind	-4680
▁Us	-4681
▁purchased	-4682
MS	-4683
▁Sources	-4684
achel	-4685
▁Stephen	-4686
real	-4687
▁miles	-4688
▁heart	-4689
▁academic	-4690
ributed	-4691
▁Fle	-4692
▁languages	-4693
arrow	-4694
▁Former	-4695
▁computer	-4696
ambiguation	-4697
▁Studies	-4698
▁parties	-4699
HL	-4700
▁branch	-4701
oh	-4702
▁pan	-4703
▁facilities	-4704
▁Francis	-4705
resh	-4706
▁leaders	-4707
▁Arizona	-4708
▁Ter	-4709
isted	-4710
outheast	-4711
▁novels	-4712
▁display	-4713
ules	-4714
▁Walk	-4715
▁Marsh	-4716
▁scene	-4717
▁Budd	-4718
▁Kim	-4719
▁Junior	-4720
▁Greg	-4721
▁leaves	-4722
▁share	-4723
▁officially	-4724
▁Project	-4725
▁township	-4726
▁Lind	-4727
▁Command	-4728
▁Medical	-4729
MA	-4730
iring	-4731
▁wanted	-4732
▁EP	-4733
ographic	-4734
▁strateg	-4735
oles	-4736
▁Indones	-4737
▁Atlantic	-4738
▁Brad	-4739
▁Ira	-4740
▁Hamp	-4741
oln	-4742
▁gas	-4743
▁era	-4744
▁fa	-4745
▁value	-4746
▁Wars	-4747
lyn	-4748
▁whether	-4749
aints	-4750
▁becomes	-4751
▁removed	-4752
▁districts	-4753
▁Cre	-4754
▁destroyed	-4755
▁motor	-4756
▁reason	-4757
▁candidate	-4758
▁effects	-4759
itled	-4760
aud	-4761
▁Pier	-4762
▁Sab	-4763
▁revealed	-4764
▁pal	-4765
▁upper	-4766
lah	-4767
iest	-4768
formed	-4769
▁prominent	-4770
▁administration	-4771
lementary	-4772
▁titles	-4773
▁alone	-4774
▁Maria	-4775
rict	-4776
anga	-4777
▁Native	-4778
▁rule	-4779
inus	-4780
▁ut	-4781
▁Brook	-4782
▁overs	-4783
greg	-4784
▁villages	-4785
▁alongside	-4786
iated	-4787
▁continue	-4788
▁Tal	-4789
▁Davis	-4790
ype	-4791
▁Ball	-4792
▁Professor	-4793
Un	-4794
▁Mas	-4795
▁activity	-4796
▁treatment	-4797
rec	-4798
OS	-4799
▁channel	-4800
▁bronze	-4801
▁Kentucky	-4802
▁follows	-4803
▁Freder	-4804
▁inside	-4805
▁laws	-4806
istered	-4807
▁software	-4808
▁managers	-4809
ão	-4810
▁conver	-4811
▁weap	-4812
gu	-4813
▁Network	-4814
respond	-4815
▁Eth	-4816
hat	-4817
igen	-4818
anna	-4819
enna	-4820
▁institutions	-4821
▁basis	-4822
▁implement	-4823
met	-4824
uclear	-4825
▁mixed	-4826
▁literature	-4827
ek	-4828
▁beat	-4829
▁Ross	-4830
mad	-4831
▁tal	-4832
izes	-4833
▁Villages	-4834
▁highly	-4835
ür	-4836
ureau	-4837
▁vs	-4838
ho	-4839
▁illust	-4840
▁journ	-4841
▁Barn	-4842
▁serves	-4843
▁estate	-4844
▁withd	-4845
▁nort	-4846
▁Croat	-4847
▁Bibliography	-4848
▁comes	-4849
▁surn	-4850
▁letter	-4851
▁Stand	-4852
▁Naz	-4853
▁swim	-4854
▁Balt	-4855
▁Leon	-4856
▁Abb	-4857
▁opportun	-4858
raham	-4859
▁rules	-4860
▁Earl	-4861
disambiguation	-4862
▁Cy	-4863
ori	-4864
▁campus	-4865
▁grew	-4866
▁recover	-4867
▁semi	-4868
▁intended	-4869
▁equipment	-4870
▁yards	-4871
▁ordered	-4872
▁row	-4873
ivity	-4874
▁workers	-4875
▁attend	-4876
▁produce	-4877
▁Su	-4878
▁Manc	-4879
▁Ah	-4880
alle	-4881
alo	-4882
ilation	-4883
rical	-4884
▁behav	-4885
▁fish	-4886
▁planned	-4887
▁Ark	-4888
ecting	-4889
iced	-4890
gn	-4891
found	-4892
▁cy	-4893
▁constitu	-4894
▁composer	-4895
▁owner	-4896
▁clear	-4897
▁wing	-4898
▁reach	-4899
▁efforts	-4900
ighth	-4901
▁citizens	-4902
▁rat	-4903
SC	-4904
note	-4905
▁Han	-4906
part	-4907
cow	-4908
▁Sav	-4909
▁Sport	-4910
▁gre	-4911
▁+	-4912
▁captured	-4913
▁yet	-4914
▁store	-4915
▁Iowa	-4916
▁moving	-4917
▁amount	-4918
▁dance	-4919
▁demonstr	-4920
hedral	-4921
▁operating	-4922
▁smaller	-4923
▁engineer	-4924
ras	-4925
▁street	-4926
▁Turkey	-4927
▁types	-4928
▁Sound	-4929
esh	-4930
▁organized	-4931
▁Lewis	-4932
▁Sever	-4933
▁immediately	-4934
▁Sri	-4935
▁purs	-4936
ining	-4937
▁potential	-4938
▁uns	-4939
▁Record	-4940
▁quickly	-4941
▁Oak	-4942
▁Legisl	-4943
ito	-4944
▁territory	-4945
elle	-4946
ening	-4947
▁resident	-4948
▁Conf	-4949
▁Bos	-4950
eather	-4951
▁distribution	-4952
▁Ren	-4953
▁rural	-4954
▁scoring	-4955
imal	-4956
yal	-4957
ixed	-4958
▁feed	-4959
mouth	-4960
▁Sciences	-4961
▁Hu	-4962
▁hosted	-4963
▁max	-4964
▁Chile	-4965
unte	-4966
▁positive	-4967
VD	-4968
▁color	-4969
▁Tony	-4970
onomy	-4971
▁cycl	-4972
SP	-4973
orney	-4974
▁Memorial	-4975
igrants	-4976
▁Brother	-4977
▁forward	-4978
andy	-4979
▁Stock	-4980
▁direction	-4981
▁Nic	-4982
tle	-4983
▁controvers	-4984
▁Dor	-4985
▁ability	-4986
li	-4987
▁Modern	-4988
▁trial	-4989
asty	-4990
▁Before	-4991
▁documentary	-4992
onents	-4993
▁Representatives	-4994
iminal	-4995
▁contest	-4996
ader	-4997
ów	-4998
▁question	-4999
jan	-5000
▁idea	-5001
▁estimated	-5002
▁elim	-5003
▁commonly	-5004
▁About	-5005
ami	-5006
adesh	-5007
des	-5008
▁drums	-5009
▁Rang	-5010
TA	-5011
olis	-5012
ika	-5013
▁Sum	-5014
▁Conserv	-5015
▁walk	-5016
▁coaches	-5017
▁integr	-5018
▁minister	-5019
ois	-5020
hemat	-5021
▁respectively	-5022
▁quality	-5023
▁Vi	-5024
▁Season	-5025
▁Fox	-5026
illery	-5027
▁stone	-5028
▁digital	-5029
▁Malays	-5030
lahoma	-5031
',	-5032
▁combined	-5033
▁Hou	-5034
▁Foreign	-5035
▁Each	-5036
kin	-5037
▁stars	-5038
Le	-5039
ión	-5040
estic	-5041
▁streng	-5042
uro	-5043
▁metal	-5044
▁scholars	-5045
▁Wat	-5046
▁Hard	-5047
▁Iraq	-5048
▁Management	-5049
▁charge	-5050
sey	-5051
▁autom	-5052
▁asp	-5053
▁sportspeople	-5054
▁lif	-5055
▁big	-5056
▁perman	-5057
▁feel	-5058
▁blue	-5059
ansion	-5060
▁Melbourne	-5061
iplom	-5062
▁giving	-5063
▁flight	-5064
▁Infantry	-5065
▁urban	-5066
▁Bulgar	-5067
▁wa	-5068
▁Cur	-5069
▁CO	-5070
▁counter	-5071
▁offers	-5072
▁Fer	-5073
odies	-5074
▁target	-5075
▁floor	-5076
agh	-5077
chers	-5078
▁Hart	-5079
▁hyd	-5080
▁figure	-5081
▁Free	-5082
iate	-5083
▁fellow	-5084
▁disease	-5085
Sh	-5086
ads	-5087
▁Treat	-5088
▁founder	-5089
▁retire	-5090
▁Ship	-5091
▁Hur	-5092
▁vess	-5093
▁forest	-5094
erc	-5095
▁educated	-5096
itness	-5097
▁mentioned	-5098
rig	-5099
▁Expatriate	-5100
iang	-5101
former	-5102
yes	-5103
▁analysis	-5104
ectic	-5105
put	-5106
▁Austria	-5107
▁Fe	-5108
▁Bat	-5109
▁probably	-5110
▁wrest	-5111
▁physical	-5112
present	-5113
▁agreement	-5114
urer	-5115
▁Curr	-5116
▁Oklahoma	-5117
▁Alab	-5118
▁Moscow	-5119
▁execut	-5120
incoln	-5121
ello	-5122
akers	-5123
▁recently	-5124
▁Brazilian	-5125
oster	-5126
▁cerem	-5127
▁Political	-5128
▁pop	-5129
▁suffered	-5130
▁blood	-5131
uls	-5132
SS	-5133
▁vac	-5134
▁Zh	-5135
▁Test	-5136
▁philosop	-5137
ymn	-5138
▁recognized	-5139
▁Chair	-5140
▁declared	-5141
▁needed	-5142
▁Liter	-5143
▁approach	-5144
▁symb	-5145
▁Mur	-5146
chen	-5147
▁industrial	-5148
▁Gi	-5149
▁mill	-5150
▁Engineering	-5151
▁Greece	-5152
▁abandon	-5153
▁favor	-5154
▁programming	-5155
▁disestabl	-5156
▁Bon	-5157
▁problem	-5158
▁attention	-5159
law	-5160
works	-5161
oli	-5162
▁Like	-5163
▁agreed	-5164
▁Member	-5165
▁sens	-5166
▁contemporary	-5167
▁hundred	-5168
▁peace	-5169
▁Mountains	-5170
aug	-5171
▁adopted	-5172
▁classical	-5173
▁think	-5174
itzerland	-5175
▁secondary	-5176
mers	-5177
▁Jews	-5178
▁pict	-5179
▁models	-5180
eline	-5181
vement	-5182
▁prin	-5183
▁cars	-5184
span	-5185
lan	-5186
ancing	-5187
▁Philippines	-5188
▁Vietnam	-5189
oths	-5190
▁Simon	-5191
▁concent	-5192
▁formerly	-5193
orph	-5194
▁compared	-5195
▁crime	-5196
ething	-5197
olid	-5198
▁Israeli	-5199
ía	-5200
▁begins	-5201
▁column	-5202
▁Armen	-5203
mes	-5204
avel	-5205
ouses	-5206
oted	-5207
▁fiction	-5208
▁boy	-5209
idi	-5210
▁coming	-5211
itional	-5212
▁Harry	-5213
roit	-5214
▁Alabama	-5215
AF	-5216
tic	-5217
▁...	-5218
▁improv	-5219
▁distance	-5220
ibly	-5221
▁joint	-5222
▁pair	-5223
▁Turkish	-5224
▁Bureau	-5225
▁search	-5226
▁sevent	-5227
▁subs	-5228
▁bad	-5229
▁ir	-5230
sky	-5231
▁continues	-5232
▁teacher	-5233
▁presence	-5234
▁interp	-5235
▁Gil	-5236
▁Ten	-5237
▁injury	-5238
▁gained	-5239
▁theatre	-5240
▁occurred	-5241
bu	-5242
▁Brian	-5243
▁Nick	-5244
▁Place	-5245
="#	-5246
ogs	-5247
rell	-5248
▁har	-5249
uguese	-5250
▁Lincoln	-5251
iling	-5252
▁performances	-5253
▁conference	-5254
▁Ron	-5255
▁expanded	-5256
▁Buildings	-5257
miss	-5258
osen	-5259
▁Joh	-5260
▁content	-5261
▁newly	-5262
otes	-5263
▁faculty	-5264
ivals	-5265
▁doub	-5266
▁Turn	-5267
▁square	-5268
▁twice	-5269
▁Emperor	-5270
▁Lar	-5271
▁correspond	-5272
▁widely	-5273
bot	-5274
▁Burn	-5275
ublin	-5276
pson	-5277
ting	-5278
▁titled	-5279
▁pet	-5280
▁Six	-5281
▁(),	-5282
▁nominated	-5283
▁losing	-5284
▁Ot	-5285
ordin	-5286
▁Trust	-5287
▁recon	-5288
▁library	-5289
▁resulted	-5290
▁Point	-5291
▁hop	-5292
etting	-5293
▁Sportspeople	-5294
▁Manchester	-5295
▁tells	-5296
elligence	-5297
▁Ts	-5298
olved	-5299
▁accepted	-5300
apore	-5301
▁x	-5302
▁Production	-5303
▁impact	-5304
▁wild	-5305
lete	-5306
▁Nap	-5307
▁typically	-5308
▁NY	-5309
▁labor	-5310
▁cancer	-5311
outs	-5312
▁Tai	-5313
▁roles	-5314
rawn	-5315
▁surrounding	-5316
▁Regional	-5317
▁ethn	-5318
▁largely	-5319
▁acting	-5320
▁Walter	-5321
▁Miller	-5322
▁Voiv	-5323
▁prec	-5324
ecticut	-5325
▁arts	-5326
isa	-5327
▁wins	-5328
▁positions	-5329
▁NFL	-5330
▁Switzerland	-5331
▁Hans	-5332
▁defend	-5333
keep	-5334
▁chairman	-5335
▁Dun	-5336
▁coal	-5337
▁ranked	-5338
▁Ra	-5339
▁Ty	-5340
rim	-5341
▁Cape	-5342
▁situated	-5343
▁poll	-5344
▁identified	-5345
▁accomp	-5346
▁Christmas	-5347
▁votes	-5348
▁officials	-5349
▁emb	-5350
▁engineering	-5351
asters	-5352
room	-5353
▁inters	-5354
IA	-5355
▁Ocean	-5356
odeship	-5357
▁concert	-5358
▁Fa	-5359
eder	-5360
▁sales	-5361
▁expected	-5362
▁Key	-5363
▁Finn	-5364
▁buried	-5365
▁Holy	-5366
▁Pitts	-5367
ashion	-5368
▁inhabit	-5369
▁Imp	-5370
▁instrument	-5371
▁conclud	-5372
▁facility	-5373
▁spons	-5374
▁designated	-5375
www	-5376
▁fast	-5377
▁Round	-5378
▁therefore	-5379
gers	-5380
wing	-5381
▁(;	-5382
▁Connecticut	-5383
incorporated	-5384
▁providing	-5385
usion	-5386
▁Gord	-5387
▁tree	-5388
ayer	-5389
▁Fac	-5390
▁Hand	-5391
▁Through	-5392
▁Bah	-5393
▁Voivodeship	-5394
pool	-5395
▁secret	-5396
ici	-5397
iants	-5398
▁festival	-5399
▁pressure	-5400
▁damage	-5401
▁recomm	-5402
osis	-5403
▁Professional	-5404
▁granted	-5405
▁Od	-5406
▁Original	-5407
▁Real	-5408
▁Aud	-5409
also	-5410
▁map	-5411
▁reviews	-5412
wealth	-5413
▁Pop	-5414
▁Among	-5415
▁spring	-5416
▁journalist	-5417
life	-5418
▁Children	-5419
▁Hockey	-5420
▁sexual	-5421
▁Belg	-5422
▁Albums	-5423
▁commune	-5424
ician	-5425
▁reduced	-5426
▁cam	-5427
amilton	-5428
ictional	-5429
▁burn	-5430
▁rom	-5431
ques	-5432
▁Fame	-5433
▁resulting	-5434
▁Niger	-5435
▁versions	-5436
▁Staff	-5437
agan	-5438
▁Swiss	-5439
▁portion	-5440
je	-5441
▁Description	-5442
▁split	-5443
eces	-5444
iders	-5445
▁Federation	-5446
▁governor	-5447
▁Entertainment	-5448
onent	-5449
▁stre	-5450
▁Services	-5451
▁leadership	-5452
ER	-5453
umes	-5454
▁Detroit	-5455
▁encour	-5456
▁(,	-5457
▁Howard	-5458
aro	-5459
uther	-5460
▁Danish	-5461
▁Historical	-5462
▁McG	-5463
ented	-5464
▁Portuguese	-5465
died	-5466
▁twenty	-5467
▁Now	-5468
anning	-5469
▁Son	-5470
▁Nev	-5471
▁code	-5472
ateur	-5473
▁Third	-5474
▁Billboard	-5475
▁Low	-5476
▁committee	-5477
▁Temple	-5478
▁Marine	-5479
elsh	-5480
wich	-5481
▁appar	-5482
New	-5483
▁cells	-5484
▁vocal	-5485
▁Channel	-5486
last	-5487
▁reform	-5488
mun	-5489
iques	-5490
CAA	-5491
▁Cab	-5492
gg	-5493
▁regions	-5494
▁Labor	-5495
rophy	-5496
atus	-5497
bed	-5498
▁suppl	-5499
▁Plan	-5500
▁couple	-5501
IC	-5502
zz	-5503
▁dial	-5504
▁adapt	-5505
▁mess	-5506
incial	-5507
▁Prin	-5508
▁strugg	-5509
▁Champions	-5510
▁coin	-5511
▁Schools	-5512
▁flag	-5513
▁racing	-5514
▁serious	-5515
▁actually	-5516
ugal	-5517
▁attacks	-5518
▁Argentina	-5519
▁Singapore	-5520
▁someone	-5521
▁Background	-5522
▁batt	-5523
ippi	-5524
▁reserv	-5525
▁Conc	-5526
▁Domin	-5527
▁Battalion	-5528
▁regul	-5529
▁Anderson	-5530
▁Kat	-5531
acement	-5532
roc	-5533
▁Nik	-5534
▁tower	-5535
ionally	-5536
▁Senior	-5537
▁Mississ	-5538
▁taught	-5539
▁notes	-5540
▁Building	-5541
▁Plot	-5542
▁Jacob	-5543
uous	-5544
▁authorities	-5545
▁pattern	-5546
▁traffic	-5547
▁survey	-5548
▁creation	-5549
▁trains	-5550
▁marked	-5551
uerto	-5552
▁bott	-5553
▁Dougl	-5554
▁shop	-5555
iti	-5556
season	-5557
▁Eric	-5558
▁younger	-5559
▁Abd	-5560
▁net	-5561
kh	-5562
oking	-5563
▁cal	-5564
▁rain	-5565
▁etc	-5566
▁Ford	-5567
▁goes	-5568
alty	-5569
▁Commonwealth	-5570
▁kept	-5571
ifications	-5572
ographics	-5573
▁paid	-5574
▁Holly	-5575
▁Morris	-5576
▁seats	-5577
rah	-5578
▁Pict	-5579
▁formation	-5580
style	-5581
▁showed	-5582
orough	-5583
▁confirmed	-5584
▁slight	-5585
olished	-5586
▁knowledge	-5587
▁claims	-5588
▁connected	-5589
▁thous	-5590
TC	-5591
▁address	-5592
▁Hamilton	-5593
▁Honor	-5594
raight	-5595
▁oldest	-5596
pet	-5597
▁Il	-5598
▁disapp	-5599
▁reports	-5600
▁Between	-5601
▁Lev	-5602
▁Bird	-5603
▁Ltd	-5604
▁statistics	-5605
▁highway	-5606
▁loan	-5607
▁wall	-5608
▁politics	-5609
▁Anthony	-5610
▁critical	-5611
▁fair	-5612
▁Silver	-5613
▁painter	-5614
uled	-5615
redited	-5616
▁Pap	-5617
▁gives	-5618
▁Jane	-5619
▁weight	-5620
▁feet	-5621
ocated	-5622
Don	-5623
▁Var	-5624
▁Rivers	-5625
eston	-5626
▁Diego	-5627
▁supply	-5628
▁parliament	-5629
oming	-5630
▁pack	-5631
és	-5632
▁‘	-5633
▁figures	-5634
▁Today	-5635
▁agent	-5636
▁growing	-5637
▁commander	-5638
▁Magazine	-5639
▁headquarters	-5640
▁spirit	-5641
▁receive	-5642
▁yellow	-5643
▁graph	-5644
▁Mit	-5645
enez	-5646
▁Nich	-5647
ager	-5648
ials	-5649
▁Cour	-5650
▁Natural	-5651
▁hall	-5652
cont	-5653
▁Roll	-5654
▁bow	-5655
▁Colomb	-5656
oslav	-5657
▁Singles	-5658
organ	-5659
▁Results	-5660
awn	-5661
▁Basketball	-5662
Sp	-5663
claim	-5664
▁Cost	-5665
▁greater	-5666
uction	-5667
ski	-5668
▁Whit	-5669
asion	-5670
ographer	-5671
▁Author	-5672
ipe	-5673
▁effort	-5674
erald	-5675
▁felt	-5676
▁carri	-5677
▁true	-5678
offs	-5679
inth	-5680
▁Gab	-5681
▁spot	-5682
▁says	-5683
▁purpose	-5684
▁judge	-5685
▁temple	-5686
▁Beng	-5687
▁touchdown	-5688
▁accident	-5689
▁finish	-5690
ordan	-5691
▁painting	-5692
▁cab	-5693
▁charts	-5694
▁Wy	-5695
▁conflict	-5696
▁suggested	-5697
▁image	-5698
▁Quebec	-5699
▁Louisiana	-5700
agu	-5701
▁Tokyo	-5702
▁Player	-5703
▁Puerto	-5704
▁stream	-5705
▁talk	-5706
urance	-5707
▁Phys	-5708
▁Inn	-5709
▁promotion	-5710
▁allows	-5711
atab	-5712
▁IV	-5713
▁theme	-5714
▁Patrick	-5715
iami	-5716
▁neighborhood	-5717
▁mayor	-5718
▁succeeded	-5719
▁Wolf	-5720
which	-5721
opter	-5722
▁Juan	-5723
▁materials	-5724
▁hands	-5725
▁restaur	-5726
east	-5727
▁Philip	-5728
▁classes	-5729
▁Pot	-5730
▁Tel	-5731
iller	-5732
'.	-5733
▁Khan	-5734
▁Sunday	-5735
▁Local	-5736
▁Brigade	-5737
can	-5738
▁vehicles	-5739
GB	-5740
▁measure	-5741
▁Houston	-5742
▁Your	-5743
▁Story	-5744
▁Adam	-5745
▁sixth	-5746
iser	-5747
▁Welsh	-5748
▁magn	-5749
▁Anne	-5750
jo	-5751
▁supp	-5752
▁Heart	-5753
alog	-5754
US	-5755
▁experiment	-5756
eption	-5757
▁hy	-5758
▁Nat	-5759
▁slow	-5760
▁Affairs	-5761
▁Chen	-5762
▁cannot	-5763
elli	-5764
▁lit	-5765
iable	-5766
▁arrested	-5767
mina	-5768
dam	-5769
▁tim	-5770
▁Tan	-5771
▁cert	-5772
▁Naval	-5773
▁sons	-5774
▁lake	-5775
living	-5776
▁draft	-5777
▁settled	-5778
▁obtained	-5779
ghan	-5780
▁earth	-5781
▁starring	-5782
▁Because	-5783
▁suit	-5784
kes	-5785
▁existing	-5786
ista	-5787
▁climate	-5788
▁Phill	-5789
▁entry	-5790
▁contact	-5791
▁gall	-5792
▁lett	-5793
▁Allen	-5794
▁safety	-5795
▁bought	-5796
▁compl	-5797
▁fully	-5798
▁consum	-5799
▁horse	-5800
▁musician	-5801
lets	-5802
▁mut	-5803
▁partner	-5804
▁tried	-5805
▁unique	-5806
▁Spr	-5807
ropod	-5808
▁brothers	-5809
▁Harvard	-5810
▁inhabitants	-5811
iny	-5812
▁royal	-5813
▁Americans	-5814
▁visit	-5815
▁Demographics	-5816
▁ce	-5817
▁narrow	-5818
inguished	-5819
▁Antonio	-5820
▁Security	-5821
SR	-5822
▁samp	-5823
▁Ale	-5824
▁Ku	-5825
unch	-5826
irty	-5827
▁Austrian	-5828
▁Musical	-5829
ooth	-5830
▁competitions	-5831
▁Due	-5832
▁condition	-5833
olas	-5834
▁Rose	-5835
▁Information	-5836
▁Nag	-5837
▁Pittsburgh	-5838
▁resources	-5839
lines	-5840
▁Seat	-5841
joy	-5842
▁premier	-5843
▁aired	-5844
aver	-5845
▁opera	-5846
▁returning	-5847
It	-5848
▁Lank	-5849
rait	-5850
▁Kaz	-5851
anes	-5852
bs	-5853
▁Dave	-5854
gal	-5855
▁Douglas	-5856
iley	-5857
▁Las	-5858
▁affili	-5859
)"	-5860
▁heav	-5861
▁Vis	-5862
▁launch	-5863
▁situation	-5864
under	-5865
▁profile	-5866
▁cart	-5867
▁allowing	-5868
agen	-5869
acent	-5870
▁god	-5871
▁Cemetery	-5872
appen	-5873
▁teaching	-5874
▁Mississippi	-5875
▁animals	-5876
▁Hungarian	-5877
▁flood	-5878
oni	-5879
▁publication	-5880
stan	-5881
▁Front	-5882
▁Bry	-5883
▁completely	-5884
▁Berg	-5885
▁DVD	-5886
related	-5887
▁Dream	-5888
ardo	-5889
▁Tamil	-5890
evin	-5891
▁properties	-5892
▁corpor	-5893
aling	-5894
▁liber	-5895
▁Dur	-5896
▁Forces	-5897
▁sides	-5898
▁Stone	-5899
icians	-5900
▁Internet	-5901
▁Well	-5902
▁Na	-5903
▁eas	-5904
cluding	-5905
▁Sky	-5906
aux	-5907
▁Dall	-5908
▁Lieutenant	-5909
▁Environment	-5910
▁arms	-5911
▁Miami	-5912
rac	-5913
rin	-5914
iva	-5915
▁principal	-5916
▁challeng	-5917
dale	-5918
▁Hor	-5919
▁Karl	-5920
▁singers	-5921
▁Lin	-5922
▁Culture	-5923
aved	-5924
▁lot	-5925
▁ple	-5926
imens	-5927
▁scientific	-5928
▁applied	-5929
▁aim	-5930
▁Queensland	-5931
▁suggest	-5932
elve	-5933
▁exchange	-5934
oa	-5935
▁nob	-5936
imore	-5937
▁chosen	-5938
▁Space	-5939
▁Ukraine	-5940
PA	-5941
▁Mrs	-5942
▁Denmark	-5943
▁covers	-5944
▁Ern	-5945
abad	-5946
▁Trib	-5947
▁Alan	-5948
▁custom	-5949
enny	-5950
spec	-5951
uties	-5952
▁authority	-5953
orders	-5954
▁Liberal	-5955
▁achieved	-5956
▁print	-5957
▁soccer	-5958
▁churches	-5959
▁advanced	-5960
▁Jay	-5961
▁fighting	-5962
uccess	-5963
▁Ky	-5964
eland	-5965
zen	-5966
▁Tig	-5967
ante	-5968
▁locomot	-5969
▁commissioned	-5970
▁bal	-5971
▁Gram	-5972
▁Farm	-5973
▁roll	-5974
▁jazz	-5975
▁things	-5976
▁NCAA	-5977
IT	-5978
▁Ko	-5979
▁Kam	-5980
▁combat	-5981
▁daily	-5982
▁Ka	-5983
▁pilot	-5984
▁aged	-5985
▁Several	-5986
▁protection	-5987
▁rapid	-5988
▁Fil	-5989
▁Kl	-5990
▁Dal	-5991
▁Transportation	-5992
▁reference	-5993
▁Lanc	-5994
▁defined	-5995
▁protein	-5996
▁mom	-5997
▁Belgium	-5998
▁Orchestra	-5999
▁Hills	-6000
▁Independent	-6001
▁AC	-6002
▁Communes	-6003
burn	-6004
▁volume	-6005
▁Bou	-6006
di	-6007
▁Tar	-6008
▁Gordon	-6009
▁Palest	-6010
heastern	-6011
▁Eag	-6012
hess	-6013
PS	-6014
▁Hotel	-6015
▁Portugal	-6016
▁Vin	-6017
▁Sin	-6018
▁converted	-6019
▁guest	-6020
▁metres	-6021
▁retirement	-6022
▁lyrics	-6023
▁Dick	-6024
▁Bron	-6025
▁diplom	-6026
▁wound	-6027
▁tele	-6028
▁flow	-6029
▁kick	-6030
▁rang	-6031
▁Margar	-6032
▁Surv	-6033
▁ends	-6034
▁Frederick	-6035
▁containing	-6036
▁Gard	-6037
▁Gri	-6038
▁vehicle	-6039
▁historian	-6040
▁Labour	-6041
▁trust	-6042
▁Ext	-6043
▁Jam	-6044
igration	-6045
▁locations	-6046
▁winter	-6047
oes	-6048
▁Ped	-6049
leep	-6050
▁proceed	-6051
▁Territ	-6052
ikh	-6053
veland	-6054
▁Ukrain	-6055
agues	-6056
▁necessary	-6057
▁AD	-6058
prise	-6059
▁contain	-6060
▁directors	-6061
▁risk	-6062
enh	-6063
oria	-6064
▁simply	-6065
lov	-6066
uri	-6067
▁passes	-6068
▁occupied	-6069
▁expansion	-6070
▁global	-6071
▁sets	-6072
▁trees	-6073
aming	-6074
rep	-6075
▁girls	-6076
▁memory	-6077
▁meant	-6078
ifically	-6079
▁occurs	-6080
▁approved	-6081
inema	-6082
achers	-6083
▁Samuel	-6084
Bl	-6085
▁Lyn	-6086
▁Ali	-6087
▁fought	-6088
▁doctor	-6089
▁surname	-6090
box	-6091
▁Syn	-6092
▁Sel	-6093
▁attempts	-6094
▁Hawai	-6095
▁Arkansas	-6096
cha	-6097
▁Footballers	-6098
▁Mand	-6099
▁fans	-6100
▁pros	-6101
odox	-6102
ieval	-6103
rence	-6104
▁critics	-6105
earing	-6106
▁inspired	-6107
▁Youth	-6108
▁Maur	-6109
▁unable	-6110
▁Jordan	-6111
▁airport	-6112
▁Hun	-6113
▁visited	-6114
▁corner	-6115
▁Municipal	-6116
▁straight	-6117
weet	-6118
overty	-6119
cles	-6120
▁UN	-6121
▁Iron	-6122
▁Bowl	-6123
▁Da	-6124
▁Non	-6125
▁Prix	-6126
▁advert	-6127
fort	-6128
uses	-6129
▁castle	-6130
▁Chart	-6131
▁Pope	-6132
▁kil	-6133
actions	-6134
▁Dak	-6135
key	-6136
▁holds	-6137
▁ending	-6138
▁Age	-6139
▁Call	-6140
▁Dublin	-6141
▁folk	-6142
aceae	-6143
▁Utah	-6144
▁genera	-6145
▁roof	-6146
AM	-6147
uj	-6148
achelor	-6149
▁actions	-6150
▁opposition	-6151
▁subsequent	-6152
▁refused	-6153
▁Fern	-6154
gor	-6155
inder	-6156
▁defense	-6157
▁seg	-6158
▁Montreal	-6159
▁É	-6160
▁brown	-6161
▁consisted	-6162
▁resc	-6163
▁storm	-6164
▁creating	-6165
anton	-6166
zh	-6167
aza	-6168
▁valley	-6169
ogen	-6170
▁vent	-6171
▁Chall	-6172
▁exclus	-6173
▁extra	-6174
issance	-6175
▁attempted	-6176
CD	-6177
porter	-6178
Sc	-6179
idges	-6180
▁Box	-6181
▁sector	-6182
▁performing	-6183
▁stock	-6184
▁offices	-6185
▁attacked	-6186
rum	-6187
▁founding	-6188
▁champions	-6189
▁racial	-6190
▁Kevin	-6191
▁Orth	-6192
▁Ban	-6193
ipients	-6194
▁relatively	-6195
▁Andre	-6196
▁Dark	-6197
▁billion	-6198
▁Moon	-6199
▁incorporated	-6200
▁hotel	-6201
▁favour	-6202
ctic	-6203
ropri	-6204
▁Cow	-6205
iversary	-6206
▁fields	-6207
▁broke	-6208
▁frequently	-6209
▁sail	-6210
▁dropped	-6211
▁Stew	-6212
ache	-6213
▁respond	-6214
▁Priv	-6215
▁merged	-6216
▁FM	-6217
▁Clin	-6218
▁Nel	-6219
▁employed	-6220
▁Administration	-6221
die	-6222
▁Cleveland	-6223
▁drive	-6224
▁consecutive	-6225
▁harm	-6226
▁seem	-6227
illing	-6228
adi	-6229
▁entitled	-6230
▁Cricket	-6231
▁Prior	-6232
▁Ast	-6233
▁audience	-6234
▁Ice	-6235
▁Only	-6236
▁Ger	-6237
igation	-6238
▁jur	-6239
▁backing	-6240
▁Square	-6241
▁narr	-6242
▁Railroad	-6243
▁http	-6244
▁effective	-6245
▁application	-6246
▁compris	-6247
▁Rap	-6248
see	-6249
bar	-6250
▁Moore	-6251
▁Afghan	-6252
;"|	-6253
lined	-6254
▁Beat	-6255
place	-6256
▁Garden	-6257
▁machine	-6258
▁convers	-6259
▁reject	-6260
iki	-6261
▁rot	-6262
finals	-6263
▁Friend	-6264
stic	-6265
▁Last	-6266
▁guard	-6267
▁Hispan	-6268
fall	-6269
▁Doctor	-6270
▁Baltimore	-6271
▁defin	-6272
ín	-6273
▁Deb	-6274
ST	-6275
▁Tit	-6276
▁methods	-6277
ook	-6278
▁lands	-6279
▁MPs	-6280
▁height	-6281
▁something	-6282
▁environmental	-6283
▁Boys	-6284
▁stadium	-6285
wise	-6286
azines	-6287
▁copies	-6288
apolis	-6289
▁impr	-6290
▁morning	-6291
▁extensive	-6292
▁onto	-6293
pper	-6294
istol	-6295
▁receiving	-6296
ulate	-6297
▁needs	-6298
iments	-6299
▁Lor	-6300
▁Mission	-6301
▁Roberts	-6302
▁Romania	-6303
▁finds	-6304
oen	-6305
▁Atlanta	-6306
▁Matthew	-6307
▁Village	-6308
▁Rick	-6309
▁Relig	-6310
▁acts	-6311
▁learning	-6312
▁Cultural	-6313
▁spect	-6314
▁Mem	-6315
▁Lang	-6316
▁underst	-6317
▁Ukrainian	-6318
%.	-6319
Gen	-6320
▁Pa	-6321
▁abandoned	-6322
ét	-6323
▁Heritage	-6324
▁Buck	-6325
▁tall	-6326
▁northeast	-6327
▁bul	-6328
otte	-6329
▁Reception	-6330
ologists	-6331
▁vice	-6332
▁roc	-6333
▁consult	-6334
▁maximum	-6335
▁Hunt	-6336
stitutional	-6337
▁nuclear	-6338
arks	-6339
▁Anc	-6340
▁piece	-6341
fr	-6342
▁letters	-6343
inch	-6344
leges	-6345
oly	-6346
borough	-6347
▁iron	-6348
▁normal	-6349
▁Publishing	-6350
stream	-6351
from	-6352
▁Lawrence	-6353
▁recognition	-6354
▁shortly	-6355
adow	-6356
▁cho	-6357
▁Executive	-6358
▁technical	-6359
▁Mach	-6360
▁Fund	-6361
ni	-6362
▁marg	-6363
▁Studios	-6364
ović	-6365
▁Compet	-6366
▁calc	-6367
bach	-6368
seud	-6369
▁shared	-6370
▁decor	-6371
▁polic	-6372
▁lect	-6373
▁birds	-6374
▁Enc	-6375
nia	-6376
▁alternative	-6377
opher	-6378
▁Venez	-6379
▁arrang	-6380
fully	-6381
▁Champion	-6382
▁Product	-6383
▁brand	-6384
▁Roger	-6385
▁Taiwan	-6386
▁portray	-6387
▁permanent	-6388
▁representative	-6389
▁centuries	-6390
▁bishop	-6391
fecture	-6392
▁multi	-6393
▁mis	-6394
▁ethnic	-6395
▁economy	-6396
▁sust	-6397
▁Ryan	-6398
▁Vice	-6399
▁José	-6400
▁setting	-6401
▁Bud	-6402
"),	-6403
scape	-6404
uma	-6405
▁Cer	-6406
▁ox	-6407
orf	-6408
▁Honours	-6409
▁Yug	-6410
▁negot	-6411
▁Buff	-6412
risis	-6413
▁Imperial	-6414
▁auth	-6415
▁hero	-6416
▁Athletics	-6417
▁shell	-6418
▁literary	-6419
▁Sac	-6420
▁partnership	-6421
▁category	-6422
▁Carn	-6423
hing	-6424
▁Argentine	-6425
▁functions	-6426
ando	-6427
▁incident	-6428
▁Hom	-6429
▁adult	-6430
▁enjoy	-6431
▁Roc	-6432
aron	-6433
itter	-6434
▁bill	-6435
ci	-6436
▁Elementary	-6437
▁Kings	-6438
▁rough	-6439
▁Municipality	-6440
▁cas	-6441
▁educational	-6442
▁driver	-6443
▁Energy	-6444
ishops	-6445
▁simple	-6446
▁killing	-6447
▁marine	-6448
▁exam	-6449
▁glass	-6450
▁prem	-6451
▁happen	-6452
▁AM	-6453
▁Jesus	-6454
▁san	-6455
active	-6456
amo	-6457
▁Dance	-6458
▁bey	-6459
''	-6460
▁install	-6461
▁decre	-6462
▁Indonesia	-6463
▁guns	-6464
▁*	-6465
▁planning	-6466
▁Seattle	-6467
▁Sud	-6468
chant	-6469
▁ultimately	-6470
▁Male	-6471
har	-6472
▁Architect	-6473
▁generation	-6474
▁sand	-6475
▁begin	-6476
adr	-6477
▁Row	-6478
▁domestic	-6479
▁Bart	-6480
▁enemy	-6481
ologies	-6482
▁compilation	-6483
▁rival	-6484
▁actresses	-6485
friend	-6486
▁reflect	-6487
chi	-6488
▁Gran	-6489
▁McK	-6490
gency	-6491
▁ring	-6492
▁Upon	-6493
▁Whe	-6494
ographical	-6495
IN	-6496
▁gather	-6497
rob	-6498
dr	-6499
ourses	-6500
▁powerful	-6501
ryst	-6502
▁religion	-6503
▁recordings	-6504
iful	-6505
▁Who	-6506
rastruct	-6507
▁say	-6508
▁alleged	-6509
▁instruct	-6510
▁Metropolitan	-6511
▁Malaysia	-6512
ayan	-6513
emen	-6514
▁tennis	-6515
▁Personnel	-6516
▁Even	-6517
▁Soccer	-6518
▁opposed	-6519
▁passing	-6520
▁Nob	-6521
▁Log	-6522
▁What	-6523
▁Girls	-6524
oyd	-6525
▁Lith	-6526
forc	-6527
long	-6528
▁sac	-6529
▁passenger	-6530
▁temperature	-6531
iamond	-6532
▁slightly	-6533
▁Walker	-6534
▁tropical	-6535
▁determined	-6536
▁faced	-6537
▁holding	-6538
▁Hop	-6539
▁appoint	-6540
esc	-6541
yers	-6542
▁poetry	-6543
▁couples	-6544
rama	-6545
▁representing	-6546
▁Jess	-6547
▁internal	-6548
▁fuel	-6549
olo	-6550
usal	-6551
▁Pas	-6552
▁Global	-6553
▁pun	-6554
▁Fel	-6555
allel	-6556
▁Players	-6557
▁beyond	-6558
▁composers	-6559
▁Buddh	-6560
▁Anna	-6561
lad	-6562
▁Pir	-6563
▁sense	-6564
▁herself	-6565
igenous	-6566
▁derived	-6567
▁establishment	-6568
▁poverty	-6569
obe	-6570
▁contributed	-6571
FM	-6572
▁programme	-6573
▁deploy	-6574
▁patients	-6575
▁Om	-6576
▁identity	-6577
IV	-6578
▁virt	-6579
▁theor	-6580
▁try	-6581
verse	-6582
▁exhibition	-6583
orage	-6584
istant	-6585
inea	-6586
▁Fall	-6587
▁steel	-6588
▁compar	-6589
▁Academic	-6590
▁Then	-6591
▁resear	-6592
icide	-6593
iner	-6594
essed	-6595
▁select	-6596
▁Margaret	-6597
come	-6598
EA	-6599
▁collected	-6600
▁speech	-6601
▁wealth	-6602
We	-6603
▁avoid	-6604
▁Nar	-6605
▁Hungary	-6606
urday	-6607
▁DC	-6608
▁Fell	-6609
after	-6610
▁Here	-6611
▁SC	-6612
▁matter	-6613
▁railroad	-6614
▁Alexand	-6615
rett	-6616
▁Si	-6617
ussion	-6618
iations	-6619
▁Alfred	-6620
▁Ins	-6621
card	-6622
▁translation	-6623
▁registered	-6624
▁habitat	-6625
▁franch	-6626
udi	-6627
uy	-6628
ecution	-6629
▁Mult	-6630
▁Agric	-6631
DA	-6632
▁Lam	-6633
▁Wing	-6634
▁fresh	-6635
▁northwest	-6636
▁Lower	-6637
▁Johann	-6638
▁Dallas	-6639
▁Soc	-6640
▁Prom	-6641
▁Laur	-6642
▁Gon	-6643
▁inaug	-6644
hyl	-6645
▁Ow	-6646
OR	-6647
▁basic	-6648
▁entrance	-6649
▁fun	-6650
▁homes	-6651
▁walls	-6652
▁FA	-6653
He	-6654
▁script	-6655
▁Flora	-6656
▁finishing	-6657
▁Hug	-6658
▁refers	-6659
▁independence	-6660
én	-6661
▁licens	-6662
rane	-6663
▁spok	-6664
▁starts	-6665
▁supporting	-6666
▁propos	-6667
▁weapons	-6668
▁presidential	-6669
iar	-6670
idden	-6671
▁ways	-6672
▁Kelly	-6673
orus	-6674
equ	-6675
▁developing	-6676
icts	-6677
▁Ori	-6678
▁Dyn	-6679
astropod	-6680
III	-6681
▁junior	-6682
▁Advent	-6683
▁pieces	-6684
▁Run	-6685
▁Ward	-6686
▁impl	-6687
▁Yugoslav	-6688
▁Legislative	-6689
▁Peters	-6690
▁UC	-6691
BI	-6692
omy	-6693
▁Website	-6694
▁Islamic	-6695
▁calls	-6696
isms	-6697
▁Cole	-6698
▁escape	-6699
iday	-6700
atabase	-6701
▁Ll	-6702
fits	-6703
▁Bed	-6704
▁focused	-6705
▁Bomb	-6706
appy	-6707
▁Sev	-6708
▁rein	-6709
▁hyp	-6710
▁standards	-6711
▁mel	-6712
▁injured	-6713
▁Digital	-6714
▁Let	-6715
while	-6716
▁Reserve	-6717
▁Morgan	-6718
▁successfully	-6719
▁UE	-6720
inburgh	-6721
erved	-6722
▁amb	-6723
▁failure	-6724
▁Arn	-6725
▁lawyer	-6726
▁laid	-6727
rome	-6728
▁phase	-6729
▁advant	-6730
▁reign	-6731
▁Officer	-6732
otic	-6733
▁Defense	-6734
▁connection	-6735
▁makeup	-6736
▁fashion	-6737
eless	-6738
▁funds	-6739
olph	-6740
▁Commander	-6741
▁maintained	-6742
anger	-6743
▁dates	-6744
aduate	-6745
▁mind	-6746
▁Cities	-6747
▁ham	-6748
▁Rub	-6749
▁Liver	-6750
rastructure	-6751
▁contained	-6752
▁Bull	-6753
hard	-6754
▁Scient	-6755
▁Dod	-6756
▁dynasty	-6757
osite	-6758
▁Bruce	-6759
boards	-6760
uration	-6761
ogy	-6762
▁Gmina	-6763
▁Venezuel	-6764
▁Sn	-6765
▁qualified	-6766
car	-6767
▁protect	-6768
▁candidates	-6769
▁Camer	-6770
▁expressed	-6771
▁Lib	-6772
▁Dom	-6773
point	-6774
uster	-6775
▁;	-6776
emble	-6777
▁Nav	-6778
▁Five	-6779
▁sought	-6780
▁emph	-6781
▁Leban	-6782
don	-6783
erts	-6784
▁hired	-6785
▁Medalists	-6786
▁Knight	-6787
fe	-6788
thes	-6789
▁Finland	-6790
▁Donald	-6791
LC	-6792
▁Map	-6793
anny	-6794
▁details	-6795
▁Ottoman	-6796
▁Nep	-6797
▁violence	-6798
▁bud	-6799
▁Dean	-6800
▁lat	-6801
▁reasons	-6802
▁orders	-6803
▁rebu	-6804
ignated	-6805
pur	-6806
▁resigned	-6807
▁regarding	-6808
▁Russell	-6809
▁Belgian	-6810
▁Mayor	-6811
night	-6812
▁mand	-6813
▁criminal	-6814
anch	-6815
olly	-6816
▁Alumni	-6817
▁crow	-6818
▁Christopher	-6819
▁agricultural	-6820
▁write	-6821
▁boat	-6822
▁selection	-6823
hyth	-6824
▁Operation	-6825
▁investigation	-6826
angel	-6827
▁Opera	-6828
lem	-6829
song	-6830
antasy	-6831
▁correct	-6832
▁Rand	-6833
▁appeal	-6834
▁Though	-6835
▁involving	-6836
oured	-6837
▁FIFA	-6838
▁paintings	-6839
▁Equ	-6840
▁Hampshire	-6841
▁Adams	-6842
▁Rio	-6843
▁pione	-6844
▁rare	-6845
olt	-6846
▁da	-6847
alia	-6848
▁bands	-6849
▁Ever	-6850
▁reaching	-6851
▁Grant	-6852
▁decades	-6853
▁Princess	-6854
▁gar	-6855
▁rear	-6856
▁Rele	-6857
atherine	-6858
ffbb	-6859
▁equal	-6860
▁fleet	-6861
▁Romanian	-6862
▁funding	-6863
▁Ga	-6864
▁Hispanic	-6865
▁Hollywood	-6866
▁Nelson	-6867
▁mart	-6868
▁Sax	-6869
rik	-6870
▁strike	-6871
▁aid	-6872
").	-6873
ige	-6874
▁Ry	-6875
▁solid	-6876
apted	-6877
set	-6878
▁Stewart	-6879
Mar	-6880
Cl	-6881
▁flying	-6882
rees	-6883
▁Maine	-6884
▁Jimmy	-6885
▁Colonel	-6886
▁Beg	-6887
vo	-6888
▁visual	-6889
▁volunte	-6890
rine	-6891
▁invited	-6892
▁Writers	-6893
argo	-6894
rete	-6895
wall	-6896
▁promote	-6897
▁worldwide	-6898
▁ceremony	-6899
▁Athletic	-6900
▁southeast	-6901
ivated	-6902
roph	-6903
ré	-6904
rene	-6905
▁your	-6906
▁painters	-6907
aby	-6908
▁bat	-6909
▁Billy	-6910
▁Broadcast	-6911
▁Vik	-6912
▁Nort	-6913
▁Comics	-6914
othing	-6915
zi	-6916
inian	-6917
father	-6918
▁toward	-6919
▁Dead	-6920
▁invasion	-6921
▁Franklin	-6922
▁Tam	-6923
▁pages	-6924
▁Serbian	-6925
ampton	-6926
▁bodies	-6927
RC	-6928
▁Tak	-6929
▁extrem	-6930
▁Our	-6931
itals	-6932
▁causing	-6933
▁Gill	-6934
agg	-6935
▁voted	-6936
▁islands	-6937
▁reserve	-6938
▁Edinburgh	-6939
▁Express	-6940
▁Phot	-6941
▁emp	-6942
▁engaged	-6943
▁constant	-6944
▁Pear	-6945
▁Norman	-6946
ellite	-6947
▁Volume	-6948
▁carry	-6949
▁twelve	-6950
▁roads	-6951
▁animal	-6952
ugar	-6953
▁Jose	-6954
▁exped	-6955
▁ban	-6956
▁Wright	-6957
kee	-6958
▁Report	-6959
▁installed	-6960
▁shape	-6961
▁Species	-6962
owned	-6963
▁existence	-6964
▁nom	-6965
▁pup	-6966
▁Py	-6967
▁Liga	-6968
▁Nord	-6969
▁trying	-6970
▁heard	-6971
▁Horn	-6972
▁heavily	-6973
▁foundation	-6974
▁rise	-6975
▁consisting	-6976
ners	-6977
▁scenes	-6978
GA	-6979
▁Rain	-6980
hammad	-6981
▁Mi	-6982
▁trained	-6983
▁pull	-6984
mingham	-6985
▁emphas	-6986
▁sale	-6987
▁joining	-6988
▁doing	-6989
▁conce	-6990
▁vo	-6991
▁Gary	-6992
▁observed	-6993
▁Saf	-6994
▁Mes	-6995
▁throw	-6996
▁Gulf	-6997
▁employees	-6998
▁Campbell	-6999
▁scheduled	-7000
ailand	-7001
▁Support	-7002
rif	-7003
▁specifically	-7004
anne	-7005
▁translated	-7006
▁tend	-7007
▁Anti	-7008
▁Method	-7009
▁Marie	-7010
▁behavior	-7011
▁Plat	-7012
▁Palace	-7013
▁Rights	-7014
▁inher	-7015
▁scale	-7016
▁Once	-7017
orter	-7018
▁proved	-7019
▁leads	-7020
level	-7021
urray	-7022
▁Deputy	-7023
po	-7024
▁chemical	-7025
▁applications	-7026
top	-7027
▁passengers	-7028
etta	-7029
▁Fem	-7030
▁formal	-7031
▁Orthodox	-7032
apes	-7033
asa	-7034
▁Tourn	-7035
▁Years	-7036
▁Hend	-7037
▁plot	-7038
▁Oblast	-7039
▁divisions	-7040
▁acid	-7041
▁AT	-7042
amilies	-7043
idel	-7044
▁southwest	-7045
▁Veg	-7046
▁Market	-7047
▁anth	-7048
inae	-7049
▁comic	-7050
inate	-7051
▁contrast	-7052
▁comput	-7053
▁Bernard	-7054
▁UEFA	-7055
▁squadron	-7056
▁Singh	-7057
▁Chamber	-7058
▁Fried	-7059
term	-7060
avalry	-7061
▁steam	-7062
ser	-7063
net	-7064
iac	-7065
▁Crown	-7066
uins	-7067
▁improve	-7068
then	-7069
▁Brothers	-7070
▁Peace	-7071
▁Every	-7072
▁shall	-7073
▁Kennedy	-7074
▁hair	-7075
▁Vers	-7076
▁Rot	-7077
▁Section	-7078
aser	-7079
▁rivers	-7080
▁experi	-7081
▁compete	-7082
▁closely	-7083
▁ski	-7084
rot	-7085
▁uncle	-7086
▁nick	-7087
ranean	-7088
osm	-7089
▁Racing	-7090
▁request	-7091
▁edge	-7092
dy	-7093
ucks	-7094
insula	-7095
▁Dh	-7096
▁producing	-7097
▁powers	-7098
▁Studio	-7099
▁agency	-7100
▁Pun	-7101
aughters	-7102
tered	-7103
▁Dub	-7104
▁weather	-7105
▁adjacent	-7106
▁municipalities	-7107
irt	-7108
inner	-7109
▁defensive	-7110
▁humans	-7111
uki	-7112
▁Invest	-7113
▁PA	-7114
unnel	-7115
▁initi	-7116
▁Upper	-7117
▁Associ	-7118
▁NAS	-7119
▁ped	-7120
oba	-7121
▁watch	-7122
anned	-7123
▁Fight	-7124
▁briefly	-7125
▁Thompson	-7126
ashi	-7127
▁vide	-7128
▁Sign	-7129
▁Training	-7130
▁Prefecture	-7131
uda	-7132
▁Agency	-7133
▁Serbia	-7134
▁price	-7135
▁Sarah	-7136
▁renov	-7137
chell	-7138
▁Rural	-7139
▁Chem	-7140
▁Disney	-7141
autiful	-7142
▁drivers	-7143
▁animated	-7144
orer	-7145
▁Finnish	-7146
▁ruled	-7147
▁Wrest	-7148
▁Vic	-7149
▁warn	-7150
▁Dakota	-7151
▁Wa	-7152
▁grad	-7153
▁Towns	-7154
▁Birmingham	-7155
▁Robinson	-7156
▁hits	-7157
heme	-7158
▁Rest	-7159
▁composition	-7160
▁Tigers	-7161
eton	-7162
▁Wol	-7163
▁Epis	-7164
▁gene	-7165
▁concluded	-7166
urring	-7167
▁Ent	-7168
▁introduction	-7169
olec	-7170
▁Austin	-7171
pa	-7172
mat	-7173
onder	-7174
▁quite	-7175
leton	-7176
▁zone	-7177
▁Vienna	-7178
▁Mean	-7179
▁Derby	-7180
▁raid	-7181
▁advent	-7182
orkshire	-7183
▁importance	-7184
▁entirely	-7185
▁mine	-7186
▁causes	-7187
▁Economic	-7188
▁improved	-7189
▁Kon	-7190
▁clin	-7191
▁ille	-7192
haps	-7193
▁edited	-7194
itionally	-7195
▁Jason	-7196
▁Note	-7197
▁Food	-7198
▁Arena	-7199
▁Psych	-7200
▁Communist	-7201
▁Hell	-7202
▁Cathedral	-7203
inking	-7204
clusion	-7205
▁opin	-7206
▁soci	-7207
▁stating	-7208
▁householder	-7209
isf	-7210
hop	-7211
▁ancest	-7212
bishop	-7213
▁Rico	-7214
▁influenced	-7215
ancer	-7216
orses	-7217
▁Ay	-7218
iler	-7219
ouver	-7220
bridge	-7221
▁Saturday	-7222
▁dry	-7223
▁quant	-7224
final	-7225
▁Thailand	-7226
uits	-7227
▁Population	-7228
▁limit	-7229
▁regiment	-7230
iop	-7231
including	-7232
erbai	-7233
▁Nash	-7234
▁superv	-7235
▁SR	-7236
▁Stanley	-7237
▁Parish	-7238
▁copy	-7239
ishments	-7240
▁extension	-7241
▁prize	-7242
▁advance	-7243
▁recept	-7244
▁poly	-7245
▁Carlos	-7246
▁fly	-7247
million	-7248
▁Yorkshire	-7249
▁opportunity	-7250
▁Liverpool	-7251
eta	-7252
essions	-7253
▁venues	-7254
▁describes	-7255
aware	-7256
▁aer	-7257
▁Johnny	-7258
cussion	-7259
▁manusc	-7260
mary	-7261
grade	-7262
▁armed	-7263
▁garden	-7264
onian	-7265
lon	-7266
ester	-7267
opal	-7268
▁Evans	-7269
▁possibly	-7270
▁Patri	-7271
▁divers	-7272
▁archae	-7273
▁images	-7274
▁Marshall	-7275
▁Rud	-7276
▁operate	-7277
▁Primary	-7278
pass	-7279
▁Race	-7280
▁factory	-7281
▁gets	-7282
▁getting	-7283
▁Graham	-7284
▁Trade	-7285
bassador	-7286
▁hill	-7287
hematics	-7288
▁Pur	-7289
mphony	-7290
▁judges	-7291
▁Doc	-7292
INE	-7293
▁publications	-7294
▁tack	-7295
▁believe	-7296
▁apart	-7297
leans	-7298
▁objects	-7299
▁Guide	-7300
▁grade	-7301
▁Shah	-7302
▁releg	-7303
ivalent	-7304
▁neighbour	-7305
▁waters	-7306
▁Motor	-7307
esters	-7308
▁techniques	-7309
ör	-7310
uis	-7311
▁residential	-7312
▁Bangl	-7313
fficient	-7314
▁operates	-7315
▁priest	-7316
▁tries	-7317
amic	-7318
▁businesses	-7319
▁engines	-7320
▁Jazz	-7321
▁courts	-7322
▁strength	-7323
▁Blues	-7324
▁seventh	-7325
▁resistance	-7326
GBT	-7327
▁argued	-7328
▁negative	-7329
▁Chairman	-7330
▁regarded	-7331
▁advoc	-7332
▁Taxa	-7333
▁Kit	-7334
▁core	-7335
▁seconds	-7336
star	-7337
▁flat	-7338
ushed	-7339
▁boys	-7340
▁documents	-7341
orror	-7342
▁err	-7343
PC	-7344
▁Diocese	-7345
▁Ple	-7346
white	-7347
▁Tot	-7348
▁producers	-7349
▁surg	-7350
▁Minor	-7351
▁Seg	-7352
election	-7353
▁seems	-7354
▁Micro	-7355
eler	-7356
▁residence	-7357
▁Comb	-7358
▁distributed	-7359
▁NBA	-7360
▁Portland	-7361
▁versus	-7362
▁ment	-7363
lie	-7364
▁deleg	-7365
▁adapted	-7366
▁Brooklyn	-7367
▁forests	-7368
▁Angl	-7369
▁Qual	-7370
ebraska	-7371
▁owners	-7372
▁Gor	-7373
▁Metro	-7374
▁singing	-7375
aks	-7376
vis	-7377
....	-7378
▁Wayne	-7379
▁Foot	-7380
▁views	-7381
rons	-7382
▁Emer	-7383
▁parallel	-7384
actor	-7385
▁choice	-7386
▁Eston	-7387
▁Jun	-7388
▁Orleans	-7389
▁accompan	-7390
▁Andy	-7391
▁Fellows	-7392
▁door	-7393
▁users	-7394
▁premiered	-7395
estyle	-7396
▁Azerbai	-7397
▁secretary	-7398
do	-7399
▁Fab	-7400
▁Latino	-7401
▁routes	-7402
▁convent	-7403
aman	-7404
▁broken	-7405
▁Construction	-7406
▁enl	-7407
▁crown	-7408
▁reality	-7409
▁Cra	-7410
▁interior	-7411
etry	-7412
ogether	-7413
ovo	-7414
▁brig	-7415
iterranean	-7416
▁reduce	-7417
▁survived	-7418
aph	-7419
profit	-7420
▁courses	-7421
▁controlled	-7422
▁Collection	-7423
▁Rangers	-7424
▁Milan	-7425
▁witness	-7426
bal	-7427
▁mist	-7428
gow	-7429
intend	-7430
▁Tun	-7431
▁praised	-7432
▁Ni	-7433
aire	-7434
going	-7435
▁Kan	-7436
ère	-7437
▁Medicine	-7438
▁Verm	-7439
▁clean	-7440
Is	-7441
osph	-7442
DP	-7443
aptist	-7444
isd	-7445
▁Cher	-7446
▁combination	-7447
▁sections	-7448
attan	-7449
enburg	-7450
icit	-7451
▁Again	-7452
ception	-7453
▁proced	-7454
▁Stage	-7455
leyball	-7456
▁charges	-7457
din	-7458
▁fine	-7459
▁Antar	-7460
▁medium	-7461
▁Tol	-7462
arus	-7463
eding	-7464
▁affected	-7465
▁accused	-7466
▁gain	-7467
▁Cass	-7468
▁wings	-7469
acc	-7470
▁Cooper	-7471
▁chose	-7472
▁ans	-7473
low	-7474
▁counties	-7475
▁standing	-7476
roke	-7477
▁ideas	-7478
▁Ald	-7479
▁grounds	-7480
▁Lanka	-7481
sch	-7482
▁exerc	-7483
▁greatest	-7484
▁Catal	-7485
▁graduate	-7486
▁Secret	-7487
▁session	-7488
▁Nebraska	-7489
▁collaboration	-7490
▁Cycl	-7491
▁CEO	-7492
▁exact	-7493
▁upd	-7494
▁Indians	-7495
▁chain	-7496
▁Aqu	-7497
▁actual	-7498
▁damaged	-7499
TS	-7500
▁consequ	-7501
ishment	-7502
▁stands	-7503
▁statement	-7504
▁Senator	-7505
▁flu	-7506
asure	-7507
▁Murray	-7508
▁Glas	-7509
▁belief	-7510
aked	-7511
▁Ian	-7512
▁skills	-7513
▁duty	-7514
▁gang	-7515
▁mort	-7516
osure	-7517
▁bottom	-7518
▁substant	-7519
▁description	-7520
▁ax	-7521
▁Slovak	-7522
▁wounded	-7523
mont	-7524
▁LGBT	-7525
▁really	-7526
▁classification	-7527
▁batter	-7528
▁interests	-7529
ht	-7530
▁Lov	-7531
eness	-7532
▁Conservative	-7533
▁revolution	-7534
▁Daily	-7535
▁illustr	-7536
▁ABC	-7537
▁sole	-7538
pi	-7539
▁Buffalo	-7540
▁ahead	-7541
▁colonial	-7542
▁opposite	-7543
▁Greater	-7544
▁earliest	-7545
▁Nova	-7546
▁Authority	-7547
▁items	-7548
▁Nam	-7549
▁Salv	-7550
▁inform	-7551
▁Father	-7552
hythm	-7553
uly	-7554
▁stores	-7555
oca	-7556
▁symbol	-7557
arsh	-7558
writers	-7559
ifer	-7560
▁goods	-7561
▁Carter	-7562
▁reception	-7563
▁constituency	-7564
▁prisoners	-7565
utions	-7566
ES	-7567
▁championships	-7568
sea	-7569
▁Barry	-7570
acon	-7571
merce	-7572
uted	-7573
IP	-7574
ancouver	-7575
▁Hold	-7576
▁Mediterranean	-7577
rafted	-7578
▁Guy	-7579
▁milit	-7580
▁capture	-7581
▁Lud	-7582
▁participate	-7583
ferred	-7584
▁Warren	-7585
▁Pad	-7586
▁Mort	-7587
zer	-7588
▁Stars	-7589
ente	-7590
▁emot	-7591
▁Lane	-7592
▁kilomet	-7593
▁Trophy	-7594
▁factors	-7595
▁regularly	-7596
▁Thus	-7597
▁Windows	-7598
▁Giants	-7599
▁dies	-7600
▁grass	-7601
▁costs	-7602
▁franchise	-7603
▁Stev	-7604
▁Current	-7605
pre	-7606
BB	-7607
▁Colombia	-7608
▁rich	-7609
▁purchase	-7610
▁repeated	-7611
abled	-7612
inding	-7613
olia	-7614
▁universities	-7615
acht	-7616
▁ones	-7617
▁signal	-7618
▁alt	-7619
▁contributions	-7620
▁heat	-7621
▁Sloven	-7622
▁refuge	-7623
▁Constitution	-7624
▁calling	-7625
▁hunt	-7626
▁Judge	-7627
enberg	-7628
entially	-7629
illo	-7630
enne	-7631
▁veter	-7632
▁returns	-7633
▁violin	-7634
enger	-7635
▁fest	-7636
▁sell	-7637
utation	-7638
▁Chang	-7639
▁athletes	-7640
antly	-7641
▁Cook	-7642
MP	-7643
▁Alliance	-7644
▁electronic	-7645
orro	-7646
ommod	-7647
exual	-7648
▁Michel	-7649
inos	-7650
etime	-7651
▁pool	-7652
▁Full	-7653
▁Charlie	-7654
▁AS	-7655
tery	-7656
miral	-7657
▁easily	-7658
▁showing	-7659
encing	-7660
▁tail	-7661
▁die	-7662
▁dismiss	-7663
▁Hig	-7664
▁imprison	-7665
▁mining	-7666
oka	-7667
mund	-7668
load	-7669
▁hydro	-7670
hu	-7671
tha	-7672
▁tor	-7673
▁device	-7674
atures	-7675
ture	-7676
▁finals	-7677
oustic	-7678
▁Egyptian	-7679
▁Electric	-7680
orial	-7681
▁Tele	-7682
▁Guinea	-7683
▁Hum	-7684
▁Aer	-7685
▁photograph	-7686
▁pian	-7687
▁values	-7688
ielder	-7689
▁turns	-7690
▁interpret	-7691
▁Phoen	-7692
▁IS	-7693
▁Moths	-7694
oda	-7695
▁Past	-7696
▁egg	-7697
▁myth	-7698
operation	-7699
usk	-7700
▁Bush	-7701
▁naval	-7702
▁Profile	-7703
▁Fish	-7704
▁save	-7705
▁Saints	-7706
▁Educational	-7707
▁Gib	-7708
▁Tournament	-7709
▁Online	-7710
▁Gray	-7711
▁Trail	-7712
▁nickn	-7713
ON	-7714
tra	-7715
▁Pierre	-7716
▁typical	-7717
▁Convention	-7718
▁contr	-7719
▁downtown	-7720
▁faith	-7721
▁Organization	-7722
▁Ivan	-7723
▁Broadway	-7724
▁Batt	-7725
▁Alberta	-7726
▁credited	-7727
▁Maj	-7728
▁Benj	-7729
▁replace	-7730
▁Discography	-7731
▁Net	-7732
▁retail	-7733
▁Companies	-7734
OC	-7735
▁colleges	-7736
▁measures	-7737
astery	-7738
▁Capital	-7739
▁Vancouver	-7740
▁Confeder	-7741
▁budget	-7742
▁Theater	-7743
rang	-7744
▁Tob	-7745
ilk	-7746
alymp	-7747
▁Madrid	-7748
▁committed	-7749
▁suburb	-7750
▁Richmond	-7751
rm	-7752
▁PC	-7753
rele	-7754
▁Falls	-7755
▁membership	-7756
▁Alaska	-7757
▁Borough	-7758
▁attached	-7759
▁advantage	-7760
▁drawn	-7761
riev	-7762
annels	-7763
.”	-7764
▁restored	-7765
HS	-7766
▁anniversary	-7767
▁Cinc	-7768
▁drop	-7769
itime	-7770
cia	-7771
▁SS	-7772
istical	-7773
▁worth	-7774
▁persons	-7775
cop	-7776
▁terror	-7777
▁bond	-7778
▁protected	-7779
▁communication	-7780
▁Rena	-7781
▁link	-7782
▁Taxonomy	-7783
▁Lead	-7784
▁Mack	-7785
▁displ	-7786
▁Luther	-7787
ED	-7788
▁Beck	-7789
▁hour	-7790
▁CA	-7791
ibbean	-7792
▁AR	-7793
▁rob	-7794
▁spr	-7795
▁decade	-7796
▁banks	-7797
▁Chand	-7798
▁Century	-7799
▁moment	-7800
▁designer	-7801
▁publishing	-7802
alis	-7803
▁trip	-7804
General	-7805
▁caught	-7806
▁medals	-7807
▁delivered	-7808
▁Vel	-7809
▁Unit	-7810
▁climb	-7811
▁examples	-7812
▁Survey	-7813
▁rooms	-7814
edding	-7815
▁magazines	-7816
▁uniform	-7817
▁Nevada	-7818
▁Mong	-7819
apping	-7820
hai	-7821
eared	-7822
▁grant	-7823
▁flo	-7824
folk	-7825
▁unc	-7826
▁squ	-7827
asp	-7828
▁freedom	-7829
▁assistance	-7830
▁theater	-7831
▁cycle	-7832
▁arranged	-7833
▁investment	-7834
▁philosophy	-7835
▁Woman	-7836
away	-7837
▁intelligence	-7838
▁flows	-7839
▁reaction	-7840
ishers	-7841
▁Nazi	-7842
▁Hindu	-7843
tenance	-7844
▁charged	-7845
▁admitted	-7846
▁offensive	-7847
▁pur	-7848
▁Jenn	-7849
▁Politics	-7850
▁cous	-7851
▁Artists	-7852
▁coastal	-7853
▁Bristol	-7854
cell	-7855
▁Mond	-7856
▁runner	-7857
mel	-7858
▁purposes	-7859
▁Never	-7860
▁Site	-7861
▁DJ	-7862
innati	-7863
usalem	-7864
ilst	-7865
▁tank	-7866
▁Hawaii	-7867
roup	-7868
▁somew	-7869
▁thick	-7870
▁Burg	-7871
▁stages	-7872
▁medicine	-7873
▁debuted	-7874
▁legend	-7875
▁Defunct	-7876
▁guitarist	-7877
▁circum	-7878
▁Mess	-7879
▁doct	-7880
▁Language	-7881
▁renew	-7882
▁Benn	-7883
▁stood	-7884
eget	-7885
▁Ib	-7886
▁Seven	-7887
▁†	-7888
▁Mall	-7889
▁submar	-7890
▁knock	-7891
orrow	-7892
▁lists	-7893
▁Baronet	-7894
▁molec	-7895
▁assumed	-7896
▁Steel	-7897
▁bran	-7898
iggest	-7899
▁util	-7900
▁minute	-7901
▁Paralymp	-7902
othes	-7903
▁brain	-7904
▁coordin	-7905
▁sequence	-7906
▁Grade	-7907
▁Distribution	-7908
▁Orange	-7909
owski	-7910
▁Contin	-7911
ün	-7912
▁Challenge	-7913
▁Publications	-7914
ivia	-7915
apped	-7916
atal	-7917
auty	-7918
oker	-7919
▁Maced	-7920
▁separated	-7921
endment	-7922
▁unsuccess	-7923
fiction	-7924
▁eye	-7925
▁why	-7926
▁selling	-7927
▁resign	-7928
▁crossing	-7929
▁orchestra	-7930
▁Eug	-7931
▁victims	-7932
▁accommod	-7933
▁expression	-7934
▁Afghanistan	-7935
▁Peru	-7936
▁AP	-7937
▁shooting	-7938
ompl	-7939
▁retained	-7940
▁disestablished	-7941
▁gender	-7942
▁hur	-7943
Man	-7944
Ind	-7945
zo	-7946
--	-7947
▁kid	-7948
▁didn	-7949
hibition	-7950
▁businessman	-7951
ayed	-7952
▁Page	-7953
▁falls	-7954
No	-7955
▁executed	-7956
▁synd	-7957
▁dating	-7958
▁Neg	-7959
▁nothing	-7960
▁Wor	-7961
▁Frances	-7962
▁instruments	-7963
▁challenge	-7964
▁Mans	-7965
estone	-7966
aments	-7967
▁determine	-7968
▁notably	-7969
▁Baker	-7970
▁teen	-7971
▁Manh	-7972
inces	-7973
mith	-7974
▁Literature	-7975
amps	-7976
▁arrival	-7977
Ne	-7978
master	-7979
▁nor	-7980
▁stopped	-7981
icket	-7982
▁legislation	-7983
▁videos	-7984
▁Hud	-7985
▁factor	-7986
lig	-7987
▁Ess	-7988
acle	-7989
▁motion	-7990
families	-7991
▁driving	-7992
▁rejected	-7993
iph	-7994
▁designs	-7995
nik	-7996
ancell	-7997
▁journey	-7998
▁Classic	-7999
▁carrying	-8000
▁doll	-8001
hab	-8002
▁Vas	-8003
▁Urban	-8004
▁Cit	-8005
▁looking	-8006
▁collections	-8007
▁Mother	-8008
▁headed	-8009
Eng	-8010
rong	-8011
not	-8012
▁duties	-8013
▁Caribbean	-8014
▁Cincinnati	-8015
bul	-8016
avi	-8017
▁demand	-8018
resents	-8019
otan	-8020
▁bed	-8021
stad	-8022
▁chance	-8023
▁user	-8024
▁comed	-8025
hill	-8026
▁justice	-8027
▁Mak	-8028
▁Houses	-8029
▁cup	-8030
▁Side	-8031
▁jump	-8032
▁Nation	-8033
NC	-8034
▁depend	-8035
▁Mitchell	-8036
▁Sz	-8037
isations	-8038
▁agencies	-8039
lock	-8040
▁Late	-8041
▁Kath	-8042
▁Warner	-8043
inter	-8044
▁seed	-8045
▁conqu	-8046
▁Norm	-8047
▁isol	-8048
▁veget	-8049
formance	-8050
▁carbon	-8051
▁Iranian	-8052
▁astr	-8053
▁missions	-8054
▁newspapers	-8055
▁biggest	-8056
▁Blood	-8057
iah	-8058
▁ownership	-8059
▁endemic	-8060
▁fan	-8061
▁Barbara	-8062
avan	-8063
▁Josh	-8064
▁Know	-8065
▁experienced	-8066
▁Peak	-8067
▁painted	-8068
▁Speed	-8069
aha	-8070
▁af	-8071
▁Defence	-8072
▁Jama	-8073
▁heads	-8074
▁Bra	-8075
ivan	-8076
▁Benjamin	-8077
▁Movement	-8078
ulations	-8079
▁Tang	-8080
▁storage	-8081
▁Quarter	-8082
▁vessels	-8083
enson	-8084
▁colour	-8085
▁sed	-8086
▁Additionally	-8087
▁Princip	-8088
▁provincial	-8089
▁Griff	-8090
▁teachers	-8091
▁difference	-8092
▁Has	-8093
▁Cart	-8094
▁Small	-8095
▁shel	-8096
▁starred	-8097
▁Constant	-8098
▁Limited	-8099
▁classified	-8100
etty	-8101
▁suggests	-8102
▁significantly	-8103
▁phen	-8104
▁Esp	-8105
▁threatened	-8106
▁eliminated	-8107
▁Tower	-8108
abi	-8109
▁Mix	-8110
▁Actress	-8111
iko	-8112
▁Protest	-8113
▁context	-8114
ashed	-8115
▁swimming	-8116
ijing	-8117
▁classic	-8118
▁Pi	-8119
yles	-8120
fare	-8121
boy	-8122
▁accompanied	-8123
▁insc	-8124
▁window	-8125
▁filmed	-8126
▁fired	-8127
▁medieval	-8128
▁fruit	-8129
▁innov	-8130
▁Glasgow	-8131
▁journals	-8132
▁Jerusalem	-8133
▁Croatian	-8134
who	-8135
antine	-8136
ultan	-8137
▁percussion	-8138
▁Trinity	-8139
▁defeating	-8140
▁sax	-8141
▁accur	-8142
itects	-8143
ulus	-8144
▁Clar	-8145
▁coverage	-8146
▁Hit	-8147
▁manufacturing	-8148
door	-8149
▁references	-8150
▁peaked	-8151
▁Nature	-8152
kov	-8153
▁represents	-8154
haw	-8155
▁journalists	-8156
ls	-8157
▁frag	-8158
▁Gabri	-8159
iege	-8160
▁unus	-8161
▁subjects	-8162
▁cold	-8163
▁mouth	-8164
hips	-8165
story	-8166
DS	-8167
▁Serge	-8168
▁fictional	-8169
fish	-8170
▁Harrison	-8171
▁institution	-8172
▁weekly	-8173
ogle	-8174
▁linked	-8175
▁Armenian	-8176
▁Pil	-8177
▁Lad	-8178
▁Weekly	-8179
▁severe	-8180
▁Jonathan	-8181
▁Fitz	-8182
▁Nicholas	-8183
▁cricketers	-8184
OM	-8185
▁Face	-8186
▁repair	-8187
▁DNA	-8188
▁poem	-8189
▁Ye	-8190
▁Symphony	-8191
▁Chel	-8192
▁meets	-8193
▁Bund	-8194
▁landing	-8195
asi	-8196
▁Model	-8197
▁crisis	-8198
▁therap	-8199
pha	-8200
icate	-8201
▁mobile	-8202
▁practices	-8203
▁Jerry	-8204
▁assess	-8205
▁Meg	-8206
▁streets	-8207
▁Plant	-8208
uh	-8209
Dec	-8210
▁democr	-8211
uncredited	-8212
▁daughters	-8213
▁criticized	-8214
▁attorney	-8215
ophone	-8216
▁qualifying	-8217
▁requirements	-8218
cious	-8219
▁hosts	-8220
eenth	-8221
▁descend	-8222
▁Pictures	-8223
▁Sid	-8224
▁invent	-8225
Star	-8226
▁otherwise	-8227
▁restaurant	-8228
lett	-8229
▁infrastructure	-8230
▁Turner	-8231
▁cited	-8232
▁Bass	-8233
ocal	-8234
oked	-8235
▁Lost	-8236
▁Monte	-8237
▁picture	-8238
You	-8239
▁Technical	-8240
▁rating	-8241
▁Prop	-8242
▁Hunter	-8243
▁Soft	-8244
ario	-8245
▁Luis	-8246
▁Males	-8247
▁Ele	-8248
▁Stri	-8249
▁Socorro	-8250
▁mo	-8251
▁testing	-8252
▁unf	-8253
▁Amaz	-8254
▁jurisd	-8255
bra	-8256
▁policies	-8257
ulu	-8258
▁Kum	-8259
▁devices	-8260
▁fishing	-8261
▁MA	-8262
pective	-8263
olds	-8264
▁concerns	-8265
▁crowd	-8266
stances	-8267
▁advis	-8268
▁brick	-8269
▁Bangladesh	-8270
▁Cuba	-8271
iri	-8272
▁Communications	-8273
▁Pant	-8274
▁depos	-8275
ders	-8276
feld	-8277
▁amateur	-8278
rehens	-8279
▁Fleet	-8280
▁Victorian	-8281
▁Private	-8282
▁wave	-8283
▁Branch	-8284
▁Clay	-8285
▁stret	-8286
otton	-8287
ocol	-8288
▁Parker	-8289
▁Mind	-8290
ellect	-8291
▁element	-8292
▁degrees	-8293
▁romantic	-8294
power	-8295
▁Standard	-8296
▁channels	-8297
▁Sask	-8298
▁Soul	-8299
▁assault	-8300
▁equivalent	-8301
▁covering	-8302
▁learned	-8303
forcement	-8304
▁Ref	-8305
▁tied	-8306
▁filed	-8307
▁preced	-8308
▁meters	-8309
▁prepared	-8310
orp	-8311
▁responsibility	-8312
▁Territory	-8313
▁windows	-8314
rate	-8315
▁roughly	-8316
▁organisation	-8317
▁Lock	-8318
▁accompl	-8319
▁Bey	-8320
vant	-8321
enses	-8322
▁Wrestling	-8323
▁Charlotte	-8324
▁Control	-8325
▁Edition	-8326
original	-8327
All	-8328
▁Zone	-8329
lee	-8330
oom	-8331
urers	-8332
▁mountains	-8333
▁struck	-8334
yclop	-8335
▁deputy	-8336
▁Delhi	-8337
▁formally	-8338
atche	-8339
▁Tu	-8340
▁Croatia	-8341
▁vary	-8342
▁Craig	-8343
fly	-8344
▁Ric	-8345
▁locomotives	-8346
▁mac	-8347
▁enh	-8348
▁Poly	-8349
web	-8350
sec	-8351
▁poets	-8352
▁diagn	-8353
ifle	-8354
▁stayed	-8355
rix	-8356
▁appropri	-8357
wig	-8358
▁Glen	-8359
▁Mars	-8360
▁Ja	-8361
ea	-8362
▁extremely	-8363
xts	-8364
idad	-8365
▁dated	-8366
MC	-8367
▁occupation	-8368
mo	-8369
▁expedition	-8370
▁Larry	-8371
▁Kos	-8372
▁incorpor	-8373
▁Manhattan	-8374
▁sanct	-8375
▁none	-8376
vi	-8377
aho	-8378
▁Terry	-8379
▁ensure	-8380
later	-8381
▁explos	-8382
otype	-8383
▁wine	-8384
iors	-8385
oven	-8386
▁assass	-8387
rat	-8388
▁Gun	-8389
▁Oliver	-8390
commun	-8391
pat	-8392
▁Lions	-8393
▁Tib	-8394
▁task	-8395
▁rates	-8396
liga	-8397
▁Barcel	-8398
▁scientists	-8399
▁Phoenix	-8400
ierra	-8401
▁memorial	-8402
▁Draft	-8403
▁signing	-8404
%,	-8405
umin	-8406
▁lov	-8407
▁penalty	-8408
▁Bible	-8409
pent	-8410
▁understanding	-8411
▁LINE	-8412
▁replacement	-8413
▁soil	-8414
▁Pack	-8415
▁Collins	-8416
▁sun	-8417
▁Recipients	-8418
Ph	-8419
Am	-8420
keeper	-8421
▁heritage	-8422
▁Bachelor	-8423
▁Fighter	-8424
On	-8425
▁Euro	-8426
central	-8427
person	-8428
ribed	-8429
▁restrict	-8430
▁Sr	-8431
West	-8432
▁Springs	-8433
▁successor	-8434
othy	-8435
▁Selected	-8436
▁wooden	-8437
▁Assistant	-8438
odge	-8439
▁Alice	-8440
▁Lis	-8441
ushing	-8442
▁mile	-8443
▁synthes	-8444
▁snow	-8445
aja	-8446
▁recip	-8447
▁Knights	-8448
▁borough	-8449
▁Montana	-8450
▁credit	-8451
▁Shel	-8452
otyp	-8453
atters	-8454
▁commemor	-8455
▁domain	-8456
▁authors	-8457
▁elevation	-8458
▁adaptation	-8459
▁Goth	-8460
▁fixed	-8461
ido	-8462
▁plus	-8463
▁losses	-8464
▁scheme	-8465
▁Feat	-8466
▁Beijing	-8467
unes	-8468
▁expert	-8469
▁broadc	-8470
▁Pow	-8471
eoples	-8472
▁orient	-8473
▁LINEAR	-8474
▁Norfolk	-8475
▁Baptist	-8476
▁thousands	-8477
music	-8478
▁dog	-8479
▁Architecture	-8480
▁Alger	-8481
▁capable	-8482
▁induct	-8483
▁note	-8484
oga	-8485
▁Faculty	-8486
coming	-8487
ictions	-8488
▁Broadcasting	-8489
ricane	-8490
▁plate	-8491
Or	-8492
▁flower	-8493
▁eval	-8494
▁subsidi	-8495
▁aspects	-8496
▁criticism	-8497
▁soundtrack	-8498
▁https	-8499
▁liqu	-8500
atern	-8501
▁Aviation	-8502
▁Cond	-8503
▁conserv	-8504
Jo	-8505
▁Ny	-8506
mate	-8507
▁Charts	-8508
▁check	-8509
▁subd	-8510
▁Wang	-8511
▁moth	-8512
▁differences	-8513
aeus	-8514
▁Critical	-8515
▁Sha	-8516
▁Storm	-8517
▁pitch	-8518
mosp	-8519
▁tur	-8520
▁extinct	-8521
▁license	-8522
▁bit	-8523
▁conservation	-8524
▁NR	-8525
ulum	-8526
uka	-8527
▁Exper	-8528
▁Contemporary	-8529
▁Ground	-8530
▁Dog	-8531
▁activist	-8532
ework	-8533
▁Bour	-8534
▁Costa	-8535
▁offering	-8536
▁Ral	-8537
ducer	-8538
▁Oil	-8539
▁Return	-8540
fn	-8541
chang	-8542
▁Nigeria	-8543
▁monument	-8544
host	-8545
ontin	-8546
▁celebrated	-8547
▁org	-8548
erk	-8549
▁Terr	-8550
eria	-8551
▁Meanwhile	-8552
▁Kirk	-8553
▁ign	-8554
▁Fine	-8555
MI	-8556
▁eyes	-8557
▁string	-8558
▁Originally	-8559
▁dim	-8560
▁ago	-8561
encer	-8562
▁Salt	-8563
▁processes	-8564
▁Vincent	-8565
▁boundary	-8566
▁intersection	-8567
▁Spirit	-8568
isition	-8569
▁surr	-8570
▁Init	-8571
▁Ancient	-8572
▁Nepal	-8573
▁Vlad	-8574
▁relative	-8575
▁Mann	-8576
▁Event	-8577
▁annually	-8578
▁rose	-8579
asm	-8580
bel	-8581
▁hang	-8582
▁audio	-8583
rez	-8584
ripts	-8585
▁tribut	-8586
acre	-8587
▁Freedom	-8588
ench	-8589
▁scope	-8590
▁Around	-8591
break	-8592
castle	-8593
▁Bulgarian	-8594
▁suicide	-8595
▁suff	-8596
▁divor	-8597
▁Jefferson	-8598
▁Bobby	-8599
▁Brand	-8600
▁interested	-8601
uez	-8602
▁synonym	-8603
▁transition	-8604
▁Keith	-8605
bird	-8606
▁vert	-8607
unny	-8608
▁weak	-8609
▁territories	-8610
ML	-8611
▁fram	-8612
▁destruct	-8613
aris	-8614
uart	-8615
ampa	-8616
▁Schol	-8617
▁temporary	-8618
▁SA	-8619
▁encounter	-8620
▁Action	-8621
hyll	-8622
▁Encyclop	-8623
▁appearing	-8624
▁Rabb	-8625
▁papers	-8626
itable	-8627
▁Cold	-8628
▁parent	-8629
▁catch	-8630
▁warm	-8631
▁Š	-8632
▁fer	-8633
claimed	-8634
▁transportation	-8635
▁Magn	-8636
ror	-8637
▁Bath	-8638
▁crop	-8639
▁ML	-8640
▁Barcelona	-8641
▁childhood	-8642
▁convicted	-8643
uin	-8644
ns	-8645
▁Pin	-8646
force	-8647
▁Ug	-8648
▁profession	-8649
▁coaching	-8650
cz	-8651
ubb	-8652
▁wor	-8653
▁Aber	-8654
▁Hem	-8655
▁LP	-8656
▁artistic	-8657
▁Herz	-8658
▁bon	-8659
winning	-8660
▁wheel	-8661
▁Fisher	-8662
▁Yam	-8663
iffer	-8664
▁Moroc	-8665
▁Trav	-8666
udes	-8667
▁Conservation	-8668
ivation	-8669
▁Brew	-8670
bound	-8671
▁vic	-8672
ás	-8673
EP	-8674
arked	-8675
borne	-8676
oj	-8677
eor	-8678
▁branches	-8679
abilities	-8680
▁popularity	-8681
▁cousin	-8682
▁perhaps	-8683
▁nations	-8684
▁monarch	-8685
▁demolished	-8686
▁filled	-8687
▁thin	-8688
where	-8689
▁flowers	-8690
stery	-8691
iya	-8692
▁kingdom	-8693
sterdam	-8694
atar	-8695
▁segment	-8696
▁helping	-8697
▁indicated	-8698
▁Alban	-8699
▁Hudson	-8700
▁Stre	-8701
EN	-8702
▁prime	-8703
Re	-8704
▁volumes	-8705
▁historians	-8706
▁Canal	-8707
▁sentenced	-8708
▁Denver	-8709
▁components	-8710
anim	-8711
▁withdraw	-8712
▁Byz	-8713
agar	-8714
▁Mey	-8715
▁plane	-8716
▁Pradesh	-8717
▁Systems	-8718
▁assembly	-8719
▁recre	-8720
icon	-8721
issue	-8722
hand	-8723
▁Fif	-8724
▁Philippine	-8725
ér	-8726
▁evening	-8727
▁Universal	-8728
know	-8729
▁Winners	-8730
Pro	-8731
pine	-8732
▁Hamb	-8733
▁entertainment	-8734
▁soldier	-8735
hus	-8736
▁Abbey	-8737
▁questions	-8738
▁Filip	-8739
?"	-8740
teenth	-8741
▁Horse	-8742
▁Expl	-8743
▁agriculture	-8744
atically	-8745
gressive	-8746
cat	-8747
▁technique	-8748
▁Environmental	-8749
▁portrayed	-8750
soft	-8751
▁Bulgaria	-8752
▁golf	-8753
igo	-8754
izations	-8755
▁CS	-8756
▁alco	-8757
▁Anglican	-8758
▁Hugh	-8759
aste	-8760
▁Curt	-8761
holm	-8762
▁assign	-8763
▁relief	-8764
▁scholar	-8765
eway	-8766
▁Robin	-8767
ictionary	-8768
▁Near	-8769
▁Snow	-8770
▁commit	-8771
▁affairs	-8772
▁Tas	-8773
▁Shang	-8774
▁capita	-8775
▁Operations	-8776
▁Hob	-8777
▁keyboards	-8778
cm	-8779
▁evolution	-8780
▁Cob	-8781
▁achieve	-8782
▁injuries	-8783
omon	-8784
▁Computer	-8785
▁Azerbaijan	-8786
▁Hann	-8787
▁visitors	-8788
▁Attorney	-8789
ET	-8790
enos	-8791
▁Ton	-8792
idency	-8793
▁Industrial	-8794
type	-8795
▁Cou	-8796
▁Tech	-8797
▁Chester	-8798
▁requires	-8799
▁adding	-8800
▁architectural	-8801
▁vessel	-8802
zes	-8803
vcard	-8804
▁Kap	-8805
▁Pra	-8806
▁Artillery	-8807
udden	-8808
ipping	-8809
▁Gay	-8810
▁Chron	-8811
▁Venezuela	-8812
▁lieutenant	-8813
▁surrounded	-8814
▁Grey	-8815
▁opinion	-8816
▁Isa	-8817
▁Pay	-8818
oyal	-8819
▁Lloyd	-8820
▁protest	-8821
▁Herman	-8822
▁bear	-8823
▁Artist	-8824
▁Golf	-8825
pm	-8826
▁arrest	-8827
▁personality	-8828
▁elder	-8829
▁Heb	-8830
▁artillery	-8831
▁museums	-8832
eno	-8833
▁rounds	-8834
▁aggreg	-8835
▁Sox	-8836
▁grown	-8837
▁completion	-8838
▁supposed	-8839
umi	-8840
▁indicate	-8841
▁existed	-8842
sa	-8843
▁Delaware	-8844
▁residing	-8845
fielder	-8846
▁fighter	-8847
▁RAF	-8848
aco	-8849
▁playoffs	-8850
May	-8851
▁NHL	-8852
▁entering	-8853
▁femin	-8854
▁Mason	-8855
eo	-8856
▁Gw	-8857
PR	-8858
▁eleven	-8859
abs	-8860
ilia	-8861
agement	-8862
tes	-8863
▁tie	-8864
▁bird	-8865
▁strategy	-8866
exp	-8867
▁Coal	-8868
▁solution	-8869
▁Insp	-8870
▁Seb	-8871
ingen	-8872
icial	-8873
sters	-8874
▁Campaign	-8875
▁diam	-8876
▁Catherine	-8877
eri	-8878
▁Á	-8879
ruption	-8880
▁Mig	-8881
▁lasted	-8882
▁Steven	-8883
▁Sig	-8884
ags	-8885
▁appointment	-8886
▁Theod	-8887
child	-8888
▁Statistics	-8889
HA	-8890
▁Representative	-8891
▁WW	-8892
▁mental	-8893
▁manner	-8894
▁trail	-8895
aku	-8896
unning	-8897
▁centers	-8898
▁Start	-8899
▁finding	-8900
▁Divis	-8901
▁Unincorporated	-8902
▁Days	-8903
▁emigrants	-8904
▁Performance	-8905
aba	-8906
▁emergency	-8907
▁Pel	-8908
ichi	-8909
▁cool	-8910
▁Bosnia	-8911
▁spiritual	-8912
▁declined	-8913
mod	-8914
▁Kur	-8915
▁beach	-8916
lar	-8917
▁Adela	-8918
▁replacing	-8919
▁Industry	-8920
▁Along	-8921
▁Had	-8922
▁YouT	-8923
▁licensed	-8924
▁Got	-8925
▁controversy	-8926
ugs	-8927
▁().	-8928
▁Pont	-8929
▁NBC	-8930
▁manga	-8931
▁chapel	-8932
▁tow	-8933
enti	-8934
▁Manager	-8935
geon	-8936
▁forming	-8937
▁proposal	-8938
▁Athens	-8939
▁movements	-8940
▁poems	-8941
▁tools	-8942
▁Herbert	-8943
▁hor	-8944
aukee	-8945
isb	-8946
▁markets	-8947
▁Saudi	-8948
▁networks	-8949
▁message	-8950
▁Clinton	-8951
EL	-8952
▁VI	-8953
▁Number	-8954
▁Within	-8955
▁eighth	-8956
run	-8957
▁option	-8958
certain	-8959
▁populations	-8960
▁Somers	-8961
▁frequency	-8962
cester	-8963
▁frame	-8964
▁skin	-8965
▁tribe	-8966
enton	-8967
▁publisher	-8968
▁Joy	-8969
▁influential	-8970
▁Lan	-8971
▁imag	-8972
▁festivals	-8973
▁dream	-8974
build	-8975
▁Diamond	-8976
▁accounts	-8977
DF	-8978
▁shut	-8979
▁involvement	-8980
▁Bes	-8981
▁benefit	-8982
HP	-8983
ön	-8984
▁lob	-8985
▁nomination	-8986
▁Economy	-8987
family	-8988
keley	-8989
▁Latv	-8990
▁cards	-8991
achi	-8992
uble	-8993
▁Circuit	-8994
ectors	-8995
▁Perry	-8996
▁Dennis	-8997
▁Pod	-8998
▁Ring	-8999
▁shares	-9000
actical	-9001
fers	-9002
▁hip	-9003
▁crash	-9004
▁decline	-9005
dest	-9006
imir	-9007
▁listings	-9008
▁Amsterdam	-9009
▁mob	-9010
▁Butler	-9011
▁dress	-9012
amental	-9013
auc	-9014
▁dig	-9015
▁rend	-9016
▁Harold	-9017
pers	-9018
▁Mick	-9019
▁Muhammad	-9020
▁camera	-9021
▁donated	-9022
▁Bright	-9023
▁Yank	-9024
▁circuit	-9025
▁Rat	-9026
▁Lear	-9027
▁Type	-9028
▁Sad	-9029
amese	-9030
▁patrol	-9031
▁Neigh	-9032
eli	-9033
▁surviving	-9034
▁CBS	-9035
▁Serie	-9036
▁congress	-9037
▁subt	-9038
mates	-9039
Col	-9040
▁modified	-9041
Con	-9042
ellectual	-9043
▁depth	-9044
▁equipped	-9045
▁Holland	-9046
alse	-9047
miere	-9048
▁anch	-9049
▁ministers	-9050
▁Lux	-9051
▁denied	-9052
▁settlements	-9053
▁Ze	-9054
▁Merc	-9055
▁Bert	-9056
▁Buch	-9057
▁Brun	-9058
▁chapter	-9059
▁maintenance	-9060
▁Leeds	-9061
▁absor	-9062
▁satellite	-9063
van	-9064
ipper	-9065
▁Hope	-9066
▁IC	-9067
▁somewhat	-9068
▁spoken	-9069
▁intent	-9070
▁raise	-9071
▁suspended	-9072
andal	-9073
▁competing	-9074
ribute	-9075
oro	-9076
celand	-9077
▁Bengal	-9078
▁thirty	-9079
BM	-9080
▁Flight	-9081
▁Collect	-9082
gom	-9083
▁Rac	-9084
▁concrete	-9085
▁bringing	-9086
icus	-9087
▁Edwards	-9088
▁Cad	-9089
iscopal	-9090
dd	-9091
▁Google	-9092
▁external	-9093
▁extens	-9094
▁debate	-9095
▁minimum	-9096
▁Archae	-9097
▁instance	-9098
▁secure	-9099
▁jobs	-9100
▁pregn	-9101
▁•	-9102
elect	-9103
cht	-9104
▁ster	-9105
▁explained	-9106
▁experiences	-9107
▁Bav	-9108
iration	-9109
▁Tag	-9110
▁Arabic	-9111
asia	-9112
using	-9113
!"	-9114
▁Pav	-9115
▁Heavy	-9116
▁Lem	-9117
▁sleep	-9118
▁broadcasting	-9119
▁Fu	-9120
▁Bog	-9121
▁horror	-9122
▁les	-9123
▁battles	-9124
waukee	-9125
▁underground	-9126
▁Ethiop	-9127
▁Commissioner	-9128
lington	-9129
▁Kenya	-9130
▁photography	-9131
reprene	-9132
▁soul	-9133
formerly	-9134
▁Cork	-9135
▁formations	-9136
igrated	-9137
▁longest	-9138
ilty	-9139
▁perfect	-9140
ifican	-9141
▁Episode	-9142
▁Yang	-9143
shaped	-9144
▁innings	-9145
Tr	-9146
ento	-9147
▁Kun	-9148
▁Mend	-9149
Donald	-9150
▁Gonz	-9151
agre	-9152
▁Munich	-9153
▁furn	-9154
La	-9155
phone	-9156
▁Treaty	-9157
▁Policy	-9158
▁Walt	-9159
▁continuing	-9160
ounsel	-9161
▁Release	-9162
oko	-9163
▁unincorporated	-9164
pes	-9165
▁Term	-9166
▁Vermont	-9167
▁Orig	-9168
▁Yale	-9169
▁Madison	-9170
gate	-9171
▁Wes	-9172
▁Adelaide	-9173
oded	-9174
▁Alt	-9175
▁preserved	-9176
▁participation	-9177
ussian	-9178
ificance	-9179
▁|}	-9180
▁distinguished	-9181
▁mir	-9182
enda	-9183
ospitals	-9184
eas	-9185
▁infantry	-9186
For	-9187
▁Eddie	-9188
▁considerable	-9189
▁tribes	-9190
uador	-9191
▁mines	-9192
arc	-9193
▁Ralph	-9194
arat	-9195
▁Patt	-9196
▁landscape	-9197
▁Gang	-9198
este	-9199
ilarly	-9200
terior	-9201
▁worship	-9202
▁honors	-9203
angerous	-9204
pread	-9205
▁View	-9206
▁ranking	-9207
▁pric	-9208
▁theat	-9209
nan	-9210
▁blocks	-9211
▁terminus	-9212
▁Climate	-9213
▁reputation	-9214
aze	-9215
uru	-9216
▁Unlike	-9217
ounced	-9218
rystal	-9219
▁illegal	-9220
maker	-9221
▁Archbishop	-9222
▁Cardinals	-9223
▁Overall	-9224
▁bes	-9225
▁missed	-9226
uckland	-9227
idespread	-9228
▁resolution	-9229
▁horses	-9230
▁Rogers	-9231
▁Dragon	-9232
▁Eagles	-9233
▁crimes	-9234
▁Luke	-9235
▁foss	-9236
▁Lion	-9237
iology	-9238
▁Financial	-9239
▁Ult	-9240
occ	-9241
▁treated	-9242
▁Masters	-9243
▁strongly	-9244
▁ 	-9245
March	-9246
eters	-9247
My	-9248
▁São	-9249
▁Cann	-9250
▁Celt	-9251
▁Malt	-9252
▁Murp	-9253
▁Fellow	-9254
▁posted	-9255
▁YouTube	-9256
rock	-9257
▁traded	-9258
▁Code	-9259
▁Future	-9260
▁Peninsula	-9261
body	-9262
▁bridges	-9263
▁Lakes	-9264
él	-9265
▁reun	-9266
▁repro	-9267
.),	-9268
▁lap	-9269
▁Individual	-9270
▁acoustic	-9271
▁printed	-9272
bus	-9273
▁rebuilt	-9274
▁occasionally	-9275
▁nav	-9276
▁Iceland	-9277
▁tell	-9278
▁Ridge	-9279
▁Revival	-9280
backs	-9281
aran	-9282
▁meetings	-9283
orous	-9284
ocation	-9285
gun	-9286
▁gay	-9287
▁Neil	-9288
▁borders	-9289
▁surgery	-9290
▁MS	-9291
▁Ru	-9292
called	-9293
overy	-9294
▁Set	-9295
▁Bald	-9296
.'	-9297
igs	-9298
▁huge	-9299
▁serial	-9300
Jan	-9301
ennial	-9302
▁Socialist	-9303
▁Anglo	-9304
▁pron	-9305
▁adopt	-9306
";	-9307
high	-9308
▁EU	-9309
itis	-9310
▁excell	-9311
LP	-9312
▁Buc	-9313
▁operational	-9314
▁heir	-9315
▁Toy	-9316
▁sort	-9317
▁honour	-9318
▁Vegas	-9319
▁participants	-9320
ffcc	-9321
▁Magic	-9322
onies	-9323
bow	-9324
Can	-9325
▁Henri	-9326
▁martial	-9327
outheastern	-9328
trans	-9329
▁percentage	-9330
▁increasingly	-9331
isch	-9332
▁Soon	-9333
▁agents	-9334
▁mode	-9335
▁associate	-9336
▁Sierra	-9337
▁junction	-9338
▁graduating	-9339
iper	-9340
ewhere	-9341
eda	-9342
idal	-9343
opes	-9344
izer	-9345
▁merchant	-9346
▁leagues	-9347
mpt	-9348
▁Pic	-9349
▁Gate	-9350
▁diameter	-9351
▁Swim	-9352
itarian	-9353
rub	-9354
▁midfield	-9355
urop	-9356
oi	-9357
anner	-9358
▁planet	-9359
▁Crime	-9360
▁Filmography	-9361
▁Hav	-9362
▁Ottawa	-9363
▁Ches	-9364
anni	-9365
▁restoration	-9366
▁Data	-9367
▁erected	-9368
▁platforms	-9369
opsis	-9370
éd	-9371
▁Christianity	-9372
▁phr	-9373
▁remainder	-9374
hl	-9375
▁credits	-9376
▁Sah	-9377
▁Lebanon	-9378
▁Sor	-9379
arrier	-9380
NS	-9381
▁employment	-9382
▁acted	-9383
ña	-9384
▁parks	-9385
▁tests	-9386
▁Bruns	-9387
rand	-9388
▁prompt	-9389
▁Churches	-9390
German	-9391
▁Sultan	-9392
released	-9393
▁Secondary	-9394
▁Christians	-9395
comp	-9396
▁Lac	-9397
▁instrumental	-9398
elia	-9399
▁marketing	-9400
▁Petersburg	-9401
Hz	-9402
OT	-9403
athon	-9404
▁Occ	-9405
▁venue	-9406
▁electoral	-9407
nic	-9408
▁Commons	-9409
DC	-9410
▁releases	-9411
▁wrestling	-9412
WA	-9413
▁Coach	-9414
▁friendly	-9415
▁visiting	-9416
▁Manuel	-9417
itars	-9418
▁whilst	-9419
▁Auckland	-9420
▁happened	-9421
atchewan	-9422
▁attributed	-9423
▁arc	-9424
▁valid	-9425
▁changing	-9426
▁surf	-9427
onna	-9428
▁Friday	-9429
EE	-9430
▁Pedro	-9431
▁stress	-9432
▁Friends	-9433
▁Parks	-9434
▁rescue	-9435
▁discovery	-9436
▁Persian	-9437
▁phone	-9438
▁characteristics	-9439
IM	-9440
▁McL	-9441
▁defenders	-9442
▁relationships	-9443
▁Trad	-9444
▁attracted	-9445
▁Productions	-9446
ław	-9447
▁Say	-9448
▁safe	-9449
▁Warri	-9450
▁panel	-9451
ruit	-9452
▁youngest	-9453
▁representatives	-9454
rehensive	-9455
▁lawyers	-9456
▁Belarus	-9457
▁Helen	-9458
▁Draw	-9459
usted	-9460
▁torn	-9461
▁whereas	-9462
▁pod	-9463
▁earthqu	-9464
▁solar	-9465
riptions	-9466
▁supports	-9467
▁Gra	-9468
▁Mol	-9469
asha	-9470
▁admin	-9471
▁Pul	-9472
▁Fig	-9473
▁Stuart	-9474
▁trading	-9475
▁drew	-9476
▁Viol	-9477
▁Ecuador	-9478
care	-9479
efef	-9480
▁controversial	-9481
▁departure	-9482
▁Carr	-9483
designated	-9484
quir	-9485
▁neut	-9486
▁cinema	-9487
▁incidents	-9488
▁anything	-9489
▁occasions	-9490
▁Poll	-9491
▁recommended	-9492
▁Ghana	-9493
▁processing	-9494
▁themes	-9495
fire	-9496
▁Ober	-9497
▁Range	-9498
▁Susan	-9499
▁visible	-9500
▁boats	-9501
▁doubles	-9502
scar	-9503
▁abuse	-9504
▁Hyd	-9505
▁Gene	-9506
▁Saskatchewan	-9507
quarter	-9508
▁supplies	-9509
helm	-9510
math	-9511
▁Yu	-9512
stown	-9513
Ed	-9514
▁buy	-9515
▁Gust	-9516
▁fix	-9517
▁satisf	-9518
Nov	-9519
▁Scotia	-9520
▁atmosp	-9521
▁Krist	-9522
auge	-9523
ffield	-9524
▁Grove	-9525
▁Jar	-9526
▁chamber	-9527
▁Shaw	-9528
▁sees	-9529
▁SP	-9530
▁Anim	-9531
▁tas	-9532
▁Movie	-9533
▁vision	-9534
▁Rhode	-9535
▁Urugu	-9536
▁remember	-9537
▁Murphy	-9538
▁ruling	-9539
▁Sak	-9540
▁Berkeley	-9541
▁Ernest	-9542
▁Congo	-9543
▁belonged	-9544
pir	-9545
▁Paint	-9546
▁Crow	-9547
istani	-9548
▁file	-9549
▁Milwaukee	-9550
ema	-9551
▁Chi	-9552
mphib	-9553
As	-9554
▁Wel	-9555
▁Newcastle	-9556
abil	-9557
ullivan	-9558
rose	-9559
▁metropolitan	-9560
▁indicates	-9561
Wh	-9562
▁dub	-9563
▁Muslims	-9564
ailing	-9565
ovina	-9566
▁Until	-9567
mill	-9568
▁Somerset	-9569
RS	-9570
▁Gilbert	-9571
alam	-9572
▁Punj	-9573
▁Ted	-9574
legiate	-9575
▁seek	-9576
foot	-9577
▁widespread	-9578
▁Finals	-9579
El	-9580
▁wars	-9581
▁Cant	-9582
ographers	-9583
▁rapidly	-9584
▁fled	-9585
ibraries	-9586
▁casual	-9587
▁Sic	-9588
icking	-9589
▁Grace	-9590
▁representation	-9591
▁gallery	-9592
irk	-9593
▁Hein	-9594
▁pitcher	-9595
▁effectively	-9596
▁monitor	-9597
hin	-9598
imp	-9599
ipped	-9600
ickets	-9601
oshi	-9602
This	-9603
urst	-9604
▁wear	-9605
gomery	-9606
▁adults	-9607
▁hear	-9608
▁turning	-9609
▁opportunities	-9610
ieg	-9611
ixon	-9612
iji	-9613
▁abroad	-9614
▁Vern	-9615
lu	-9616
oard	-9617
hum	-9618
endar	-9619
▁Deep	-9620
▁Much	-9621
▁drawing	-9622
▁characterized	-9623
▁Regular	-9624
▁indigenous	-9625
▁absence	-9626
▁commanded	-9627
▁undert	-9628
▁moder	-9629
▁studying	-9630
▁ha	-9631
▁{	-9632
kg	-9633
▁defence	-9634
amer	-9635
eva	-9636
▁Finance	-9637
▁competitive	-9638
▁Ki	-9639
rano	-9640
▁Apple	-9641
▁Buddhist	-9642
▁illness	-9643
wright	-9644
▁insurance	-9645
▁Cert	-9646
▁unusual	-9647
▁nominations	-9648
▁statue	-9649
▁massive	-9650
▁leaf	-9651
▁Esc	-9652
ancellor	-9653
reck	-9654
▁approval	-9655
abet	-9656
▁Deaths	-9657
▁ratio	-9658
▁concerts	-9659
▁everything	-9660
▁Kle	-9661
▁Students	-9662
▁wants	-9663
▁colle	-9664
erted	-9665
▁Tibet	-9666
▁Kay	-9667
ingly	-9668
graduate	-9669
▁Brunswick	-9670
▁Franç	-9671
▁farmers	-9672
▁Care	-9673
haus	-9674
▁wrong	-9675
▁Altern	-9676
ricted	-9677
▁Protestant	-9678
▁Formula	-9679
ountry	-9680
▁Legacy	-9681
bi	-9682
eded	-9683
▁voting	-9684
▁Tommy	-9685
▁predomin	-9686
rain	-9687
▁Confederate	-9688
bie	-9689
▁periods	-9690
▁integrated	-9691
▁Stanford	-9692
▁relocated	-9693
▁categories	-9694
▁exists	-9695
▁parliamentary	-9696
▁Syria	-9697
asant	-9698
▁Leo	-9699
▁output	-9700
▁colony	-9701
▁IT	-9702
▁cable	-9703
▁traveled	-9704
▁comics	-9705
▁Prem	-9706
▁inner	-9707
Station	-9708
▁Hamburg	-9709
▁Article	-9710
▁congreg	-9711
aca	-9712
▁acknow	-9713
▁forwards	-9714
▁Nathan	-9715
▁claiming	-9716
▁Beh	-9717
▁predecess	-9718
vet	-9719
▁Shortly	-9720
iture	-9721
▁Hond	-9722
▁patient	-9723
▁jurisdiction	-9724
▁Independence	-9725
▁CDP	-9726
▁governments	-9727
▁contribution	-9728
▁Idaho	-9729
▁Montgomery	-9730
▁gone	-9731
▁Aircraft	-9732
▁ve	-9733
▁amongst	-9734
▁Shin	-9735
game	-9736
anche	-9737
▁Drive	-9738
▁Arc	-9739
▁Instead	-9740
▁teach	-9741
▁Mul	-9742
▁Danny	-9743
▁texts	-9744
▁Germans	-9745
amics	-9746
▁hundreds	-9747
▁advertising	-9748
▁tempor	-9749
▁cru	-9750
▁playoff	-9751
▁duo	-9752
▁wat	-9753
▁begun	-9754
wald	-9755
pear	-9756
▁Warsaw	-9757
Pl	-9758
iveness	-9759
▁Mik	-9760
▁EC	-9761
rypt	-9762
▁Raf	-9763
▁Single	-9764
▁Rav	-9765
▁Election	-9766
▁concerned	-9767
igible	-9768
▁Annual	-9769
thlete	-9770
▁anime	-9771
▁suffering	-9772
▁Arnold	-9773
▁margin	-9774
▁Florence	-9775
uber	-9776
▁spaces	-9777
▁Exchange	-9778
▁tenure	-9779
▁afterwards	-9780
▁organisations	-9781
▁Indianapolis	-9782
▁Falc	-9783
▁depending	-9784
▁understand	-9785
▁Agriculture	-9786
▁experimental	-9787
▁Nott	-9788
▁recovered	-9789
osoph	-9790
UC	-9791
▁Together	-9792
mediate	-9793
▁Shar	-9794
▁Chapel	-9795
▁Dest	-9796
▁Cypr	-9797
▁Document	-9798
▁shift	-9799
okie	-9800
oned	-9801
ultane	-9802
estershire	-9803
▁Get	-9804
▁civilian	-9805
▁Yellow	-9806
▁destruction	-9807
cing	-9808
berry	-9809
inations	-9810
▁wet	-9811
▁repr	-9812
▁helic	-9813
▁disband	-9814
▁researchers	-9815
▁Flying	-9816
▁fil	-9817
▁bishops	-9818
▁benefits	-9819
ported	-9820
olition	-9821
▁editions	-9822
etti	-9823
▁drugs	-9824
▁legs	-9825
▁greatly	-9826
▁CP	-9827
▁voters	-9828
uable	-9829
ifies	-9830
▁Raymond	-9831
▁silent	-9832
▁send	-9833
▁sponsored	-9834
▁genre	-9835
▁behalf	-9836
▁switch	-9837
▁drafted	-9838
▁contested	-9839
yler	-9840
minute	-9841
▁Relations	-9842
athy	-9843
▁signs	-9844
▁Gregory	-9845
▁Columbus	-9846
▁component	-9847
▁provision	-9848
▁drum	-9849
▁cabinet	-9850
▁customers	-9851
ching	-9852
▁apparently	-9853
▁Haz	-9854
▁spending	-9855
utton	-9856
▁NC	-9857
▁writes	-9858
▁Wellington	-9859
▁resemb	-9860
▁Moz	-9861
▁describe	-9862
▁Poetry	-9863
ifted	-9864
▁affiliated	-9865
▁schedule	-9866
▁nurs	-9867
▁complic	-9868
▁corporate	-9869
▁ocean	-9870
▁regime	-9871
▁styles	-9872
▁possession	-9873
ourg	-9874
achment	-9875
▁Obama	-9876
▁Leonard	-9877
▁NS	-9878
abel	-9879
▁detailed	-9880
ned	-9881
▁Soph	-9882
rod	-9883
▁Suz	-9884
▁pip	-9885
▁gradually	-9886
rys	-9887
vements	-9888
▁Bach	-9889
arant	-9890
ahl	-9891
▁diseases	-9892
▁caps	-9893
▁Additional	-9894
▁Din	-9895
▁biography	-9896
rox	-9897
erala	-9898
▁Ve	-9899
▁Ghost	-9900
plement	-9901
▁prohib	-9902
▁Math	-9903
cut	-9904
▁rar	-9905
▁reportedly	-9906
▁pseud	-9907
▁swit	-9908
lain	-9909
▁sudden	-9910
▁fear	-9911
▁Right	-9912
arv	-9913
olit	-9914
▁Len	-9915
alysis	-9916
strong	-9917
▁spoke	-9918
▁arrangement	-9919
▁grandfather	-9920
▁Mahar	-9921
▁Cruz	-9922
▁sustain	-9923
▁outer	-9924
▁attractions	-9925
▁ceased	-9926
anj	-9927
furt	-9928
▁Beth	-9929
▁py	-9930
ters	-9931
▁Kid	-9932
▁Was	-9933
▁Musicians	-9934
▁Sean	-9935
▁standings	-9936
▁clar	-9937
▁identify	-9938
eneg	-9939
▁Lig	-9940
▁Hi	-9941
arma	-9942
▁Gaz	-9943
▁moll	-9944
▁asks	-9945
Ex	-9946
▁Must	-9947
▁extent	-9948
▁picked	-9949
▁hal	-9950
▁settlers	-9951
▁Spart	-9952
▁Scar	-9953
▁decides	-9954
kar	-9955
theless	-9956
gorith	-9957
▁immediate	-9958
▁ninth	-9959
▁Actor	-9960
▁everyone	-9961
▁Sheffield	-9962
▁apartment	-9963
owed	-9964
▁Wallace	-9965
▁assets	-9966
▁stable	-9967
▁bid	-9968
▁Hebrew	-9969
▁sentence	-9970
▁fur	-9971
Ad	-9972
umbent	-9973
▁knew	-9974
▁subsidiary	-9975
▁Dol	-9976
▁physician	-9977
▁palace	-9978
efefe	-9979
fefefe	-9980
▁beautiful	-9981
▁wedding	-9982
▁eth	-9983
▁hen	-9984
▁Oakland	-9985
▁thousand	-9986
▁toured	-9987
▁partners	-9988
ossible	-9989
▁Having	-9990
▁electron	-9991
▁viewers	-9992
KO	-9993
▁opponents	-9994
▁Jur	-9995
▁useful	-9996
▁concentration	-9997
▁masc	-9998
eties	-9999
▁thir	-10000
forming	-10001
species	-10002
▁Mills	-10003
▁pul	-10004
▁Mold	-10005
▁Drama	-10006
▁definition	-10007
▁pitched	-10008
offic	-10009
▁Block	-10010
akespear	-10011
▁inaugural	-10012
▁Stef	-10013
▁Chapter	-10014
▁terminal	-10015
],	-10016
VID	-10017
▁Rams	-10018
▁Sched	-10019
▁cemetery	-10020
▁premiere	-10021
▁summary	-10022
▁gymn	-10023
▁ty	-10024
▁Phillips	-10025
▁cul	-10026
lik	-10027
▁wel	-10028
▁Bened	-10029
▁Cha	-10030
▁monastery	-10031
▁urg	-10032
▁rout	-10033
▁Wells	-10034
▁guide	-10035
▁Prison	-10036
▁Rovers	-10037
▁facilit	-10038
▁Og	-10039
▁noble	-10040
▁Essex	-10041
▁Wald	-10042
▁hat	-10043
▁thing	-10044
marks	-10045
▁Put	-10046
▁Harvey	-10047
▁Watson	-10048
empt	-10049
▁Tong	-10050
anthrop	-10051
new	-10052
▁activists	-10053
lovak	-10054
▁Birds	-10055
itual	-10056
▁cargo	-10057
▁Allied	-10058
▁proport	-10059
▁Advis	-10060
▁Lag	-10061
itary	-10062
actory	-10063
▁Less	-10064
▁photo	-10065
▁ranks	-10066
▁Marvel	-10067
▁exception	-10068
John	-10069
▁Nashville	-10070
▁Baby	-10071
▁weapon	-10072
rus	-10073
▁significance	-10074
▁Achie	-10075
iden	-10076
raud	-10077
▁Philosop	-10078
▁proteins	-10079
▁mixing	-10080
▁NA	-10081
elfare	-10082
rieved	-10083
otion	-10084
▁Such	-10085
▁index	-10086
issa	-10087
▁hearing	-10088
umberland	-10089
such	-10090
▁movies	-10091
▁Maz	-10092
▁gate	-10093
▁patron	-10094
▁truth	-10095
abric	-10096
OL	-10097
Best	-10098
▁Midd	-10099
elected	-10100
▁transmission	-10101
anian	-10102
▁Strateg	-10103
▁Kerala	-10104
▁choir	-10105
▁deployed	-10106
▁Shir	-10107
▁aimed	-10108
▁recommend	-10109
▁Malay	-10110
▁Dominican	-10111
boys	-10112
▁ready	-10113
▁kit	-10114
▁guilty	-10115
▁tournaments	-10116
andom	-10117
▁seeking	-10118
▁Govern	-10119
▁Athletes	-10120
▁Byzantine	-10121
▁Competition	-10122
▁grey	-10123
▁fantasy	-10124
alg	-10125
▁reveals	-10126
▁Protection	-10127
abe	-10128
bes	-10129
olen	-10130
▁connecting	-10131
▁emerged	-10132
▁housed	-10133
▁controll	-10134
entle	-10135
▁limits	-10136
▁División	-10137
case	-10138
▁Fly	-10139
agons	-10140
venge	-10141
▁partially	-10142
▁butter	-10143
▁partly	-10144
▁supporters	-10145
▁Peng	-10146
UK	-10147
forms	-10148
▁Ferr	-10149
▁Tir	-10150
arged	-10151
▁Microsoft	-10152
▁Encyclopedia	-10153
eals	-10154
▁Mut	-10155
▁belonging	-10156
▁Bear	-10157
▁Source	-10158
▁creative	-10159
onomous	-10160
▁recru	-10161
▁Opp	-10162
▁conj	-10163
raction	-10164
▁yield	-10165
ifinals	-10166
oku	-10167
▁Wildlife	-10168
▁Bond	-10169
▁Villa	-10170
IR	-10171
▁micro	-10172
issions	-10173
▁frequent	-10174
▁convention	-10175
ffee	-10176
▁rub	-10177
▁Hughes	-10178
roe	-10179
upt	-10180
▁Thorn	-10181
▁occasion	-10182
▁Marqu	-10183
▁qualify	-10184
▁Palmer	-10185
▁Next	-10186
▁Sul	-10187
▁moves	-10188
ija	-10189
▁Scientific	-10190
cycle	-10191
▁holid	-10192
viously	-10193
▁cancelled	-10194
ouncill	-10195
▁excav	-10196
▁aqu	-10197
▁Student	-10198
▁fee	-10199
▁immigrants	-10200
▁attending	-10201
page	-10202
▁Joan	-10203
▁tort	-10204
▁Friedrich	-10205
▁Palestine	-10206
minster	-10207
▁Brisb	-10208
▁Iss	-10209
cf	-10210
At	-10211
▁Exped	-10212
▁mounted	-10213
▁manufacturer	-10214
▁eldest	-10215
▁Economics	-10216
uba	-10217
▁rhythm	-10218
▁Shakespear	-10219
oons	-10220
▁peoples	-10221
▁photographs	-10222
▁highlight	-10223
ussia	-10224
ivic	-10225
emed	-10226
▁phenomen	-10227
▁drummer	-10228
boro	-10229
▁facing	-10230
▁Kil	-10231
▁Giov	-10232
▁MD	-10233
April	-10234
▁Brisbane	-10235
▁ride	-10236
▁viewed	-10237
uta	-10238
▁Cec	-10239
▁choose	-10240
acional	-10241
▁easy	-10242
▁excess	-10243
lift	-10244
▁Gothic	-10245
▁Tasman	-10246
▁scientist	-10247
En	-10248
rav	-10249
imo	-10250
▁funded	-10251
▁surviv	-10252
▁shore	-10253
▁Cyprus	-10254
rafts	-10255
▁stem	-10256
▁continu	-10257
hour	-10258
scale	-10259
▁enjoyed	-10260
unda	-10261
▁PlayStation	-10262
▁rect	-10263
making	-10264
▁implemented	-10265
▁Methodist	-10266
▁Renaissance	-10267
▁encouraged	-10268
▁dominated	-10269
▁Hil	-10270
▁remix	-10271
uzz	-10272
▁Eight	-10273
▁Sang	-10274
▁Outstanding	-10275
▁dual	-10276
▁Newton	-10277
eto	-10278
▁possess	-10279
▁Pete	-10280
iu	-10281
var	-10282
▁tons	-10283
▁battalion	-10284
ensen	-10285
▁clan	-10286
▁accord	-10287
▁falling	-10288
▁commented	-10289
▁uncertain	-10290
▁Pep	-10291
▁imperial	-10292
ische	-10293
▁tunnel	-10294
▁electricity	-10295
▁Cred	-10296
▁spin	-10297
December	-10298
ront	-10299
▁tomb	-10300
▁explo	-10301
▁Tennis	-10302
▁communications	-10303
▁matters	-10304
▁Commerce	-10305
▁Archive	-10306
apse	-10307
▁Venice	-10308
▁honorary	-10309
▁Rank	-10310
▁pale	-10311
▁Northwest	-10312
▁talent	-10313
htm	-10314
▁Aires	-10315
▁keeping	-10316
auer	-10317
▁Bears	-10318
izz	-10319
notes	-10320
▁Napole	-10321
def	-10322
ulner	-10323
▁Swan	-10324
▁NE	-10325
▁murdered	-10326
▁cash	-10327
but	-10328
ulating	-10329
And	-10330
▁Prague	-10331
▁produces	-10332
▁exceed	-10333
▁Ax	-10334
▁Imm	-10335
▁debt	-10336
▁discontin	-10337
▁Yugoslavia	-10338
amine	-10339
▁sculpture	-10340
▁passage	-10341
▁liquid	-10342
▁Politicians	-10343
▁Fourth	-10344
▁defending	-10345
atra	-10346
▁Observ	-10347
hematic	-10348
ospel	-10349
▁Ł	-10350
▁Cornwall	-10351
▁assisted	-10352
▁substitute	-10353
▁Archives	-10354
▁cricketer	-10355
▁Hear	-10356
▁establishing	-10357
▁Lamb	-10358
▁struggle	-10359
iago	-10360
▁Joint	-10361
▁charity	-10362
ovsky	-10363
▁Maurice	-10364
ller	-10365
uations	-10366
erally	-10367
second	-10368
▁locally	-10369
▁electrical	-10370
▁Female	-10371
▁wire	-10372
▁apply	-10373
▁functional	-10374
▁exclusively	-10375
NT	-10376
▁revenue	-10377
▁bio	-10378
ephew	-10379
▁bases	-10380
▁principles	-10381
ju	-10382
acked	-10383
▁Princ	-10384
▁substantial	-10385
▁reduction	-10386
▁athletics	-10387
rison	-10388
▁normally	-10389
▁roots	-10390
▁Guitar	-10391
▁Cov	-10392
insky	-10393
▁Speak	-10394
▁discip	-10395
omic	-10396
▁Eff	-10397
▁hope	-10398
▁songwriter	-10399
▁Bod	-10400
first	-10401
▁anyone	-10402
English	-10403
▁publicly	-10404
▁runners	-10405
▁stim	-10406
▁Sony	-10407
▁simpl	-10408
iens	-10409
▁Airlines	-10410
▁operator	-10411
▁Nak	-10412
▁expect	-10413
bone	-10414
▁database	-10415
▁organised	-10416
ortion	-10417
▁Abraham	-10418
▁compens	-10419
▁Price	-10420
▁Thai	-10421
▁vast	-10422
▁advice	-10423
▁beating	-10424
south	-10425
▁Name	-10426
▁upgr	-10427
opp	-10428
▁belongs	-10429
▁COVID	-10430
▁fold	-10431
October	-10432
▁emperor	-10433
▁Ships	-10434
▁earning	-10435
iciency	-10436
▁volleyball	-10437
▁Study	-10438
▁Dame	-10439
▁Mobile	-10440
▁provinces	-10441
▁unsuccessful	-10442
brid	-10443
▁ward	-10444
dal	-10445
▁Jacques	-10446
▁Sheriff	-10447
▁doesn	-10448
▁marry	-10449
▁generated	-10450
▁Sudan	-10451
▁exposed	-10452
▁Indonesian	-10453
▁Kas	-10454
▁sessions	-10455
▁steps	-10456
▁photos	-10457
▁Wed	-10458
▁relation	-10459
▁Sebast	-10460
lane	-10461
sequently	-10462
team	-10463
▁Morning	-10464
▁Ruth	-10465
▁IP	-10466
▁Wals	-10467
enders	-10468
▁decisions	-10469
world	-10470
Ireland	-10471
June	-10472
▁Ord	-10473
▁bright	-10474
▁Endemic	-10475
▁mamm	-10476
▁Raid	-10477
▁portrait	-10478
▁Forum	-10479
▁Writing	-10480
▁Barr	-10481
▁Religious	-10482
▁intellectual	-10483
gi	-10484
▁throne	-10485
▁diverse	-10486
▁driven	-10487
▁Glou	-10488
Fran	-10489
▁Higher	-10490
egovina	-10491
▁extreme	-10492
▁Commercial	-10493
▁Laura	-10494
▁Miguel	-10495
omi	-10496
▁boundaries	-10497
ovan	-10498
▁Gamb	-10499
▁lose	-10500
▁Winner	-10501
▁Democrats	-10502
avia	-10503
▁labour	-10504
▁dispute	-10505
overeign	-10506
▁withdrew	-10507
▁Events	-10508
ouch	-10509
▁Fiction	-10510
▁Shanghai	-10511
erals	-10512
▁Butter	-10513
▁alcohol	-10514
ogan	-10515
▁desire	-10516
▁Moh	-10517
RT	-10518
oslovak	-10519
▁Hat	-10520
▁weekend	-10521
▁Gael	-10522
▁sympt	-10523
▁banned	-10524
IL	-10525
▁clothing	-10526
artet	-10527
▁evac	-10528
▁Lak	-10529
▁Clarke	-10530
▁productions	-10531
rets	-10532
▁Todd	-10533
▁conversion	-10534
▁Still	-10535
▁Democrat	-10536
▁latest	-10537
▁Admiral	-10538
▁secured	-10539
▁patterns	-10540
Be	-10541
▁Tall	-10542
▁trials	-10543
▁Mario	-10544
▁Transl	-10545
illes	-10546
ieu	-10547
▁encl	-10548
alm	-10549
▁Mang	-10550
▁Remix	-10551
direct	-10552
▁Guild	-10553
▁merger	-10554
inum	-10555
ourse	-10556
▁Sussex	-10557
▁Kazakh	-10558
▁connect	-10559
▁lingu	-10560
▁Kol	-10561
▁Where	-10562
▁maps	-10563
▁Buenos	-10564
EM	-10565
▁eat	-10566
▁appropriate	-10567
▁Angels	-10568
rost	-10569
▁Southeast	-10570
hetic	-10571
▁manuscript	-10572
onymous	-10573
ovich	-10574
▁Otto	-10575
▁clinical	-10576
▁waste	-10577
▁conductor	-10578
▁Revolutionary	-10579
▁guitars	-10580
▁Jen	-10581
▁possibility	-10582
monton	-10583
▁impress	-10584
▁responded	-10585
edo	-10586
stance	-10587
▁protests	-10588
▁relegated	-10589
▁bacter	-10590
▁legislative	-10591
▁strict	-10592
▁Eld	-10593
▁Present	-10594
uke	-10595
▁closer	-10596
▁turb	-10597
▁pictures	-10598
▁simultane	-10599
▁implementation	-10600
▁Treas	-10601
▁Interstate	-10602
▁enforcement	-10603
))	-10604
cons	-10605
▁twin	-10606
eme	-10607
▁jury	-10608
▁Fictional	-10609
▁Monteneg	-10610
▁Legend	-10611
bassy	-10612
▁neck	-10613
▁Episcopal	-10614
▁Kin	-10615
zyme	-10616
▁recipient	-10617
hyd	-10618
▁lakes	-10619
▁Legion	-10620
kan	-10621
only	-10622
rift	-10623
▁ST	-10624
film	-10625
mits	-10626
▁Sep	-10627
▁Tunis	-10628
▁cattle	-10629
▁Initially	-10630
omo	-10631
▁Tampa	-10632
▁Gabriel	-10633
▁algorith	-10634
ffbbbb	-10635
▁Throughout	-10636
▁regulations	-10637
▁Pakistani	-10638
anyon	-10639
är	-10640
▁rising	-10641
▁Wilhelm	-10642
▁Lok	-10643
▁gram	-10644
itol	-10645
▁initiative	-10646
▁false	-10647
▁Ker	-10648
▁grades	-10649
▁remove	-10650
agonist	-10651
▁manage	-10652
▁Gas	-10653
▁Intelligence	-10654
SU	-10655
▁horn	-10656
avor	-10657
League	-10658
eaking	-10659
United	-10660
▁bonus	-10661
▁Kor	-10662
iast	-10663
▁Reading	-10664
▁blog	-10665
▁eggs	-10666
▁Ronald	-10667
mid	-10668
Sch	-10669
▁convinc	-10670
weep	-10671
▁dismissed	-10672
dess	-10673
▁giant	-10674
▁Oscar	-10675
▁manufacturers	-10676
August	-10677
▁inte	-10678
▁Harbor	-10679
▁Nottingham	-10680
▁cod	-10681
▁Polbot	-10682
▁Devon	-10683
September	-10684
atha	-10685
De	-10686
▁mathematics	-10687
▁tours	-10688
▁origins	-10689
▁McM	-10690
▁pure	-10691
▁prep	-10692
AP	-10693
▁quarterback	-10694
eni	-10695
▁Bag	-10696
▁Chan	-10697
▁Voice	-10698
▁Valent	-10699
▁Aaron	-10700
▁Wag	-10701
▁Dy	-10702
▁Sold	-10703
▁aviation	-10704
▁scen	-10705
▁Spencer	-10706
▁closing	-10707
▁reorgan	-10708
quer	-10709
▁Jak	-10710
▁rabb	-10711
▁Hindi	-10712
▁speaking	-10713
aton	-10714
vest	-10715
isp	-10716
▁Daw	-10717
▁CC	-10718
▁Perth	-10719
▁submitted	-10720
▁FK	-10721
▁shock	-10722
pert	-10723
country	-10724
▁convert	-10725
▁strategic	-10726
▁Czechoslovak	-10727
▁Arabia	-10728
▁Panama	-10729
▁Hir	-10730
▁trump	-10731
▁Ster	-10732
▁Train	-10733
▁Novels	-10734
igious	-10735
▁Nadu	-10736
▁elementary	-10737
▁ages	-10738
▁touring	-10739
▁Dob	-10740
▁Craw	-10741
▁else	-10742
▁assemb	-10743
▁sisters	-10744
▁Filipino	-10745
▁Banks	-10746
▁gard	-10747
▁Herzegovina	-10748
▁midfielders	-10749
▁MTV	-10750
▁Lep	-10751
omber	-10752
▁rated	-10753
▁farming	-10754
adier	-10755
▁concerning	-10756
▁constitution	-10757
cos	-10758
▁wealthy	-10759
▁essential	-10760
▁Raw	-10761
▁initiated	-10762
▁Dictionary	-10763
▁Bundes	-10764
▁pand	-10765
▁Paulo	-10766
list	-10767
▁Abu	-10768
Japan	-10769
▁Editor	-10770
▁Rol	-10771
disc	-10772
▁Duc	-10773
▁contributing	-10774
▁mal	-10775
▁tool	-10776
▁displayed	-10777
▁engineers	-10778
▁distribut	-10779
▁Oct	-10780
flu	-10781
▁Distinguished	-10782
borg	-10783
▁crossed	-10784
▁circumstances	-10785
▁Hous	-10786
rica	-10787
atics	-10788
hematical	-10789
▁Vent	-10790
ahan	-10791
▁treaty	-10792
▁Room	-10793
ashire	-10794
▁traditions	-10795
▁Concert	-10796
▁Stein	-10797
▁coached	-10798
apur	-10799
▁Wik	-10800
▁Slovenia	-10801
raits	-10802
▁conclusion	-10803
▁mor	-10804
sor	-10805
agers	-10806
▁Wu	-10807
▁Isaac	-10808
▁AF	-10809
▁Genus	-10810
▁completing	-10811
▁Belf	-10812
▁requested	-10813
▁Foster	-10814
▁Franco	-10815
▁designation	-10816
▁id	-10817
▁salt	-10818
▁camps	-10819
▁Soci	-10820
uli	-10821
▁orn	-10822
▁discussed	-10823
rien	-10824
▁Case	-10825
▁Franz	-10826
▁discrim	-10827
▁Guardian	-10828
▁acquisition	-10829
▁Kab	-10830
▁Examp	-10831
▁superior	-10832
four	-10833
▁Cuban	-10834
▁wearing	-10835
▁CF	-10836
▁bin	-10837
tracks	-10838
▁Lot	-10839
heng	-10840
▁Rus	-10841
▁fit	-10842
▁minority	-10843
▁Planet	-10844
▁Formation	-10845
fa	-10846
▁sang	-10847
hall	-10848
orum	-10849
▁Kill	-10850
▁Syrian	-10851
Pr	-10852
irm	-10853
namese	-10854
▁lowest	-10855
▁seeing	-10856
▁connections	-10857
▁CB	-10858
mother	-10859
▁helps	-10860
▁neither	-10861
November	-10862
▁Lex	-10863
▁agree	-10864
▁Piano	-10865
hal	-10866
iao	-10867
▁charter	-10868
▁Pirates	-10869
▁baby	-10870
▁involves	-10871
▁Shop	-10872
▁grows	-10873
▁victim	-10874
▁Own	-10875
January	-10876
▁Nancy	-10877
▁Ach	-10878
▁inducted	-10879
si	-10880
orious	-10881
▁survive	-10882
▁Ng	-10883
▁continuous	-10884
▁Lie	-10885
▁Reyn	-10886
zig	-10887
▁Krish	-10888
▁fitted	-10889
▁Bennett	-10890
▁Expedition	-10891
ificial	-10892
▁colors	-10893
▁Apoll	-10894
▁Mechan	-10895
▁hunting	-10896
▁propag	-10897
▁submarine	-10898
▁mit	-10899
levard	-10900
▁breaking	-10901
▁rebell	-10902
OP	-10903
ocy	-10904
▁grave	-10905
▁Princeton	-10906
▁Furthermore	-10907
▁ESP	-10908
▁CR	-10909
▁genetic	-10910
▁Rhodes	-10911
overed	-10912
▁reporter	-10913
▁Stockholm	-10914
▁cooperation	-10915
▁ris	-10916
▁Edmonton	-10917
One	-10918
▁entreprene	-10919
▁dominant	-10920
▁shopping	-10921
▁Institut	-10922
▁Kate	-10923
▁Path	-10924
▁ongoing	-10925
▁Lancashire	-10926
rooms	-10927
▁Interview	-10928
isha	-10929
▁managing	-10930
ocene	-10931
▁clock	-10932
▁inhab	-10933
ederation	-10934
▁Antarctic	-10935
ivo	-10936
apest	-10937
▁Liberty	-10938
pping	-10939
▁Isle	-10940
▁reaches	-10941
▁Ard	-10942
▁Reed	-10943
▁Struct	-10944
▁sequel	-10945
▁enzyme	-10946
▁scores	-10947
▁sample	-10948
▁physics	-10949
▁arrangements	-10950
▁manufactured	-10951
▁focuses	-10952
▁Cardinal	-10953
▁Junction	-10954
▁delivery	-10955
▁IF	-10956
▁recruit	-10957
▁Aj	-10958
▁MC	-10959
▁Deuts	-10960
▁Dim	-10961
▁Eagle	-10962
▁marks	-10963
▁increases	-10964
songwriter	-10965
▁Wyoming	-10966
▁fifteen	-10967
▁balance	-10968
July	-10969
▁constitutional	-10970
rent	-10971
▁Piet	-10972
▁Geoff	-10973
ilis	-10974
written	-10975
phis	-10976
▁Thor	-10977
▁Marg	-10978
▁cathedral	-10979
▁Cox	-10980
byter	-10981
▁Cameron	-10982
▁Shakespeare	-10983
▁Legal	-10984
▁discussion	-10985
VP	-10986
eca	-10987
▁Abdul	-10988
liminary	-10989
▁permission	-10990
▁€	-10991
uras	-10992
avier	-10993
▁resid	-10994
▁Any	-10995
anion	-10996
▁midfielder	-10997
▁GT	-10998
▁Sweet	-10999
▁brigade	-11000
▁Screen	-11001
▁Religion	-11002
▁Mull	-11003
▁Elections	-11004
ussels	-11005
▁Brooks	-11006
▁Rah	-11007
▁topics	-11008
▁mechanism	-11009
aru	-11010
sur	-11011
angered	-11012
▁beauty	-11013
▁Resources	-11014
▁burned	-11015
▁Grande	-11016
ifts	-11017
▁Bras	-11018
▁Durham	-11019
▁profit	-11020
entry	-11021
▁compiled	-11022
▁debuts	-11023
Aust	-11024
▁bay	-11025
cano	-11026
▁outstanding	-11027
▁kidn	-11028
▁suitable	-11029
▁truck	-11030
ategory	-11031
▁config	-11032
▁conservative	-11033
▁Gö	-11034
illon	-11035
▁notice	-11036
▁empt	-11037
▁forg	-11038
▁Apost	-11039
▁scholarship	-11040
▁persu	-11041
▁mos	-11042
▁annex	-11043
▁believes	-11044
angle	-11045
▁compound	-11046
▁Justin	-11047
▁Kra	-11048
▁Pick	-11049
▁outbreak	-11050
▁Karn	-11051
▁overseas	-11052
▁McD	-11053
onnie	-11054
▁tanks	-11055
▁therm	-11056
▁HD	-11057
▁diver	-11058
▁liberal	-11059
▁departed	-11060
▁tribute	-11061
▁restricted	-11062
▁opponent	-11063
▁acknowled	-11064
atta	-11065
▁Loss	-11066
▁ties	-11067
▁Edmund	-11068
▁Therefore	-11069
month	-11070
▁diplomatic	-11071
omes	-11072
▁Luxemb	-11073
feat	-11074
▁Text	-11075
▁random	-11076
▁temperatures	-11077
esty	-11078
▁AFC	-11079
▁Suff	-11080
▁Aur	-11081
▁athlete	-11082
▁strengthen	-11083
▁coup	-11084
▁interchange	-11085
▁Machine	-11086
tz	-11087
▁Proper	-11088
▁tributary	-11089
▁Desert	-11090
▁Fun	-11091
▁alter	-11092
▁Cinema	-11093
▁Laz	-11094
▁principle	-11095
▁unp	-11096
▁assists	-11097
▁departments	-11098
▁illustrated	-11099
▁Merit	-11100
▁sight	-11101
agi	-11102
two	-11103
ygen	-11104
▁condem	-11105
▁campaigns	-11106
▁Folk	-11107
icas	-11108
▁novelists	-11109
▁Owen	-11110
▁recognised	-11111
rise	-11112
▁Overview	-11113
▁landed	-11114
horn	-11115
▁Leader	-11116
▁dangerous	-11117
eras	-11118
▁Sullivan	-11119
▁Volunte	-11120
▁retreat	-11121
▁nephew	-11122
ettes	-11123
▁ritual	-11124
▁Albanian	-11125
▁apparent	-11126
▁victories	-11127
▁biological	-11128
▁Bak	-11129
▁intention	-11130
alus	-11131
▁Cla	-11132
▁bats	-11133
▁clergy	-11134
Br	-11135
▁Amazon	-11136
▁Playing	-11137
▁Typ	-11138
stituted	-11139
▁Chilean	-11140
▁ERA	-11141
▁Ana	-11142
▁Heights	-11143
sub	-11144
▁Those	-11145
▁kilometers	-11146
▁structural	-11147
▁mans	-11148
▁Colin	-11149
▁Sett	-11150
▁battery	-11151
▁promoting	-11152
▁earthquake	-11153
ucker	-11154
▁mechanical	-11155
▁Ful	-11156
pin	-11157
▁enters	-11158
▁Aub	-11159
▁nucle	-11160
▁Jamaica	-11161
▁Pon	-11162
▁thereafter	-11163
aurus	-11164
▁hills	-11165
▁Campus	-11166
▁spell	-11167
▁Railways	-11168
▁clearly	-11169
eing	-11170
▁Ö	-11171
▁Sey	-11172
▁Pand	-11173
▁Index	-11174
▁Celtic	-11175
▁internet	-11176
ascar	-11177
BO	-11178
▁prosp	-11179
▁finance	-11180
ansk	-11181
▁ter	-11182
▁Bros	-11183
▁els	-11184
▁pursue	-11185
▁reporting	-11186
azi	-11187
▁layer	-11188
wareness	-11189
▁crosses	-11190
htt	-11191
hell	-11192
▁Left	-11193
enhagen	-11194
▁spir	-11195
▁smooth	-11196
▁accessible	-11197
▁Vietnamese	-11198
▁Cyr	-11199
▁respective	-11200
velt	-11201
▁Jung	-11202
IF	-11203
▁Vladimir	-11204
ricks	-11205
▁Mine	-11206
▁variant	-11207
uanian	-11208
▁Lett	-11209
▁Based	-11210
▁flew	-11211
▁gardens	-11212
▁pianist	-11213
▁breast	-11214
▁internationally	-11215
▁linear	-11216
terbury	-11217
▁visits	-11218
▁prest	-11219
▁sugar	-11220
bank	-11221
▁Delta	-11222
▁photographer	-11223
▁disch	-11224
▁spl	-11225
▁slave	-11226
▁venture	-11227
▁Palestinian	-11228
uania	-11229
▁tight	-11230
▁Kenneth	-11231
▁Schw	-11232
umer	-11233
▁Rut	-11234
▁fill	-11235
▁Finally	-11236
▁gross	-11237
odia	-11238
▁Bradford	-11239
▁competitors	-11240
cho	-11241
▁Doug	-11242
▁por	-11243
▁travelled	-11244
enzo	-11245
▁execution	-11246
▁Harper	-11247
▁Gardens	-11248
umble	-11249
▁compositions	-11250
▁guests	-11251
▁Amateur	-11252
▁Armenia	-11253
▁Table	-11254
▁athletic	-11255
▁ur	-11256
ifier	-11257
imates	-11258
▁devoted	-11259
▁Philosophy	-11260
▁Saw	-11261
▁BM	-11262
▁Sex	-11263
▁ranging	-11264
▁industries	-11265
▁VII	-11266
uchi	-11267
aders	-11268
▁Circle	-11269
▁negotiations	-11270
▁Marcus	-11271
base	-11272
inda	-11273
▁partial	-11274
▁novelist	-11275
onso	-11276
avian	-11277
▁petition	-11278
▁violent	-11279
encia	-11280
gary	-11281
▁Java	-11282
lag	-11283
▁Chad	-11284
▁summit	-11285
▁reservoir	-11286
▁nut	-11287
iability	-11288
GS	-11289
▁Bil	-11290
brook	-11291
▁Made	-11292
▁Ost	-11293
▁sailed	-11294
▁consolid	-11295
▁Vil	-11296
adows	-11297
▁chron	-11298
▁expand	-11299
▁Tree	-11300
▁symp	-11301
▁Trump	-11302
ibilities	-11303
oney	-11304
▁Rice	-11305
ete	-11306
▁conventional	-11307
▁doors	-11308
▁rocks	-11309
▁happ	-11310
▁Currently	-11311
▁isolated	-11312
acted	-11313
ceived	-11314
▁Salvador	-11315
▁cruc	-11316
▁elsewhere	-11317
▁Ellis	-11318
▁Monday	-11319
▁machines	-11320
▁Gerald	-11321
▁Popular	-11322
▁Talk	-11323
▁participating	-11324
▁Bran	-11325
▁basin	-11326
▁Combat	-11327
listed	-11328
atsu	-11329
▁mathematic	-11330
▁originated	-11331
orge	-11332
free	-11333
▁Stories	-11334
▁XV	-11335
▁Ambassador	-11336
▁Lisa	-11337
▁saved	-11338
▁alliance	-11339
▁interviews	-11340
ém	-11341
inee	-11342
▁essay	-11343
▁preparation	-11344
What	-11345
▁pioneer	-11346
▁challenges	-11347
▁specialized	-11348
BL	-11349
Sw	-11350
▁Reserv	-11351
▁extend	-11352
▁asc	-11353
▁Grammy	-11354
▁pret	-11355
itus	-11356
▁recovery	-11357
▁Facebook	-11358
Co	-11359
▁Sof	-11360
▁Calgary	-11361
atem	-11362
▁constituencies	-11363
▁tot	-11364
▁Lucas	-11365
ischer	-11366
▁orche	-11367
ublished	-11368
▁canal	-11369
▁steep	-11370
▁PR	-11371
▁abolished	-11372
berto	-11373
▁Marin	-11374
dorf	-11375
▁Gren	-11376
anti	-11377
▁Trin	-11378
▁Crist	-11379
▁priests	-11380
South	-11381
Qu	-11382
▁gauge	-11383
▁cooper	-11384
▁powered	-11385
▁radical	-11386
▁Maritime	-11387
▁affair	-11388
len	-11389
▁pointed	-11390
▁ju	-11391
athi	-11392
▁resumed	-11393
▁Jin	-11394
▁connects	-11395
▁distingu	-11396
▁Mumb	-11397
ede	-11398
▁Dunc	-11399
▁ca	-11400
eling	-11401
▁Classical	-11402
▁Copa	-11403
▁horiz	-11404
oque	-11405
▁Herald	-11406
▁cavalry	-11407
▁Pomer	-11408
▁copper	-11409
▁columns	-11410
▁ministry	-11411
▁traditionally	-11412
▁prices	-11413
▁Newport	-11414
▁economics	-11415
▁ranges	-11416
▁tum	-11417
▁Giovanni	-11418
rip	-11419
▁Literary	-11420
▁Woods	-11421
▁disbanded	-11422
▁Provincial	-11423
▁corresponding	-11424
▁Slovakia	-11425
▁ninet	-11426
▁guarant	-11427
▁attempting	-11428
rogen	-11429
▁exercise	-11430
▁closure	-11431
angular	-11432
▁describing	-11433
▁Total	-11434
HC	-11435
▁gastropod	-11436
▁relevant	-11437
▁Recording	-11438
▁coalition	-11439
▁demonstrated	-11440
ificate	-11441
▁practical	-11442
ND	-11443
▁ideal	-11444
ref	-11445
▁Allan	-11446
▁bankrupt	-11447
ég	-11448
▁Comedy	-11449
▁Estonia	-11450
▁Transit	-11451
▁formula	-11452
▁Cust	-11453
▁Ports	-11454
▁Manufact	-11455
ewell	-11456
▁Pent	-11457
▁×	-11458
ashes	-11459
rapped	-11460
▁Intro	-11461
ternoon	-11462
▁sky	-11463
▁walking	-11464
▁certified	-11465
▁Rush	-11466
▁Citiz	-11467
▁Cardiff	-11468
▁Cavalry	-11469
▁carries	-11470
▁pandemic	-11471
▁escort	-11472
▁alternate	-11473
named	-11474
▁Parad	-11475
▁centres	-11476
▁comprehensive	-11477
▁influences	-11478
▁Iraqi	-11479
▁bibl	-11480
▁winds	-11481
▁Motors	-11482
▁PS	-11483
acco	-11484
▁pharm	-11485
▁attendance	-11486
▁Eg	-11487
ocket	-11488
▁funeral	-11489
▁Engineers	-11490
cott	-11491
▁fasc	-11492
CAR	-11493
icia	-11494
isons	-11495
▁Manit	-11496
▁avo	-11497
▁Heat	-11498
▁siege	-11499
ioned	-11500
▁Santiago	-11501
▁receives	-11502
arry	-11503
▁lift	-11504
▁Hull	-11505
▁Stevens	-11506
▁Georgian	-11507
iliary	-11508
▁Lutheran	-11509
▁decide	-11510
▁sounds	-11511
▁Harm	-11512
▁aboard	-11513
lia	-11514
▁therapy	-11515
▁symptoms	-11516
▁academy	-11517
▁colspan	-11518
▁download	-11519
▁thriller	-11520
▁extensively	-11521
oots	-11522
▁adventure	-11523
iev	-11524
umps	-11525
▁affect	-11526
▁vertical	-11527
▁inherited	-11528
▁intercept	-11529
went	-11530
▁spots	-11531
▁Nine	-11532
istration	-11533
ducing	-11534
▁vel	-11535
▁Double	-11536
▁circle	-11537
▁sket	-11538
▁Lithuania	-11539
inf	-11540
▁Das	-11541
isan	-11542
▁Fernando	-11543
▁USS	-11544
rupted	-11545
▁Fat	-11546
▁Kash	-11547
▁Ing	-11548
▁slaves	-11549
▁arriving	-11550
▁mini	-11551
▁rarely	-11552
▁restaurants	-11553
erness	-11554
▁Contest	-11555
.:	-11556
ME	-11557
▁XI	-11558
▁Johannes	-11559
”.	-11560
▁manif	-11561
▁Henderson	-11562
alin	-11563
▁Triple	-11564
▁Presbyter	-11565
harm	-11566
▁depicted	-11567
▁surpr	-11568
▁Safety	-11569
▁effic	-11570
▁Scout	-11571
▁param	-11572
▁Kem	-11573
▁Heath	-11574
▁allies	-11575
emies	-11576
▁Testament	-11577
uku	-11578
ilian	-11579
▁Gastropod	-11580
▁identical	-11581
▁Morocco	-11582
▁resort	-11583
▁sufficient	-11584
▁bell	-11585
▁usage	-11586
eled	-11587
▁LA	-11588
▁Julian	-11589
▁Faith	-11590
▁blues	-11591
▁confess	-11592
▁Canterbury	-11593
cul	-11594
arians	-11595
▁geomet	-11596
▁boss	-11597
▁acres	-11598
▁argument	-11599
▁Ek	-11600
▁Oz	-11601
▁revised	-11602
bles	-11603
elo	-11604
onica	-11605
acles	-11606
If	-11607
▁GP	-11608
▁narrative	-11609
ompass	-11610
▁strip	-11611
rous	-11612
▁Plate	-11613
apters	-11614
front	-11615
▁Amy	-11616
▁Ahmed	-11617
▁Highland	-11618
▁diocese	-11619
▁Sou	-11620
week	-11621
▁Tiger	-11622
▁plain	-11623
imer	-11624
▁Dig	-11625
▁nam	-11626
▁subsc	-11627
▁architects	-11628
▁Armed	-11629
▁desert	-11630
▁exhibitions	-11631
▁Ran	-11632
▁Clif	-11633
▁commenced	-11634
▁alive	-11635
▁wider	-11636
▁preferred	-11637
▁escaped	-11638
▁defender	-11639
▁Glass	-11640
abwe	-11641
writing	-11642
onne	-11643
▁PhD	-11644
osexual	-11645
amy	-11646
inia	-11647
▁decorated	-11648
▁exposure	-11649
February	-11650
▁Bryan	-11651
▁Brid	-11652
ilo	-11653
itic	-11654
▁Eventually	-11655
riculum	-11656
▁flights	-11657
length	-11658
▁Pearl	-11659
▁neutral	-11660
▁nickname	-11661
▁Zimb	-11662
▁<	-11663
▁meat	-11664
▁Version	-11665
innaeus	-11666
▁Roose	-11667
▁XX	-11668
▁tub	-11669
▁Stafford	-11670
▁Boulevard	-11671
was	-11672
okes	-11673
▁Tat	-11674
▁prol	-11675
▁Dj	-11676
irts	-11677
▁hospitals	-11678
▁fighters	-11679
▁depression	-11680
sm	-11681
olics	-11682
▁Bark	-11683
esse	-11684
▁Uganda	-11685
oser	-11686
▁Louise	-11687
pedo	-11688
▁Manila	-11689
bbffbb	-11690
▁filming	-11691
▁remote	-11692
▁riding	-11693
▁sung	-11694
ør	-11695
▁Universities	-11696
nut	-11697
▁Anat	-11698
▁Gy	-11699
▁spend	-11700
afe	-11701
stand	-11702
▁bull	-11703
▁Claud	-11704
▁raising	-11705
▁Slav	-11706
icz	-11707
ben	-11708
▁Want	-11709
▁usual	-11710
▁writings	-11711
▁Worth	-11712
▁technologies	-11713
▁neighbourhood	-11714
atorial	-11715
▁eligible	-11716
▁aggregate	-11717
chair	-11718
▁looked	-11719
▁resignation	-11720
piece	-11721
▁revers	-11722
▁Oslo	-11723
▁disaster	-11724
▁outdoor	-11725
▁rum	-11726
▁Glenn	-11727
▁Beginning	-11728
▁Guang	-11729
▁Curtis	-11730
▁Memphis	-11731
▁switched	-11732
▁Copenhagen	-11733
asan	-11734
▁Davies	-11735
▁Municipalities	-11736
▁temples	-11737
▁difficulties	-11738
▁hamlet	-11739
▁monthly	-11740
roid	-11741
▁Quest	-11742
▁exclusive	-11743
▁updated	-11744
▁buses	-11745
▁Districts	-11746
tor	-11747
▁Shield	-11748
▁listen	-11749
oyage	-11750
▁locality	-11751
▁disorder	-11752
▁vocalist	-11753
▁ticket	-11754
▁Cort	-11755
▁archaeological	-11756
atin	-11757
▁Shoot	-11758
▁interpretation	-11759
Music	-11760
▁Albania	-11761
mons	-11762
▁Mumbai	-11763
▁unless	-11764
iliation	-11765
▁Arsen	-11766
▁ib	-11767
▁predecessor	-11768
▁Colonial	-11769
stable	-11770
▁studios	-11771
▁fat	-11772
▁elevated	-11773
▁Aw	-11774
rish	-11775
▁Blake	-11776
▁bombing	-11777
▁Dum	-11778
ateral	-11779
▁pap	-11780
▁Vale	-11781
▁Notre	-11782
▁removal	-11783
▁Meet	-11784
▁CN	-11785
▁Tab	-11786
▁Duncan	-11787
▁Leslie	-11788
▁touchdowns	-11789
▁dialect	-11790
▁Armstrong	-11791
▁birthday	-11792
▁parking	-11793
ár	-11794
icing	-11795
▁Kingston	-11796
▁Teams	-11797
▁Kurt	-11798
▁Nas	-11799
▁rib	-11800
▁Tourist	-11801
ishi	-11802
▁brands	-11803
▁dissolved	-11804
▁fung	-11805
▁consumption	-11806
▁prox	-11807
▁Rab	-11808
▁Bronze	-11809
lights	-11810
▁approached	-11811
alling	-11812
ogical	-11813
▁pilots	-11814
▁anthrop	-11815
▁Software	-11816
▁Mis	-11817
▁Roosevelt	-11818
▁Pos	-11819
▁Database	-11820
▁Cu	-11821
▁na	-11822
▁Ply	-11823
▁Ri	-11824
▁rice	-11825
▁speakers	-11826
irates	-11827
▁Powell	-11828
▁coat	-11829
”,	-11830
▁widow	-11831
▁prosecut	-11832
▁ruler	-11833
▁cyl	-11834
▁AB	-11835
▁Metal	-11836
▁framework	-11837
▁perspective	-11838
asse	-11839
▁Bailey	-11840
▁Benedict	-11841
▁unlike	-11842
▁Kre	-11843
▁Sons	-11844
▁Corp	-11845
▁phosph	-11846
▁expensive	-11847
▁permitted	-11848
▁installation	-11849
▁Lic	-11850
▁Haven	-11851
▁Rodrig	-11852
▁answer	-11853
▁boxing	-11854
▁retiring	-11855
third	-11856
▁Pine	-11857
onnell	-11858
rovision	-11859
.;	-11860
iffs	-11861
▁Andrews	-11862
▁saxophone	-11863
▁fulf	-11864
▁Hero	-11865
▁error	-11866
▁Need	-11867
▁Belgrade	-11868
▁Astr	-11869
FFFF	-11870
▁roster	-11871
▁bath	-11872
▁Burials	-11873
▁arrives	-11874
▁Him	-11875
▁receptor	-11876
▁Solomon	-11877
▁Rochester	-11878
▁animation	-11879
▁Month	-11880
▁comparison	-11881
▁Self	-11882
▁Veter	-11883
▁regulation	-11884
▁Gaelic	-11885
▁targets	-11886
▁Tanz	-11887
▁Tropical	-11888
▁Ages	-11889
▁Nikol	-11890
▁redes	-11891
▁Marion	-11892
▁Zimbabwe	-11893
inating	-11894
▁informed	-11895
▁Gol	-11896
holders	-11897
avity	-11898
through	-11899
▁botan	-11900
▁exhibited	-11901
▁Pseud	-11902
▁samples	-11903
▁inhib	-11904
▁Evangel	-11905
▁ESPN	-11906
▁Watch	-11907
▁defended	-11908
▁Fut	-11909
▁Liv	-11910
▁absol	-11911
▁temporarily	-11912
▁golden	-11913
stanbul	-11914
arten	-11915
▁Ferdin	-11916
▁inspiration	-11917
urse	-11918
omorph	-11919
uper	-11920
▁Resp	-11921
▁reop	-11922
▁Workers	-11923
▁Advanced	-11924
lay	-11925
▁Vid	-11926
▁fauna	-11927
▁Fighting	-11928
▁Treaties	-11929
▁Squad	-11930
ups	-11931
▁Dw	-11932
▁Zhang	-11933
ánd	-11934
▁Raz	-11935
▁Devil	-11936
▁Hed	-11937
▁Westminster	-11938
wid	-11939
▁Frankfurt	-11940
oux	-11941
▁Picture	-11942
▁grandson	-11943
▁encompass	-11944
▁Herm	-11945
▁descendants	-11946
▁Belfast	-11947
▁enrolled	-11948
▁mall	-11949
▁Porter	-11950
▁Paralympics	-11951
▁Liu	-11952
▁casualties	-11953
orers	-11954
ployment	-11955
▁liv	-11956
▁neighboring	-11957
▁Ranch	-11958
▁Starting	-11959
▁excellent	-11960
▁Cabinet	-11961
▁width	-11962
▁Orland	-11963
inters	-11964
lez	-11965
▁Diet	-11966
▁revol	-11967
utical	-11968
▁stops	-11969
▁blind	-11970
▁Headquarters	-11971
▁pulled	-11972
agram	-11973
▁Ya	-11974
▁Preston	-11975
▁recalled	-11976
iour	-11977
▁veteran	-11978
▁Cai	-11979
▁Yankees	-11980
▁Reich	-11981
▁Engineer	-11982
flies	-11983
manuel	-11984
▁Miles	-11985
▁Č	-11986
oft	-11987
acier	-11988
▁Nan	-11989
▁chrom	-11990
omed	-11991
▁Reform	-11992
▁evolved	-11993
▁sin	-11994
▁tel	-11995
▁deemed	-11996
▁prince	-11997
post	-11998
▁layout	-11999
▁measured	-12000
inery	-12001
▁feelings	-12002
▁dollars	-12003
▁Palm	-12004
▁Holmes	-12005
▁options	-12006
▁sporting	-12007
quet	-12008
usa	-12009
▁Laboratory	-12010
icting	-12011
▁Punjab	-12012
▁Bedford	-12013
▁southeastern	-12014
ardi	-12015
ei	-12016
vor	-12017
eastern	-12018
▁fastest	-12019
▁institute	-12020
addy	-12021
ystem	-12022
▁tourist	-12023
▁Exhibition	-12024
ingle	-12025
▁collaps	-12026
bek	-12027
▁cartoon	-12028
▁root	-12029
▁tenth	-12030
▁Hod	-12031
▁Fifth	-12032
▁Marri	-12033
▁genes	-12034
▁Administrative	-12035
HF	-12036
isle	-12037
▁Eugene	-12038
▁volunteers	-12039
inas	-12040
adian	-12041
▁goalkeeper	-12042
▁variable	-12043
▁Break	-12044
etary	-12045
▁accompany	-12046
▁speaker	-12047
":	-12048
▁Marx	-12049
▁Albany	-12050
▁ambassador	-12051
▁collaborated	-12052
▁Richardson	-12053
▁Por	-12054
DR	-12055
▁fraud	-12056
essa	-12057
▁reducing	-12058
▁pole	-12059
▁syndrome	-12060
▁Shen	-12061
▁taxes	-12062
▁peer	-12063
ambers	-12064
▁Away	-12065
▁conven	-12066
▁Ced	-12067
district	-12068
▁explains	-12069
▁Mam	-12070
▁Hass	-12071
▁Brussels	-12072
onial	-12073
▁Anders	-12074
▁judg	-12075
▁labels	-12076
▁Luxembourg	-12077
▁Va	-12078
Love	-12079
▁characteristic	-12080
▁citizen	-12081
▁Jal	-12082
▁Bloom	-12083
▁bord	-12084
▁demands	-12085
▁Ps	-12086
▁Chuck	-12087
▁Match	-12088
erie	-12089
rage	-12090
urated	-12091
▁slowly	-12092
▁Townships	-12093
▁delayed	-12094
üller	-12095
▁Thir	-12096
▁Theory	-12097
cestershire	-12098
iott	-12099
▁reserves	-12100
▁à	-12101
gence	-12102
▁resol	-12103
▁seeds	-12104
▁Linda	-12105
▁Tyler	-12106
▁worst	-12107
▁enroll	-12108
▁tourism	-12109
▁Planning	-12110
▁imprisoned	-12111
▁stake	-12112
▁virus	-12113
▁freight	-12114
▁hidden	-12115
▁Nacional	-12116
▁Adrian	-12117
▁Surrey	-12118
▁Paragu	-12119
▁Lap	-12120
osophical	-12121
historic	-12122
▁programmes	-12123
▁Sap	-12124
chester	-12125
▁awareness	-12126
▁rig	-12127
▁Bradley	-12128
onal	-12129
▁hence	-12130
▁controls	-12131
▁travels	-12132
vol	-12133
intendo	-12134
▁Heaven	-12135
▁Simpson	-12136
▁artwork	-12137
▁yard	-12138
▁documented	-12139
erek	-12140
than	-12141
itzer	-12142
▁pairs	-12143
▁mig	-12144
▁telling	-12145
archive	-12146
igar	-12147
▁comprises	-12148
▁legislature	-12149
▁Eis	-12150
DE	-12151
IDS	-12152
animous	-12153
▁Springfield	-12154
▁bold	-12155
▁freestyle	-12156
▁enthus	-12157
icken	-12158
▁soap	-12159
▁Gand	-12160
▁promin	-12161
▁sculptor	-12162
▁distinctive	-12163
▁timber	-12164
▁Thunder	-12165
▁Indies	-12166
strument	-12167
▁chemistry	-12168
GM	-12169
▁literacy	-12170
▁Gam	-12171
▁qualification	-12172
RI	-12173
iba	-12174
imen	-12175
▁Location	-12176
▁Catholics	-12177
Gu	-12178
▁Basil	-12179
▁Travel	-12180
▁organic	-12181
▁cogn	-12182
▁Lines	-12183
turn	-12184
▁Brah	-12185
▁sitting	-12186
gie	-12187
▁Wake	-12188
▁historically	-12189
▁carrier	-12190
▁thinking	-12191
▁diet	-12192
▁Twenty	-12193
ints	-12194
▁improvements	-12195
fol	-12196
his	-12197
▁Madag	-12198
▁legacy	-12199
▁objective	-12200
▁Continental	-12201
▁discontinued	-12202
ardment	-12203
▁incumbent	-12204
▁distinction	-12205
ffer	-12206
forced	-12207
▁forty	-12208
ados	-12209
▁Money	-12210
▁morph	-12211
▁Cly	-12212
playing	-12213
uxiliary	-12214
▁tier	-12215
boat	-12216
▁Cut	-12217
ullah	-12218
▁drink	-12219
▁breeding	-12220
aji	-12221
▁Bot	-12222
▁Ign	-12223
▁loop	-12224
▁relay	-12225
▁Holl	-12226
ecraft	-12227
▁Jennifer	-12228
ountain	-12229
▁keyboard	-12230
▁bench	-12231
▁shops	-12232
▁Hus	-12233
▁comfort	-12234
hra	-12235
rosse	-12236
▁looks	-12237
▁footage	-12238
join	-12239
▁Troy	-12240
▁cave	-12241
▁prove	-12242
▁moral	-12243
▁Newsp	-12244
▁Lif	-12245
▁collective	-12246
oan	-12247
▁Ens	-12248
▁Hitler	-12249
held	-12250
▁Wend	-12251
▁crops	-12252
▁Đ	-12253
▁gal	-12254
▁Burton	-12255
▁Complete	-12256
▁relating	-12257
▁HMS	-12258
▁Voc	-12259
▁Hopkins	-12260
▁fundamental	-12261
ango	-12262
olin	-12263
endum	-12264
▁Nu	-12265
iffe	-12266
▁Wonder	-12267
▁supplied	-12268
▁threw	-12269
▁extends	-12270
▁angle	-12271
▁waiting	-12272
uchy	-12273
official	-12274
▁Take	-12275
ancers	-12276
▁Fal	-12277
▁Kiss	-12278
▁Change	-12279
▁populated	-12280
▁Wings	-12281
▁approaches	-12282
iformes	-12283
▁tested	-12284
▁resource	-12285
▁Marl	-12286
▁Pale	-12287
▁tens	-12288
▁Cel	-12289
andra	-12290
etical	-12291
▁Emily	-12292
thouse	-12293
▁Shadow	-12294
▁Interior	-12295
VA	-12296
▁Half	-12297
▁merch	-12298
▁Organizations	-12299
▁Tourism	-12300
▁broadcasts	-12301
oil	-12302
onde	-12303
▁collapse	-12304
▁Zamb	-12305
▁files	-12306
▁talks	-12307
▁procedure	-12308
▁atmosphere	-12309
ogo	-12310
▁thanks	-12311
imensional	-12312
fin	-12313
speed	-12314
▁flank	-12315
▁tackles	-12316
▁attacking	-12317
iza	-12318
▁Guatem	-12319
ifax	-12320
▁riders	-12321
▁airfield	-12322
▁zero	-12323
▁exhibit	-12324
ieve	-12325
▁altitude	-12326
awi	-12327
▁Nigerian	-12328
handed	-12329
▁remark	-12330
▁Bott	-12331
▁Dale	-12332
ittees	-12333
▁Leop	-12334
quin	-12335
▁magic	-12336
▁societies	-12337
▁Come	-12338
▁Without	-12339
▁independ	-12340
ondo	-12341
etz	-12342
immer	-12343
▁consistent	-12344
▁Wool	-12345
▁transc	-12346
andro	-12347
▁Gibson	-12348
makers	-12349
▁Middles	-12350
▁difficulty	-12351
isting	-12352
▁locomotive	-12353
archy	-12354
▁NASA	-12355
▁aw	-12356
▁flex	-12357
itudes	-12358
▁variation	-12359
hend	-12360
▁McN	-12361
▁Robertson	-12362
▁Chess	-12363
ustrated	-12364
▁editors	-12365
▁dramatic	-12366
▁simultaneously	-12367
▁Crus	-12368
▁belt	-12369
▁Complex	-12370
▁virtual	-12371
inemat	-12372
▁Citations	-12373
▁Yan	-12374
▁contracts	-12375
▁Samp	-12376
▁till	-12377
anie	-12378
▁Cauc	-12379
▁astronom	-12380
▁evil	-12381
aneous	-12382
▁rifle	-12383
▁Sv	-12384
habilit	-12385
▁Nintendo	-12386
lew	-12387
▁Cord	-12388
attered	-12389
▁Criminal	-12390
▁Manitoba	-12391
▁Footnotes	-12392
owing	-12393
city	-12394
▁Pé	-12395
▁Presbyterian	-12396
eon	-12397
▁logo	-12398
▁placing	-12399
▁Carroll	-12400
▁gear	-12401
BE	-12402
elin	-12403
▁SO	-12404
▁sure	-12405
▁Ahmad	-12406
▁Course	-12407
▁Hurricane	-12408
▁Eurovision	-12409
 °	-12410
igi	-12411
▁lib	-12412
▁plastic	-12413
pher	-12414
▁coinc	-12415
▁portions	-12416
▁suspension	-12417
▁Julia	-12418
▁sav	-12419
▁DS	-12420
▁Discovery	-12421
▁discovers	-12422
▁specimens	-12423
▁Parliamentary	-12424
▁Jag	-12425
▁Museums	-12426
▁administered	-12427
▁fib	-12428
▁Schedule	-12429
▁hypothes	-12430
▁congregation	-12431
▁Fay	-12432
▁sharing	-12433
▁Pink	-12434
▁emotional	-12435
beat	-12436
▁Establ	-12437
▁chess	-12438
▁phrase	-12439
▁prev	-12440
entieth	-12441
▁orange	-12442
▁tox	-12443
▁François	-12444
▁larv	-12445
▁Rachel	-12446
▁drinking	-12447
▁Aberde	-12448
annon	-12449
▁Lancaster	-12450
arta	-12451
▁friendship	-12452
Cent	-12453
ku	-12454
Hung	-12455
%),	-12456
five	-12457
stadt	-12458
▁Lodge	-12459
▁Others	-12460
iership	-12461
▁civilians	-12462
▁northeastern	-12463
▁Nass	-12464
▁Ludwig	-12465
ulnerable	-12466
▁Um	-12467
▁rowspan	-12468
▁Cav	-12469
inted	-12470
atum	-12471
▁memb	-12472
▁mythology	-12473
optera	-12474
▁Chase	-12475
▁poison	-12476
oya	-12477
ilion	-12478
▁Orlando	-12479
group	-12480
iscal	-12481
▁Animal	-12482
cfc	-12483
▁tact	-12484
ieties	-12485
▁Rican	-12486
▁soph	-12487
▁Edgar	-12488
▁predominantly	-12489
astics	-12490
▁Hern	-12491
▁Lynn	-12492
legraph	-12493
▁failing	-12494
role	-12495
▁Dund	-12496
iatric	-12497
rington	-12498
rows	-12499
shore	-12500
▁oblig	-12501
▁Plymouth	-12502
▁Documentary	-12503
▁Sent	-12504
▁interpre	-12505
▁associations	-12506
▁mainstream	-12507
▁Mater	-12508
cio	-12509
▁Sed	-12510
▁gift	-12511
▁repeat	-12512
sted	-12513
ellation	-12514
▁gathered	-12515
▁Madagascar	-12516
activated	-12517
▁interaction	-12518
▁Mom	-12519
▁nit	-12520
▁assum	-12521
▁Physics	-12522
live	-12523
▁accum	-12524
▁Sacram	-12525
▁southwestern	-12526
▁Reds	-12527
▁orth	-12528
▁theories	-12529
recht	-12530
adal	-12531
▁Hab	-12532
▁Warriors	-12533
▁Ferg	-12534
▁register	-12535
▁Brighton	-12536
▁affiliate	-12537
▁favorite	-12538
▁citing	-12539
▁exactly	-12540
▁Wit	-12541
▁emphasis	-12542
about	-12543
tense	-12544
quartered	-12545
▁Lithuanian	-12546
OW	-12547
founder	-12548
▁Producer	-12549
▁Doll	-12550
intendent	-12551
▁Wednes	-12552
▁highways	-12553
ouns	-12554
▁Basin	-12555
▁founders	-12556
▁sovereign	-12557
onny	-12558
hurst	-12559
▁recruited	-12560
▁philanthrop	-12561
▁Kw	-12562
▁Roads	-12563
▁abund	-12564
zhou	-12565
▁larvae	-12566
iston	-12567
▁numbered	-12568
▁Chelsea	-12569
▁AL	-12570
▁Gir	-12571
▁Ski	-12572
▁Lomb	-12573
▁namely	-12574
▁Milton	-12575
▁celebration	-12576
woman	-12577
▁fifty	-12578
▁supplement	-12579
▁comedian	-12580
▁efficiency	-12581
▁Statistical	-12582
▁arrive	-12583
onomic	-12584
▁teeth	-12585
▁Sisters	-12586
▁Lyon	-12587
▁input	-12588
empl	-12589
umm	-12590
core	-12591
▁cow	-12592
▁feud	-12593
▁jail	-12594
▁Saxony	-12595
▁concurr	-12596
aping	-12597
oting	-12598
▁receiver	-12599
ocent	-12600
▁enemies	-12601
▁tone	-12602
▁happy	-12603
▁kings	-12604
▁experiments	-12605
UN	-12606
built	-12607
amation	-12608
▁Canyon	-12609
▁memoir	-12610
▁transit	-12611
▁Link	-12612
▁endors	-12613
▁seemed	-12614
quest	-12615
fast	-12616
ño	-12617
▁answ	-12618
▁punk	-12619
▁Ferdinand	-12620
▁Protected	-12621
▁nearest	-12622
▁libraries	-12623
▁elabor	-12624
▁True	-12625
▁Tales	-12626
▁Caroline	-12627
▁sustained	-12628
▁Journ	-12629
▁radar	-12630
▁corruption	-12631
http	-12632
▁HIV	-12633
olar	-12634
▁Adventures	-12635
▁"[	-12636
▁ash	-12637
▁disturb	-12638
eff	-12639
fight	-12640
▁frog	-12641
▁segments	-12642
)-	-12643
▁Kumar	-12644
▁Fest	-12645
▁Browns	-12646
▁Patric	-12647
▁ratings	-12648
▁bears	-12649
colm	-12650
adh	-12651
bet	-12652
istle	-12653
▁Emmy	-12654
▁Cameroon	-12655
▁Malaysian	-12656
▁Louisville	-12657
▁Monroe	-12658
▁Primera	-12659
▁pushed	-12660
▁AFL	-12661
▁Ming	-12662
▁explan	-12663
▁worker	-12664
▁amounts	-12665
▁refugees	-12666
▁abilities	-12667
▁compounds	-12668
adia	-12669
▁valuable	-12670
▁honours	-12671
▁chore	-12672
▁indicating	-12673
iary	-12674
onduct	-12675
▁Estonian	-12676
▁Kom	-12677
▁Guards	-12678
▁payment	-12679
▁sciences	-12680
orey	-12681
building	-12682
▁hyper	-12683
▁queen	-12684
▁lad	-12685
avery	-12686
▁Macedonia	-12687
▁Kot	-12688
▁chorus	-12689
▁generals	-12690
founded	-12691
▁traveling	-12692
▁Spider	-12693
▁Crystal	-12694
hey	-12695
ilda	-12696
▁Algeria	-12697
made	-12698
▁ast	-12699
▁Karen	-12700
▁drove	-12701
▁Marian	-12702
cr	-12703
speaking	-12704
▁explicit	-12705
▁assessment	-12706
▁Lords	-12707
▁patri	-12708
▁beaten	-12709
▁Bolivia	-12710
▁mainland	-12711
GC	-12712
ovi	-12713
▁Squ	-12714
▁exit	-12715
▁dialogue	-12716
▁Malta	-12717
▁aspect	-12718
Dr	-12719
She	-12720
ahu	-12721
▁Legislature	-12722
▁warfare	-12723
that	-12724
▁Braves	-12725
▁subspecies	-12726
▁Teh	-12727
▁Ley	-12728
▁Jesse	-12729
▁Indigenous	-12730
mal	-12731
chel	-12732
▁physic	-12733
▁philosopher	-12734
apa	-12735
▁Hood	-12736
▁Halifax	-12737
▁deck	-12738
▁communist	-12739
▁proof	-12740
green	-12741
▁grid	-12742
▁Wander	-12743
▁Kaw	-12744
▁Estate	-12745
▁apprec	-12746
books	-12747
▁Universe	-12748
▁prisoner	-12749
SI	-12750
Black	-12751
▁shipping	-12752
▁Agricultural	-12753
▁Muk	-12754
atories	-12755
▁reforms	-12756
▁detail	-12757
▁Rolling	-12758
▁RT	-12759
▁abstr	-12760
izard	-12761
▁André	-12762
▁Pool	-12763
irie	-12764
▁feeling	-12765
▁Recre	-12766
▁graduation	-12767
▁Ž	-12768
aea	-12769
football	-12770
▁Bavaria	-12771
▁Advisory	-12772
▁ov	-12773
▁Spect	-12774
▁retain	-12775
xi	-12776
uline	-12777
she	-12778
arts	-12779
hart	-12780
oces	-12781
stock	-12782
▁recipients	-12783
▁Mé	-12784
▁Thr	-12785
▁load	-12786
▁stationed	-12787
▁Mixed	-12788
alli	-12789
▁shield	-12790
▁Trip	-12791
nal	-12792
▁Qing	-12793
▁counsel	-12794
▁MLB	-12795
▁bone	-12796
esch	-12797
ccffcc	-12798
common	-12799
hou	-12800
▁surnames	-12801
▁referring	-12802
▁Ig	-12803
etown	-12804
▁Against	-12805
USA	-12806
▁comments	-12807
▁renowned	-12808
▁artificial	-12809
▁Bj	-12810
▁Pract	-12811
▁Honorary	-12812
▁impossible	-12813
lip	-12814
▁thirteen	-12815
▁automatic	-12816
▁Virt	-12817
▁deter	-12818
▁tram	-12819
▁psychology	-12820
▁Host	-12821
▁habitats	-12822
▁chest	-12823
▁developments	-12824
▁Syrac	-12825
mant	-12826
▁drain	-12827
▁flour	-12828
iche	-12829
▁cutting	-12830
World	-12831
▁Plaza	-12832
▁Canton	-12833
Europ	-12834
▁thereby	-12835
▁Dew	-12836
idance	-12837
▁Lav	-12838
▁Fraser	-12839
▁manages	-12840
▁indoor	-12841
▁Spl	-12842
▁SM	-12843
▁Principal	-12844
▁Regulations	-12845
London	-12846
▁moist	-12847
▁molecular	-12848
▁Publishers	-12849
▁Access	-12850
▁Chemical	-12851
▁maintaining	-12852
▁engagement	-12853
bery	-12854
▁gap	-12855
▁Gibb	-12856
▁aware	-12857
▁entertain	-12858
▁solutions	-12859
oprano	-12860
▁Paper	-12861
▁snail	-12862
▁Rabbi	-12863
▁aims	-12864
▁reward	-12865
▁triple	-12866
whe	-12867
▁IBM	-12868
▁breaks	-12869
▁professionals	-12870
quiry	-12871
▁Champ	-12872
icul	-12873
▁farms	-12874
▁empire	-12875
▁Stakes	-12876
▁poster	-12877
▁bachelor	-12878
▁extending	-12879
▁Various	-12880
cu	-12881
mail	-12882
▁Cyp	-12883
▁eventual	-12884
▁Counties	-12885
▁aerial	-12886
▁milk	-12887
▁patent	-12888
▁Ethiopia	-12889
▁commentary	-12890
▁Lip	-12891
▁Barnes	-12892
▁asking	-12893
▁Kenny	-12894
▁export	-12895
irth	-12896
▁revival	-12897
pton	-12898
▁Rib	-12899
▁memor	-12900
▁coins	-12901
▁theatrical	-12902
cock	-12903
▁Cubs	-12904
▁Nuclear	-12905
▁survivors	-12906
▁dancing	-12907
vy	-12908
imi	-12909
oyle	-12910
▁motorcycle	-12911
aws	-12912
▁Spac	-12913
▁Arctic	-12914
▁imprisonment	-12915
▁verse	-12916
▁permanently	-12917
▁Knox	-12918
▁governing	-12919
▁achievements	-12920
▁congressional	-12921
pit	-12922
▁grap	-12923
▁Hack	-12924
atriates	-12925
▁sending	-12926
▁judicial	-12927
▁Learning	-12928
▁dancer	-12929
▁preserve	-12930
ilus	-12931
chief	-12932
▁Electronic	-12933
▁presents	-12934
▁printing	-12935
▁Constantin	-12936
▁Malcolm	-12937
▁consumer	-12938
▁worn	-12939
▁aster	-12940
▁allegedly	-12941
mitt	-12942
▁wasn	-12943
piracy	-12944
▁Jamie	-12945
▁telephone	-12946
ablo	-12947
▁Bever	-12948
▁posts	-12949
▁colonies	-12950
aram	-12951
esis	-12952
umph	-12953
née	-12954
brev	-12955
▁Mob	-12956
▁Jeremy	-12957
▁Morrison	-12958
▁restrictions	-12959
▁Uruguay	-12960
▁tornado	-12961
▁picks	-12962
▁HC	-12963
▁fame	-12964
▁Syracuse	-12965
▁Lay	-12966
▁tape	-12967
▁Prof	-12968
▁Chiefs	-12969
▁NAT	-12970
▁Dodgers	-12971
▁wal	-12972
▁fisher	-12973
▁accommodate	-12974
uros	-12975
▁hardware	-12976
▁essentially	-12977
server	-12978
▁Senators	-12979
▁behaviour	-12980
record	-12981
rier	-12982
▁Santos	-12983
▁Emil	-12984
▁Kann	-12985
▁putting	-12986
▁shorter	-12987
▁Reynolds	-12988
▁employee	-12989
▁improvement	-12990
▁Ulster	-12991
▁sick	-12992
▁observation	-12993
Big	-12994
▁doctors	-12995
▁Examples	-12996
SE	-12997
Brien	-12998
lette	-12999
ipher	-13000
▁Emma	-13001
▁Hoff	-13002
▁firing	-13003
▁Led	-13004
▁Reid	-13005
▁McDonald	-13006
▁interface	-13007
▁Riv	-13008
▁faces	-13009
fbb	-13010
hero	-13011
▁Carlo	-13012
▁vow	-13013
▁Andrea	-13014
du	-13015
su	-13016
▁Param	-13017
▁Wesley	-13018
▁Burns	-13019
NP	-13020
▁Iz	-13021
isto	-13022
▁Rhine	-13023
▁performers	-13024
▁immigration	-13025
▁Letters	-13026
▁Peg	-13027
▁beet	-13028
▁Nevertheless	-13029
eur	-13030
▁orb	-13031
▁flash	-13032
▁ghost	-13033
sterious	-13034
▁forcing	-13035
▁Electoral	-13036
▁Istanbul	-13037
].	-13038
estrian	-13039
▁willing	-13040
▁Kazakhstan	-13041
▁Pu	-13042
ometown	-13043
▁tissue	-13044
▁presenter	-13045
oche	-13046
▁traff	-13047
▁fallen	-13048
▁Suffolk	-13049
▁missile	-13050
ès	-13051
ighthouse	-13052
▁underwent	-13053
phan	-13054
akk	-13055
▁fabric	-13056
bey	-13057
gebra	-13058
▁None	-13059
▁www	-13060
▁Capitol	-13061
▁cultures	-13062
▁Fen	-13063
▁computers	-13064
ocaust	-13065
▁colleagues	-13066
▁Sabha	-13067
▁shots	-13068
▁explain	-13069
▁Physical	-13070
▁Gymn	-13071
▁warning	-13072
▁Lucy	-13073
Af	-13074
▁Maid	-13075
▁afternoon	-13076
▁allegations	-13077
▁Burke	-13078
▁oxygen	-13079
▁Brent	-13080
▁ele	-13081
▁manip	-13082
uga	-13083
▁Lah	-13084
▁Manor	-13085
▁argues	-13086
▁borrow	-13087
axy	-13088
▁Ji	-13089
avid	-13090
▁knee	-13091
▁prepare	-13092
GO	-13093
▁Marco	-13094
▁Strat	-13095
▁displays	-13096
▁Retrieved	-13097
ipeg	-13098
▁voiced	-13099
▁Arsenal	-13100
▁Seoul	-13101
▁concepts	-13102
▁Bend	-13103
▁cotton	-13104
▁handed	-13105
▁warri	-13106
▁Marcel	-13107
▁cad	-13108
icular	-13109
▁Bundesliga	-13110
▁Bord	-13111
non	-13112
rev	-13113
▁Rhe	-13114
ataka	-13115
▁Inspector	-13116
▁sailing	-13117
▁unions	-13118
▁Lil	-13119
▁firms	-13120
▁Recordings	-13121
üb	-13122
▁Kitt	-13123
bas	-13124
▁familiar	-13125
▁succession	-13126
▁tag	-13127
igate	-13128
▁forth	-13129
▁client	-13130
imon	-13131
clesiast	-13132
▁María	-13133
▁kills	-13134
▁Wolver	-13135
▁hybrid	-13136
▁operators	-13137
kinson	-13138
▁Birth	-13139
▁Wagner	-13140
▁plates	-13141
▁calendar	-13142
▁Mamm	-13143
▁Level	-13144
▁Uz	-13145
Will	-13146
bian	-13147
enheim	-13148
Christ	-13149
▁Located	-13150
▁binding	-13151
▁councill	-13152
untary	-13153
▁passion	-13154
▁signals	-13155
gart	-13156
ctica	-13157
▁convinced	-13158
▁Vit	-13159
▁Hits	-13160
▁rebellion	-13161
▁tip	-13162
▁Body	-13163
▁Martha	-13164
Se	-13165
▁streak	-13166
▁Semi	-13167
▁Elliott	-13168
anz	-13169
▁Singer	-13170
▁Search	-13171
▁graphic	-13172
▁prototype	-13173
▁Providence	-13174
urel	-13175
▁towers	-13176
▁Amendment	-13177
▁Dayton	-13178
▁Fantasy	-13179
▁challenged	-13180
DI	-13181
anca	-13182
▁Kang	-13183
▁overlo	-13184
UP	-13185
sized	-13186
▁analog	-13187
▁actively	-13188
▁Brom	-13189
▁endings	-13190
▁Americas	-13191
▁manuscripts	-13192
razy	-13193
▁Hayes	-13194
▁Republicans	-13195
utz	-13196
▁ferry	-13197
produced	-13198
▁administrator	-13199
▁clients	-13200
▁Beyond	-13201
author	-13202
▁Grammar	-13203
▁Steph	-13204
▁baron	-13205
▁entries	-13206
▁Wins	-13207
▁Gustav	-13208
▁Naples	-13209
▁universe	-13210
▁inhabited	-13211
▁obl	-13212
▁stored	-13213
▁Charter	-13214
▁Hugo	-13215
▁Stra	-13216
▁comprising	-13217
esa	-13218
▁intern	-13219
▁Scholars	-13220
▁presentation	-13221
▁bars	-13222
▁Johns	-13223
▁Kö	-13224
▁Mats	-13225
▁fourteen	-13226
▁AA	-13227
unners	-13228
▁Batman	-13229
▁Plants	-13230
▁lawsuit	-13231
▁Liberation	-13232
▁pupils	-13233
▁integration	-13234
nez	-13235
▁Budapest	-13236
▁reflected	-13237
▁laboratory	-13238
NR	-13239
uto	-13240
▁Ballet	-13241
▁WA	-13242
ennium	-13243
▁confused	-13244
KA	-13245
techn	-13246
▁focusing	-13247
▁nationally	-13248
alties	-13249
,”	-13250
▁guards	-13251
▁diplomat	-13252
▁Pall	-13253
▁Ministers	-13254
▁transform	-13255
▁procedures	-13256
▁Ti	-13257
▁soc	-13258
▁streams	-13259
bin	-13260
▁severely	-13261
▁executives	-13262
▁conferences	-13263
▁loyal	-13264
▁maintains	-13265
Family	-13266
aceous	-13267
▁sculptures	-13268
▁lights	-13269
munition	-13270
▁specialist	-13271
gio	-13272
grand	-13273
▁cant	-13274
▁afford	-13275
etr	-13276
▁coffee	-13277
▁volunteer	-13278
▁Dow	-13279
▁Kind	-13280
▁parishes	-13281
▁Excell	-13282
▁crashed	-13283
▁autob	-13284
▁trouble	-13285
▁Ein	-13286
France	-13287
▁Latvia	-13288
icycle	-13289
▁surrender	-13290
▁investigate	-13291
arin	-13292
▁Julie	-13293
ographies	-13294
EF	-13295
▁Ellen	-13296
▁dispers	-13297
▁Tow	-13298
▁dict	-13299
▁Winnipeg	-13300
assic	-13301
▁USSR	-13302
▁editorial	-13303
▁Blu	-13304
▁Darl	-13305
▁Montenegro	-13306
▁expatriates	-13307
▁Adj	-13308
▁statements	-13309
▁legit	-13310
▁Dud	-13311
diocese	-13312
▁Utt	-13313
▁Foss	-13314
▁Globe	-13315
▁Crawford	-13316
▁headquartered	-13317
▁tube	-13318
icester	-13319
▁graphics	-13320
▁Cod	-13321
▁sunk	-13322
ipedia	-13323
▁holiday	-13324
▁brings	-13325
▁progressive	-13326
olith	-13327
▁generations	-13328
▁independently	-13329
▁contribute	-13330
▁provisions	-13331
lies	-13332
eapolis	-13333
▁conscious	-13334
aines	-13335
▁flora	-13336
▁burial	-13337
▁conflicts	-13338
▁Feder	-13339
html	-13340
▁Gem	-13341
vironments	-13342
When	-13343
▁orbit	-13344
▁Bea	-13345
▁sweet	-13346
▁Directors	-13347
▁UFC	-13348
▁scandal	-13349
▁Activ	-13350
▁opens	-13351
▁fortress	-13352
▁boards	-13353
▁experts	-13354
foundland	-13355
▁Presidential	-13356
▁ask	-13357
▁VIII	-13358
▁tasks	-13359
▁Geneva	-13360
▁Dong	-13361
▁variations	-13362
▁undergraduate	-13363
▁Kend	-13364
▁wish	-13365
▁missionary	-13366
Com	-13367
▁Shore	-13368
agne	-13369
▁fran	-13370
▁handle	-13371
▁situations	-13372
azar	-13373
pring	-13374
▁culmin	-13375
wyn	-13376
asis	-13377
▁Using	-13378
▁Apart	-13379
▁canon	-13380
▁destination	-13381
▁Fant	-13382
▁cuts	-13383
▁vin	-13384
▁empty	-13385
▁NRHP	-13386
▁Lebanese	-13387
▁Hels	-13388
▁Joel	-13389
▁beliefs	-13390
amas	-13391
▁Rout	-13392
▁Belle	-13393
▁Points	-13394
ación	-13395
▁Kids	-13396
▁−	-13397
▁Pere	-13398
▁sixteen	-13399
acket	-13400
▁Lists	-13401
had	-13402
▁Derek	-13403
▁gaining	-13404
hops	-13405
▁Opt	-13406
ople	-13407
iman	-13408
uisine	-13409
▁Ci	-13410
lived	-13411
▁toler	-13412
▁faster	-13413
▁murders	-13414
▁prevented	-13415
▁businesspeople	-13416
▁Moll	-13417
▁Rein	-13418
urrect	-13419
▁Strong	-13420
▁dealing	-13421
▁accurate	-13422
akov	-13423
▁readers	-13424
▁Colombian	-13425
▁Fur	-13426
▁dogs	-13427
▁Applic	-13428
▁permit	-13429
▁wrestler	-13430
▁examination	-13431
▁bout	-13432
▁Claude	-13433
▁citizenship	-13434
▁Amb	-13435
▁horizont	-13436
▁BA	-13437
▁heading	-13438
▁Rica	-13439
▁Sé	-13440
▁craft	-13441
▁Concer	-13442
PM	-13443
nai	-13444
▁instruction	-13445
irus	-13446
north	-13447
▁Pros	-13448
▁engage	-13449
half	-13450
▁sharp	-13451
▁stolen	-13452
▁suspic	-13453
▁Trinidad	-13454
▁confront	-13455
▁intervention	-13456
▁ho	-13457
orient	-13458
▁lifetime	-13459
ód	-13460
▁Zen	-13461
▁Coch	-13462
▁Falk	-13463
▁Visc	-13464
▁alien	-13465
dep	-13466
▁Windsor	-13467
▁Nem	-13468
▁Drum	-13469
▁CH	-13470
▁Cru	-13471
▁Kad	-13472
French	-13473
▁Meh	-13474
istent	-13475
To	-13476
▁Officers	-13477
▁Cos	-13478
▁Recent	-13479
quez	-13480
unal	-13481
▁Worcester	-13482
▁diesel	-13483
vas	-13484
▁Cornell	-13485
▁creates	-13486
gang	-13487
TT	-13488
wi	-13489
leigh	-13490
rific	-13491
▁Seed	-13492
▁codes	-13493
atas	-13494
tons	-13495
▁coc	-13496
▁trio	-13497
▁Photo	-13498
▁Tasmania	-13499
▁dors	-13500
▁Fergus	-13501
▁Southwest	-13502
▁rocket	-13503
iaz	-13504
sites	-13505
▁Cosm	-13506
▁stones	-13507
▁ma	-13508
▁referendum	-13509
▁fossil	-13510
▁ensemble	-13511
▁pond	-13512
▁arena	-13513
▁neighbouring	-13514
▁Steam	-13515
cap	-13516
▁Arms	-13517
▁Grow	-13518
▁waves	-13519
▁insects	-13520
▁Tanzania	-13521
▁ordinary	-13522
▁styl	-13523
lining	-13524
member	-13525
▁package	-13526
▁fewer	-13527
▁Newfoundland	-13528
▁hect	-13529
▁corps	-13530
▁Critics	-13531
gae	-13532
hor	-13533
▁Vat	-13534
▁discrimination	-13535
upe	-13536
adors	-13537
Win	-13538
▁Cand	-13539
▁advocate	-13540
▁perceived	-13541
▁criteria	-13542
▁variants	-13543
▁),	-13544
▁rivals	-13545
▁Napoleon	-13546
▁seized	-13547
▁Gastropods	-13548
▁threats	-13549
▁moderate	-13550
▁seriously	-13551
las	-13552
▁que	-13553
▁helicopter	-13554
dem	-13555
▁Inside	-13556
prises	-13557
▁Murder	-13558
▁surprise	-13559
▁Eve	-13560
▁inscription	-13561
elong	-13562
ormal	-13563
▁dece	-13564
owo	-13565
▁Wick	-13566
Den	-13567
esar	-13568
usters	-13569
▁rainfall	-13570
▁immun	-13571
▁Honour	-13572
ridor	-13573
cover	-13574
▁Moss	-13575
arms	-13576
▁hem	-13577
▁tut	-13578
▁spac	-13579
▁chapters	-13580
upp	-13581
penter	-13582
▁rebels	-13583
amba	-13584
rea	-13585
▁Weather	-13586
▁Cho	-13587
umped	-13588
▁Bohem	-13589
▁Willie	-13590
cats	-13591
▁suspected	-13592
▁prefer	-13593
▁northwestern	-13594
icity	-13595
▁addressed	-13596
tenham	-13597
▁Fan	-13598
▁Colony	-13599
eps	-13600
attery	-13601
cluded	-13602
▁Fresh	-13603
▁steal	-13604
ández	-13605
▁overl	-13606
enzie	-13607
▁swimmers	-13608
▁dependent	-13609
▁missionaries	-13610
▁Eup	-13611
▁floors	-13612
▁pill	-13613
iae	-13614
rs	-13615
▁Gul	-13616
ding	-13617
qual	-13618
owder	-13619
mology	-13620
▁Visual	-13621
▁identification	-13622
▁merc	-13623
imental	-13624
▁Aboriginal	-13625
.).	-13626
▁skill	-13627
▁enlisted	-13628
▁punishment	-13629
imm	-13630
video	-13631
▁Pione	-13632
▁Lars	-13633
tre	-13634
▁Betty	-13635
▁→	-13636
pop	-13637
▁Apollo	-13638
▁circulation	-13639
oye	-13640
missions	-13641
▁interesting	-13642
▁Innov	-13643
▁grants	-13644
▁efficient	-13645
▁encourage	-13646
▁requiring	-13647
uca	-13648
▁Vij	-13649
yg	-13650
▁Charleston	-13651
▁authorized	-13652
▁Sebastian	-13653
▁privately	-13654
▁hind	-13655
▁abbrev	-13656
▁Nobel	-13657
▁Julius	-13658
▁Won	-13659
▁Raiders	-13660
▁prestigious	-13661
idan	-13662
ipzig	-13663
▁Lenn	-13664
amar	-13665
▁Eye	-13666
▁clay	-13667
▁toll	-13668
▁Rocky	-13669
▁Process	-13670
▁handling	-13671
▁Fellowship	-13672
otta	-13673
▁Salem	-13674
▁demanded	-13675
▁Kyle	-13676
▁joins	-13677
▁Strike	-13678
▁Portsmouth	-13679
')	-13680
▁Diana	-13681
▁psychological	-13682
dan	-13683
zed	-13684
▁decrease	-13685
Art	-13686
▁matrix	-13687
▁Adventure	-13688
▁Minneapolis	-13689
▁pregnant	-13690
▁Holocaust	-13691
▁Communication	-13692
▁Logan	-13693
▁Berm	-13694
▁Factory	-13695
gral	-13696
▁findings	-13697
▁diversity	-13698
chron	-13699
▁equation	-13700
▁tale	-13701
▁spokes	-13702
ético	-13703
▁mystery	-13704
▁wrestlers	-13705
▁prof	-13706
chaft	-13707
etics	-13708
▁fract	-13709
ominated	-13710
▁Decision	-13711
▁Medieval	-13712
▁Laf	-13713
▁ruins	-13714
▁tables	-13715
▁radiation	-13716
▁Underg	-13717
▁Jets	-13718
erner	-13719
width	-13720
▁educator	-13721
▁Bulld	-13722
▁ordained	-13723
▁Nin	-13724
▁batting	-13725
▁deliber	-13726
▁transformed	-13727
▁RC	-13728
iggs	-13729
iking	-13730
WR	-13731
▁Style	-13732
isi	-13733
▁designers	-13734
âte	-13735
icism	-13736
▁Solar	-13737
▁colonel	-13738
▁Balk	-13739
▁beam	-13740
phabet	-13741
▁Silva	-13742
▁ow	-13743
ifles	-13744
▁SF	-13745
▁Twin	-13746
▁Theodore	-13747
▁ampl	-13748
▁nest	-13749
North	-13750
▁Nurs	-13751
▁Alpha	-13752
▁quad	-13753
Austral	-13754
▁Choice	-13755
▁Streets	-13756
▁Richards	-13757
tel	-13758
airy	-13759
▁Alleg	-13760
▁lobby	-13761
▁consec	-13762
▁barrel	-13763
▁Fast	-13764
▁Andr	-13765
LE	-13766
plete	-13767
▁Gian	-13768
▁mail	-13769
▁consent	-13770
▁Edwin	-13771
▁destro	-13772
▁Clement	-13773
▁repeatedly	-13774
▁Mathematics	-13775
ogram	-13776
▁Indoor	-13777
▁Agre	-13778
pect	-13779
clesiastical	-13780
▁Terror	-13781
▁Rey	-13782
▁Maxim	-13783
▁elite	-13784
▁Fri	-13785
▁ing	-13786
ashtra	-13787
wen	-13788
artz	-13789
▁Gur	-13790
▁Achievement	-13791
▁Sag	-13792
▁Heinrich	-13793
▁Garc	-13794
▁Integr	-13795
▁guitarists	-13796
iane	-13797
▁oral	-13798
rag	-13799
▁ibn	-13800
▁exile	-13801
alie	-13802
▁divorce	-13803
▁revenge	-13804
▁hole	-13805
▁optim	-13806
▁deposits	-13807
▁Presidents	-13808
PP	-13809
alogue	-13810
▁batted	-13811
ellers	-13812
▁targeted	-13813
▁hometown	-13814
atham	-13815
mount	-13816
▁Seminary	-13817
▁relegation	-13818
▁Wednesday	-13819
Bar	-13820
▁understood	-13821
▁Lub	-13822
▁Ey	-13823
▁Ferry	-13824
▁anchor	-13825
▁servant	-13826
▁girlfriend	-13827
ogg	-13828
▁owns	-13829
▁autumn	-13830
▁intense	-13831
▁tackle	-13832
▁onwards	-13833
▁Phillies	-13834
▁Leicester	-13835
▁('	-13836
▁Institution	-13837
▁ports	-13838
▁ridge	-13839
▁voices	-13840
▁Harbour	-13841
▁Congreg	-13842
▁complement	-13843
eu	-13844
comm	-13845
▁Monument	-13846
▁Paralympic	-13847
▁requirement	-13848
▁ATP	-13849
▁liver	-13850
mart	-13851
▁ber	-13852
▁shelter	-13853
▁commitment	-13854
▁NATO	-13855
roscop	-13856
▁Boris	-13857
▁customer	-13858
▁relatives	-13859
▁Cowboys	-13860
attalions	-13861
Car	-13862
wind	-13863
▁coord	-13864
▁Appeals	-13865
▁reverse	-13866
▁shifted	-13867
▁RA	-13868
ieri	-13869
▁Alexandria	-13870
BN	-13871
▁varies	-13872
▁learns	-13873
▁playwright	-13874
▁Atlas	-13875
▁Cohen	-13876
▁quiet	-13877
▁Sacramento	-13878
▁suggesting	-13879
Gr	-13880
▁Edge	-13881
hausen	-13882
▁Drake	-13883
endered	-13884
▁Dorothy	-13885
abol	-13886
▁Cool	-13887
▁pink	-13888
▁entity	-13889
▁consultant	-13890
▁Kerry	-13891
▁SV	-13892
▁wore	-13893
▁Ole	-13894
▁Bent	-13895
▁lock	-13896
▁Pam	-13897
▁varied	-13898
ylan	-13899
▁Working	-13900
▁chronic	-13901
▁span	-13902
▁posthum	-13903
egal	-13904
▁goddess	-13905
▁Sugar	-13906
▁cir	-13907
oping	-13908
▁Bast	-13909
▁exchang	-13910
▁Nico	-13911
▁recognize	-13912
omotive	-13913
mus	-13914
▁conducting	-13915
▁mansion	-13916
▁mixture	-13917
ega	-13918
▁Store	-13919
▁concentrated	-13920
▁fairly	-13921
▁Solo	-13922
▁Thurs	-13923
stroke	-13924
▁environments	-13925
▁für	-13926
▁separation	-13927
▁Southampton	-13928
▁conjunction	-13929
▁anticip	-13930
▁nationwide	-13931
▁contestants	-13932
▁hier	-13933
ça	-13934
▁Analysis	-13935
▁mentions	-13936
▁upgraded	-13937
▁celebrate	-13938
▁Font	-13939
▁Pars	-13940
▁manual	-13941
▁Mercury	-13942
headed	-13943
▁Blair	-13944
distance	-13945
▁subtropical	-13946
agle	-13947
▁sword	-13948
▁protagonist	-13949
▁Viv	-13950
▁Griffith	-13951
▁similarly	-13952
▁achievement	-13953
▁Archaeological	-13954
rina	-13955
regular	-13956
▁reviewed	-13957
▁Wikipedia	-13958
▁screenwriter	-13959
▁democracy	-13960
▁Guj	-13961
▁Annie	-13962
▁welfare	-13963
estan	-13964
▁vegetation	-13965
▁perpet	-13966
MD	-13967
▁Mant	-13968
arag	-13969
▁ITV	-13970
▁Yemen	-13971
wait	-13972
▁Things	-13973
▁survival	-13974
ritz	-13975
▁Hyp	-13976
▁Housing	-13977
bad	-13978
▁Rosa	-13979
▁brew	-13980
▁disappeared	-13981
▁ni	-13982
▁Amphib	-13983
ennes	-13984
▁invented	-13985
▁Aleks	-13986
expected	-13987
▁preservation	-13988
▁inject	-13989
▁Emergency	-13990
▁entrepreneur	-13991
▁Alg	-13992
▁Panthers	-13993
▁handball	-13994
atz	-13995
▁PGA	-13996
Pal	-13997
▁Nicol	-13998
▁airline	-13999
▁privile	-14000
▁Karnataka	-14001
ener	-14002
▁Vall	-14003
▁Sofia	-14004
▁biology	-14005
▁Account	-14006
▁honored	-14007
arium	-14008
▁obsc	-14009
▁promised	-14010
▁developer	-14011
▁Isab	-14012
▁rede	-14013
▁deals	-14014
▁Ś	-14015
▁Flag	-14016
▁exha	-14017
▁Did	-14018
inned	-14019
▁exterior	-14020
▁realized	-14021
▁Antarctica	-14022
▁potentially	-14023
insk	-14024
▁noise	-14025
▁restore	-14026
roat	-14027
▁Cock	-14028
▁Sylv	-14029
iploma	-14030
▁Greene	-14031
▁shrub	-14032
leen	-14033
▁Speaker	-14034
yards	-14035
clusive	-14036
rations	-14037
▁estates	-14038
▁Superior	-14039
▁magnetic	-14040
▁improving	-14041
▁Pharm	-14042
▁mutual	-14043
▁varieties	-14044
▁curriculum	-14045
▁renovated	-14046
SF	-14047
grim	-14048
▁remembered	-14049
▁Johnston	-14050
ordinary	-14051
▁lie	-14052
▁advertis	-14053
▁transmit	-14054
enic	-14055
▁endangered	-14056
acking	-14057
▁Dry	-14058
itory	-14059
▁cens	-14060
titled	-14061
ов	-14062
▁Being	-14063
▁los	-14064
▁renewed	-14065
print	-14066
▁mineral	-14067
▁oct	-14068
▁prey	-14069
▁Waters	-14070
▁artif	-14071
asted	-14072
▁announcement	-14073
▁RBI	-14074
▁Aberdeen	-14075
▁farmer	-14076
uate	-14077
ulsion	-14078
oline	-14079
▁Telugu	-14080
rove	-14081
▁Sit	-14082
▁Sleep	-14083
▁activated	-14084
▁SK	-14085
▁haz	-14086
▁lig	-14087
▁expanding	-14088
chus	-14089
▁Sard	-14090
▁Wei	-14091
rium	-14092
▁Khal	-14093
▁Sister	-14094
▁Ernst	-14095
▁transported	-14096
▁manor	-14097
▁Edu	-14098
▁Papua	-14099
▁registration	-14100
▁sheep	-14101
▁staged	-14102
▁Koch	-14103
▁wreck	-14104
▁Besides	-14105
▁Winc	-14106
Mal	-14107
▁investors	-14108
▁wait	-14109
Brit	-14110
ffici	-14111
arte	-14112
▁counted	-14113
▁lighting	-14114
▁Bergen	-14115
▁rebuild	-14116
▁infection	-14117
▁Wis	-14118
▁nobility	-14119
▁WC	-14120
▁cataly	-14121
▁praise	-14122
Do	-14123
▁noting	-14124
▁danger	-14125
▁universal	-14126
▁pub	-14127
▁Sporting	-14128
▁Francesco	-14129
Conn	-14130
▁IL	-14131
▁enable	-14132
▁monuments	-14133
▁Roth	-14134
▁topped	-14135
▁withdrawn	-14136
▁Make	-14137
▁lineup	-14138
umen	-14139
▁bypass	-14140
▁signature	-14141
three	-14142
GN	-14143
best	-14144
There	-14145
ampire	-14146
▁rent	-14147
▁closest	-14148
▁attraction	-14149
▁deriv	-14150
▁Pret	-14151
▁guidance	-14152
arde	-14153
▁Cul	-14154
▁polo	-14155
▁auction	-14156
▁storyline	-14157
▁explosion	-14158
▁Impact	-14159
▁Newman	-14160
Rep	-14161
▁Fuj	-14162
▁maid	-14163
▁adjust	-14164
▁Founded	-14165
hya	-14166
▁doubt	-14167
▁pitchers	-14168
▁Veh	-14169
▁rid	-14170
▁encountered	-14171
cepts	-14172
▁Rever	-14173
stage	-14174
▁enabled	-14175
▁Leadership	-14176
veloped	-14177
mile	-14178
ochem	-14179
▁statistical	-14180
▁Jacksonville	-14181
▁runway	-14182
communications	-14183
▁Ned	-14184
ocity	-14185
▁Gospel	-14186
▁Marines	-14187
▁od	-14188
urai	-14189
aque	-14190
▁Raja	-14191
▁Vick	-14192
▁Adolf	-14193
oat	-14194
▁Elev	-14195
▁stability	-14196
ersh	-14197
▁Use	-14198
orne	-14199
▁interact	-14200
▁Depression	-14201
idea	-14202
▁Lynch	-14203
▁NASCAR	-14204
alla	-14205
mans	-14206
▁Autom	-14207
▁Atlético	-14208
jin	-14209
▁fluid	-14210
▁Chronicle	-14211
▁renovation	-14212
▁revolutionary	-14213
both	-14214
▁Niel	-14215
▁multip	-14216
▁theolog	-14217
▁Chal	-14218
▁shallow	-14219
▁Twitter	-14220
▁torpedo	-14221
auf	-14222
▁Mail	-14223
ako	-14224
▁rapper	-14225
MT	-14226
▁shaped	-14227
▁algorithm	-14228
▁Rosen	-14229
▁striking	-14230
▁personally	-14231
fold	-14232
▁Hert	-14233
▁Agu	-14234
▁intermediate	-14235
▁Vernon	-14236
▁Graduate	-14237
▁Wid	-14238
▁Celebr	-14239
osc	-14240
▁Bren	-14241
▁sid	-14242
▁finale	-14243
▁Baldwin	-14244
▁Constitutional	-14245
▁absent	-14246
▁monitoring	-14247
▁Stefan	-14248
▁verte	-14249
Sec	-14250
▁Adult	-14251
enza	-14252
▁naming	-14253
▁Jake	-14254
▁Bengali	-14255
▁Dynasty	-14256
▁Victory	-14257
▁drawings	-14258
▁exploration	-14259
nie	-14260
oding	-14261
▁indeed	-14262
▁Islander	-14263
▁governed	-14264
▁Tank	-14265
▁Have	-14266
▁Gav	-14267
▁banking	-14268
▁bassist	-14269
▁translator	-14270
HE	-14271
midt	-14272
▁Cumberland	-14273
unted	-14274
linary	-14275
▁Guatemala	-14276
▁Ultimate	-14277
▁u	-14278
unar	-14279
▁Tul	-14280
▁hub	-14281
▁Mets	-14282
▁Ladies	-14283
▁Dawn	-14284
▁Built	-14285
▁Thames	-14286
▁Progressive	-14287
Me	-14288
▁Bruno	-14289
▁Randy	-14290
bred	-14291
arted	-14292
▁Sacred	-14293
▁romance	-14294
Jew	-14295
berger	-14296
▁dramat	-14297
▁Gross	-14298
▁referee	-14299
Te	-14300
government	-14301
ikes	-14302
agogue	-14303
▁Walsh	-14304
▁Mā	-14305
▁Baroque	-14306
▁Journey	-14307
▁Leipzig	-14308
▁hung	-14309
▁Berry	-14310
▁rivalry	-14311
▁migration	-14312
▁skull	-14313
ís	-14314
uttle	-14315
▁Eyes	-14316
▁KC	-14317
affe	-14318
▁Norton	-14319
▁Recreation	-14320
▁LC	-14321
▁Pom	-14322
Roman	-14323
▁Meyer	-14324
▁reass	-14325
▁Speedway	-14326
▁altar	-14327
onc	-14328
▁Guest	-14329
▁FBI	-14330
▁Reb	-14331
rella	-14332
▁Names	-14333
▁Vision	-14334
▁killer	-14335
▁OS	-14336
▁Lit	-14337
▁offense	-14338
WC	-14339
opol	-14340
▁Title	-14341
▁territorial	-14342
▁merely	-14343
▁Suk	-14344
▁journalism	-14345
▁personalities	-14346
appa	-14347
▁altered	-14348
eros	-14349
pense	-14350
▁Than	-14351
▁boxer	-14352
▁sacrif	-14353
racted	-14354
▁Alternative	-14355
▁butterfly	-14356
egie	-14357
▁Appl	-14358
▁Leaf	-14359
▁medall	-14360
▁suddenly	-14361
▁Moses	-14362
ević	-14363
ithe	-14364
▁const	-14365
▁Published	-14366
▁Border	-14367
▁reconstruction	-14368
arded	-14369
▁Word	-14370
cor	-14371
verted	-14372
▁stroke	-14373
▁Hok	-14374
church	-14375
▁denomin	-14376
▁knows	-14377
▁sew	-14378
▁Yuk	-14379
▁audiences	-14380
▁push	-14381
▁flown	-14382
▁dubbed	-14383
▁muscle	-14384
▁stretch	-14385
took	-14386
▁performer	-14387
▁considering	-14388
▁Mile	-14389
AAF	-14390
▁tenor	-14391
▁Smart	-14392
▁Janeiro	-14393
iblings	-14394
▁deeply	-14395
▁Bee	-14396
▁hoped	-14397
▁furniture	-14398
▁Grass	-14399
plane	-14400
▁Brandon	-14401
▁reveal	-14402
imensions	-14403
agic	-14404
ipur	-14405
lass	-14406
▁vacc	-14407
▁copyright	-14408
▁Cairo	-14409
▁diamond	-14410
ayers	-14411
phant	-14412
▁assignment	-14413
anan	-14414
engers	-14415
▁compensation	-14416
▁disorders	-14417
▁AN	-14418
▁militia	-14419
▁ammunition	-14420
▁Anto	-14421
▁Date	-14422
▁acceler	-14423
▁Et	-14424
uting	-14425
▁sequences	-14426
acker	-14427
▁devast	-14428
▁followers	-14429
▁carved	-14430
▁dancers	-14431
▁electro	-14432
▁Hort	-14433
▁pump	-14434
▁trumpet	-14435
▁massacre	-14436
ilee	-14437
seat	-14438
▁Baltic	-14439
▁Potter	-14440
ophon	-14441
▁Omaha	-14442
▁Rafael	-14443
▁consort	-14444
▁Articles	-14445
▁Yosh	-14446
▁utility	-14447
esp	-14448
▁Volleyball	-14449
GP	-14450
▁oak	-14451
▁cock	-14452
▁forb	-14453
▁prosper	-14454
▁Generation	-14455
▁Bishops	-14456
utter	-14457
▁heter	-14458
▁arbit	-14459
▁Enterprise	-14460
▁drag	-14461
▁shed	-14462
▁Industries	-14463
▁Summit	-14464
▁Cay	-14465
▁lung	-14466
▁Heroes	-14467
▁Sergeant	-14468
ulates	-14469
▁Happy	-14470
▁declar	-14471
▁occasional	-14472
▁refuses	-14473
closed	-14474
▁symbols	-14475
loss	-14476
ska	-14477
elyn	-14478
▁Cover	-14479
▁Boeing	-14480
sl	-14481
anus	-14482
▁literally	-14483
▁eighteen	-14484
opt	-14485
▁Roberto	-14486
rio	-14487
▁analyst	-14488
zan	-14489
▁theology	-14490
▁dying	-14491
▁Quartet	-14492
ono	-14493
▁Cash	-14494
▁Kosovo	-14495
▁vinyl	-14496
▁imposed	-14497
▁pursued	-14498
▁fate	-14499
▁pastor	-14500
LS	-14501
▁Qatar	-14502
rí	-14503
▁Baden	-14504
otten	-14505
▁rotation	-14506
▁Cros	-14507
iade	-14508
▁preliminary	-14509
▁kin	-14510
▁Drew	-14511
▁Jorge	-14512
▁Tracks	-14513
Phil	-14514
▁canton	-14515
▁collecting	-14516
▁semifinals	-14517
▁Pond	-14518
▁Sandy	-14519
▁bankruptcy	-14520
argest	-14521
▁coron	-14522
▁vital	-14523
▁fiscal	-14524
▁messages	-14525
▁automatically	-14526
ses	-14527
▁Landmarks	-14528
▁AI	-14529
▁Rid	-14530
igrant	-14531
screen	-14532
▁practition	-14533
▁Stoke	-14534
▁impressive	-14535
▁constr	-14536
cin	-14537
▁shoulder	-14538
▁wildlife	-14539
lec	-14540
▁Pred	-14541
▁decreased	-14542
ommission	-14543
▁Philharm	-14544
since	-14545
▁hopes	-14546
▁Wer	-14547
anmar	-14548
▁terrain	-14549
▁Sind	-14550
▁cloud	-14551
▁lying	-14552
▁settle	-14553
▁upcoming	-14554
▁Rules	-14555
▁mouse	-14556
▁Prussia	-14557
▁advisor	-14558
SCO	-14559
onte	-14560
▁lectures	-14561
▁emerging	-14562
▁BCE	-14563
bassadors	-14564
▁Ling	-14565
▁Particip	-14566
▁Carnegie	-14567
▁bore	-14568
▁Heavyweight	-14569
▁Graph	-14570
pled	-14571
▁Rup	-14572
evo	-14573
ifa	-14574
othe	-14575
▁Cave	-14576
agreb	-14577
▁--	-14578
▁Kurd	-14579
▁configuration	-14580
ermo	-14581
▁Hardy	-14582
▁tribal	-14583
▁Bridges	-14584
▁interactions	-14585
▁trails	-14586
jud	-14587
▁UA	-14588
oves	-14589
▁bearing	-14590
hammed	-14591
▁Hawks	-14592
▁Poems	-14593
▁Claire	-14594
▁TD	-14595
oning	-14596
▁Greatest	-14597
▁railways	-14598
▁Maharashtra	-14599
▁Nom	-14600
▁Nou	-14601
▁Ras	-14602
Let	-14603
▁Pole	-14604
▁marri	-14605
▁practiced	-14606
▁robot	-14607
▁reactions	-14608
▁Downtown	-14609
▁Georges	-14610
▁magnitude	-14611
kel	-14612
▁thorough	-14613
▁releasing	-14614
▁gray	-14615
▁quoted	-14616
▁Bun	-14617
▁flute	-14618
▁zones	-14619
▁Bullet	-14620
▁Patriots	-14621
▁occurring	-14622
▁Joshua	-14623
▁Myanmar	-14624
▁teammate	-14625
▁Ist	-14626
▁fires	-14627
ych	-14628
encers	-14629
lla	-14630
▁Hank	-14631
rians	-14632
▁Clara	-14633
▁humid	-14634
▁Maxwell	-14635
▁nicknamed	-14636
stop	-14637
▁minimal	-14638
uvian	-14639
▁Patricia	-14640
▁rape	-14641
oco	-14642
olan	-14643
▁String	-14644
▁Griffin	-14645
acular	-14646
▁scorer	-14647
▁hydrogen	-14648
▁Wilm	-14649
▁Concord	-14650
ahr	-14651
▁Webb	-14652
itely	-14653
▁websites	-14654
▁Namib	-14655
▁rounded	-14656
▁Slovenian	-14657
iak	-14658
▁lac	-14659
canic	-14660
▁Xbox	-14661
▁cosm	-14662
▁prayer	-14663
▁thesis	-14664
ellar	-14665
▁bapt	-14666
▁paras	-14667
▁creator	-14668
▁Albion	-14669
▁SE	-14670
inite	-14671
▁symm	-14672
▁panels	-14673
▁Munster	-14674
▁Character	-14675
▁Auto	-14676
▁flooding	-14677
anya	-14678
asaki	-14679
▁Sche	-14680
▁Lob	-14681
▁García	-14682
electric	-14683
dimensional	-14684
urpose	-14685
▁apprent	-14686
lis	-14687
▁skating	-14688
▁Oriental	-14689
eppe	-14690
▁Bio	-14691
▁constantly	-14692
▁legendary	-14693
Ab	-14694
erville	-14695
fb	-14696
▁polar	-14697
▁Bac	-14698
nu	-14699
Ang	-14700
say	-14701
▁(#	-14702
▁accessed	-14703
▁measuring	-14704
▁schem	-14705
▁upset	-14706
▁divorced	-14707
mor	-14708
ocate	-14709
▁slopes	-14710
▁travelling	-14711
zym	-14712
jiang	-14713
▁garn	-14714
▁Kane	-14715
▁unem	-14716
▁Orch	-14717
▁Clare	-14718
▁trend	-14719
▁fragment	-14720
▁Gan	-14721
▁draws	-14722
▁hosting	-14723
▁interim	-14724
▁struggled	-14725
▁comprised	-14726
▁commanding	-14727
has	-14728
▁feels	-14729
▁precip	-14730
▁Swimming	-14731
▁Insurance	-14732
▁cabin	-14733
▁duration	-14734
▁Communities	-14735
fs	-14736
horse	-14737
▁Toledo	-14738
otted	-14739
itative	-14740
▁backed	-14741
▁confidence	-14742
▁corporation	-14743
▁Letter	-14744
▁weaken	-14745
▁Dre	-14746
▁vicinity	-14747
▁delay	-14748
East	-14749
abul	-14750
▁ballet	-14751
▁burning	-14752
omar	-14753
▁Sara	-14754
▁Dylan	-14755
▁strings	-14756
▁talking	-14757
▁Sherman	-14758
▁Reservoir	-14759
onaut	-14760
▁Stern	-14761
▁rally	-14762
ancement	-14763
▁overw	-14764
▁summar	-14765
▁Midlands	-14766
▁treas	-14767
▁acquire	-14768
ologne	-14769
osystem	-14770
▁catalog	-14771
▁acknowledged	-14772
▁generate	-14773
▁phenomenon	-14774
RE	-14775
▁Bagh	-14776
▁Task	-14777
▁della	-14778
onda	-14779
▁lux	-14780
rights	-14781
▁sheet	-14782
apo	-14783
▁Jeffrey	-14784
▁Progress	-14785
▁Chancellor	-14786
blem	-14787
hev	-14788
▁Ath	-14789
▁sits	-14790
▁Mongol	-14791
▁Ident	-14792
▁pig	-14793
▁oxid	-14794
ité	-14795
▁monks	-14796
▁limestone	-14797
▁mysterious	-14798
▁Casey	-14799
▁thrown	-14800
▁theorem	-14801
▁Strategic	-14802
Red	-14803
▁pounds	-14804
▁slavery	-14805
▁Truth	-14806
▁archive	-14807
▁specified	-14808
  	-14809
pora	-14810
iggins	-14811
▁observations	-14812
erse	-14813
▁clothes	-14814
zel	-14815
ustain	-14816
▁senators	-14817
▁Programme	-14818
antom	-14819
polit	-14820
▁Indo	-14821
▁Pain	-14822
fred	-14823
▁Why	-14824
urities	-14825
▁marsh	-14826
ometime	-14827
▁Creative	-14828
ounce	-14829
holder	-14830
epage	-14831
▁Ç	-14832
▁lip	-14833
thel	-14834
▁canoe	-14835
▁chlor	-14836
▁agrees	-14837
▁capabilities	-14838
!,	-14839
▁Teen	-14840
▁troubl	-14841
enary	-14842
▁Keep	-14843
inology	-14844
▁Hurling	-14845
▁UCLA	-14846
▁Scots	-14847
▁stick	-14848
▁Norwich	-14849
▁Gates	-14850
▁bowl	-14851
▁Zagreb	-14852
▁attitude	-14853
▁integral	-14854
uttgart	-14855
▁examin	-14856
mitting	-14857
▁hitting	-14858
▁LLC	-14859
▁broadcaster	-14860
Neill	-14861
▁Quint	-14862
letcher	-14863
▁Sicily	-14864
▁circular	-14865
▁beneath	-14866
▁Chapman	-14867
%).	-14868
▁assassination	-14869
▁laps	-14870
▁grain	-14871
nica	-14872
▁ske	-14873
omal	-14874
▁cleared	-14875
▁wickets	-14876
▁fatal	-14877
▁Architects	-14878
ceph	-14879
▁breed	-14880
▁collapsed	-14881
.-	-14882
uo	-14883
Port	-14884
▁Pied	-14885
▁homosexual	-14886
▁gods	-14887
▁nerv	-14888
owner	-14889
▁reads	-14890
▁Candid	-14891
▁Hartford	-14892
ikk	-14893
▁Beau	-14894
▁cuisine	-14895
ück	-14896
achy	-14897
▁Coron	-14898
▁Felix	-14899
▁fertil	-14900
RO	-14901
▁Agreement	-14902
▁aftermath	-14903
▁Fo	-14904
▁Battery	-14905
empor	-14906
▁Constitu	-14907
▁accomplished	-14908
▁Classification	-14909
▁leng	-14910
char	-14911
▁Deport	-14912
Ital	-14913
Paul	-14914
club	-14915
▁Lon	-14916
▁nominee	-14917
Go	-14918
▁Vish	-14919
▁barr	-14920
▁solely	-14921
▁unve	-14922
▁blocked	-14923
roft	-14924
iformesFamily	-14925
▁Manufacturing	-14926
▁layers	-14927
[...]
