<unk>	0
<s>	0
</s>	0
<0x00>	0
<0x01>	0
<0x02>	0
<0x03>	0
<0x04>	0
<0x05>	0
<0x06>	0
<0x07>	0
<0x08>	0
<0x09>	0
<0x0A>	0
<0x0B>	0
<0x0C>	0
<0x0D>	0
<0x0E>	0
<0x0F>	0
<0x10>	0
<0x11>	0
<0x12>	0
<0x13>	0
<0x14>	0
<0x15>	0
<0x16>	0
<0x17>	0
<0x18>	0
<0x19>	0
<0x1A>	0
<0x1B>	0
<0x1C>	0
<0x1D>	0
<0x1E>	0
<0x1F>	0
<0x20>	0
<0x21>	0
<0x22>	0
<0x23>	0
<0x24>	0
<0x25>	0
<0x26>	0
<0x27>	0
<0x28>	0
<0x29>	0
<0x2A>	0
<0x2B>	0
<0x2C>	0
<0x2D>	0
<0x2E>	0
<0x2F>	0
<0x30>	0
<0x31>	0
<0x32>	0
<0x33>	0
<0x34>	0
<0x35>	0
<0x36>	0
<0x37>	0
<0x38>	0
<0x39>	0
<0x3A>	0
<0x3B>	0
<0x3C>	0
<0x3D>	0
<0x3E>	0
<0x3F>	0
<0x40>	0
<0x41>	0
<0x42>	0
<0x43>	0
<0x44>	0
<0x45>	0
<0x46>	0
<0x47>	0
<0x48>	0
<0x49>	0
<0x4A>	0
<0x4B>	0
<0x4C>	0
<0x4D>	0
<0x4E>	0
<0x4F>	0
<0x50>	0
<0x51>	0
<0x52>	0
<0x53>	0
<0x54>	0
<0x55>	0
<0x56>	0
<0x57>	0
<0x58>	0
<0x59>	0
<0x5A>	0
<0x5B>	0
<0x5C>	0
<0x5D>	0
<0x5E>	0
<0x5F>	0
<0x60>	0
<0x61>	0
<0x62>	0
<0x63>	0
<0x64>	0
<0x65>	0
<0x66>	0
<0x67>	0
<0x68>	0
<0x69>	0
<0x6A>	0
<0x6B>	0
<0x6C>	0
<0x6D>	0
<0x6E>	0
<0x6F>	0
<0x70>	0
<0x71>	0
<0x72>	0
<0x73>	0
<0x74>	0
<0x75>	0
<0x76>	0
<0x77>	0
<0x78>	0
<0x79>	0
<0x7A>	0
<0x7B>	0
<0x7C>	0
<0x7D>	0
<0x7E>	0
<0x7F>	0
<0x80>	0
<0x81>	0
<0x82>	0
<0x83>	0
<0x84>	0
<0x85>	0
<0x86>	0
<0x87>	0
<0x88>	0
<0x89>	0
<0x8A>	0
<0x8B>	0
<0x8C>	0
<0x8D>	0
<0x8E>	0
<0x8F>	0
<0x90>	0
<0x91>	0
<0x92>	0
<0x93>	0
<0x94>	0
<0x95>	0
<0x96>	0
<0x97>	0
<0x98>	0
<0x99>	0
<0x9A>	0
<0x9B>	0
<0x9C>	0
<0x9D>	0
<0x9E>	0
<0x9F>	0
<0xA0>	0
<0xA1>	0
<0xA2>	0
<0xA3>	0
<0xA4>	0
<0xA5>	0
<0xA6>	0
<0xA7>	0
<0xA8>	0
<0xA9>	0
<0xAA>	0
<0xAB>	0
<0xAC>	0
<0xAD>	0
<0xAE>	0
<0xAF>	0
<0xB0>	0
<0xB1>	0
<0xB2>	0
<0xB3>	0
<0xB4>	0
<0xB5>	0
<0xB6>	0
<0xB7>	0
<0xB8>	0
<0xB9>	0
<0xBA>	0
<0xBB>	0
<0xBC>	0
<0xBD>	0
<0xBE>	0
<0xBF>	0
<0xC0>	0
<0xC1>	0
<0xC2>	0
<0xC3>	0
<0xC4>	0
<0xC5>	0
<0xC6>	0
<0xC7>	0
<0xC8>	0
<0xC9>	0
<0xCA>	0
<0xCB>	0
<0xCC>	0
<0xCD>	0
<0xCE>	0
<0xCF>	0
<0xD0>	0
<0xD1>	0
<0xD2>	0
<0xD3>	0
<0xD4>	0
<0xD5>	0
<0xD6>	0
<0xD7>	0
<0xD8>	0
<0xD9>	0
<0xDA>	0
<0xDB>	0
<0xDC>	0
<0xDD>	0
<0xDE>	0
<0xDF>	0
<0xE0>	0
<0xE1>	0
<0xE2>	0
<0xE3>	0
<0xE4>	0
<0xE5>	0
<0xE6>	0
<0xE7>	0
<0xE8>	0
<0xE9>	0
<0xEA>	0
<0xEB>	0
<0xEC>	0
<0xED>	0
<0xEE>	0
<0xEF>	0
<0xF0>	0
<0xF1>	0
<0xF2>	0
<0xF3>	0
<0xF4>	0
<0xF5>	0
<0xF6>	0
<0xF7>	0
<0xF8>	0
<0xF9>	0
<0xFA>	0
<0xFB>	0
<0xFC>	0
<0xFD>	0
<0xFE>	0
<0xFF>	0
▁t	-0
▁a	-1
in	-2
he	-3
on	-4
re	-5
at	-6
er	-7
▁the	-8
en	-9
▁o	-10
▁c	-11
an	-12
▁s	-13
es	-14
al	-15
ed	-16
▁p	-17
it	-18
ion	-19
nd	-20
or	-21
▁in	-22
is	-23
▁of	-24
▁f	-25
▁w	-26
ar	-27
ic	-28
ing	-29
ro	-30
▁and	-31
▁b	-32
▁m	-33
as	-34
▁to	-35
▁d	-36
ent	-37
ct	-38
le	-39
▁e	-40
ou	-41
▁re	-42
st	-43
il	-44
▁h	-45
ation	-46
im	-47
ve	-48
▁th	-49
▁l	-50
om	-51
▁T	-52
ol	-53
▁g	-54
▁C	-55
▁A	-56
ly	-57
▁n	-58
ce	-59
ur	-60
▁S	-61
et	-62
ment	-63
ate	-64
▁is	-65
id	-66
ir	-67
ver	-68
se	-69
▁be	-70
ra	-71
ut	-72
▁for	-73
▁I	-74
▁pro	-75
ul	-76
ch	-77
▁(	-78
▁con	-79
ig	-80
ge	-81
ow	-82
▁The	-83
▁as	-84
▁on	-85
ies	-86
ot	-87
▁that	-88
▁E	-89
▁u	-90
▁st	-91
el	-92
▁P	-93
▁are	-94
▁su	-95
ity	-96
▁de	-97
ter	-98
▁by	-99
▁M	-100
her	-101
du	-102
if	-103
os	-104
th	-105
ith	-106
ad	-107
od	-108
ab	-109
ure	-110
and	-111
▁al	-112
lo	-113
▁en	-114
ect	-115
▁with	-116
est	-117
am	-118
um	-119
nt	-120
ore	-121
▁ex	-122
ist	-123
▁an	-124
em	-125
▁com	-126
▁B	-127
ci	-128
lim	-129
ort	-130
rom	-131
▁or	-132
▁R	-133
▁N	-134
ri	-135
ions	-136
ill	-137
▁ch	-138
▁G	-139
ay	-140
▁from	-141
ain	-142
▁inc	-143
▁wh	-144
limate	-145
▁was	-146
ers	-147
ive	-148
ant	-149
▁D	-150
us	-151
▁F	-152
▁it	-153
ere	-154
qu	-155
ud	-156
ess	-157
▁U	-158
ric	-159
▁In	-160
pp	-161
ld	-162
iv	-163
res	-164
▁H	-165
ater	-166
▁at	-167
ac	-168
ical	-169
ff	-170
▁r	-171
ated	-172
▁W	-173
▁v	-174
▁"	-175
ult	-176
gy	-177
per	-178
ew	-179
ange	-180
▁se	-181
▁ha	-182
pe	-183
rou	-184
▁O	-185
ction	-186
pt	-187
ia	-188
▁climate	-189
ich	-190
▁L	-191
oc	-192
▁pl	-193
▁res	-194
▁le	-195
iron	-196
ast	-197
ear	-198
ations	-199
act	-200
so	-201
▁im	-202
ak	-203
viron	-204
vironment	-205
art	-206
▁he	-207
iss	-208
un	-209
▁co	-210
ther	-211
▁have	-212
▁em	-213
our	-214
igh	-215
able	-216
▁which	-217
ans	-218
ount	-219
▁imp	-220
op	-221
iz	-222
▁has	-223
▁produ	-224
all	-225
▁comp	-226
reas	-227
▁cont	-228
arm	-229
ust	-230
gh	-231
cc	-232
age	-233
og	-234
ine	-235
▁can	-236
ial	-237
red	-238
▁ad	-239
ber	-240
▁change	-241
▁int	-242
▁per	-243
ard	-244
ates	-245
▁sh	-246
▁y	-247
ces	-248
ide	-249
▁ag	-250
▁pol	-251
▁also	-252
ost	-253
ergy	-254
▁J	-255
con	-256
lud	-257
▁not	-258
tern	-259
port	-260
ry	-261
ould	-262
arb	-263
ru	-264
▁wor	-265
ous	-266
ome	-267
▁us	-268
▁ab	-269
▁increas	-270
▁environment	-271
ap	-272
ary	-273
ally	-274
▁water	-275
▁more	-276
ong	-277
▁St	-278
ian	-279
arbon	-280
ific	-281
▁emiss	-282
▁so	-283
ood	-284
end	-285
lob	-286
ural	-287
▁cons	-288
ue	-289
ub	-290
▁eff	-291
▁man	-292
▁includ	-293
ational	-294
ence	-295
▁Un	-296
lop	-297
▁k	-298
▁Th	-299
yst	-300
low	-301
ign	-302
ag	-303
velop	-304
ature	-305
▁their	-306
▁dis	-307
lobal	-308
▁were	-309
).	-310
over	-311
▁ra	-312
ition	-313
▁other	-314
▁Ch	-315
rop	-316
out	-317
▁its	-318
▁year	-319
▁reg	-320
ced	-321
▁emissions	-322
ell	-323
▁been	-324
▁En	-325
ire	-326
▁such	-327
ystem	-328
▁part	-329
▁gas	-330
▁K	-331
▁than	-332
ip	-333
ib	-334
▁me	-335
▁energy	-336
vers	-337
▁comm	-338
lect	-339
ities	-340
),	-341
ens	-342
ance	-343
ass	-344
▁over	-345
▁whe	-346
ding	-347
illion	-348
ited	-349
ace	-350
erv	-351
ight	-352
ks	-353
ang	-354
▁ev	-355
▁Re	-356
▁this	-357
reen	-358
orm	-359
▁count	-360
lic	-361
land	-362
▁ne	-363
gan	-364
▁carbon	-365
▁exp	-366
▁redu	-367
ower	-368
ree	-369
▁develop	-370
ke	-371
ice	-372
rough	-373
ative	-374
▁app	-375
▁rec	-376
ution	-377
conom	-378
vel	-379
oss	-380
te	-381
▁dec	-382
ress	-383
▁lar	-384
ors	-385
rib	-386
ound	-387
▁un	-388
▁environmental	-389
▁pre	-390
ility	-391
▁global	-392
mer	-393
ons	-394
fere	-395
au	-396
les	-397
rans	-398
ricult	-399
overn	-400
uring	-401
▁spe	-402
▁met	-403
olog	-404
ating	-405
av	-406
▁bec	-407
io	-408
emper	-409
ments	-410
▁but	-411
▁This	-412
ject	-413
▁De	-414
ener	-415
cial	-416
we	-417
▁will	-418
▁use	-419
ach	-420
▁As	-421
ile	-422
▁Se	-423
erm	-424
▁sp	-425
ish	-426
▁into	-427
▁fu	-428
emperature	-429
▁ext	-430
nder	-431
arming	-432
row	-433
als	-434
▁Climate	-435
round	-436
orest	-437
ries	-438
ack	-439
▁land	-440
▁acc	-441
▁act	-442
▁effect	-443
▁pe	-444
▁would	-445
▁most	-446
ory	-447
▁impact	-448
ouse	-449
▁temperature	-450
▁tra	-451
cess	-452
ism	-453
hed	-454
ail	-455
▁bet	-456
ents	-457
cy	-458
▁ris	-459
▁sub	-460
▁level	-461
▁It	-462
▁used	-463
own	-464
▁econom	-465
▁tim	-466
▁system	-467
ram	-468
▁we	-469
▁supp	-470
▁trans	-471
▁ar	-472
▁may	-473
▁hum	-474
▁United	-475
▁ac	-476
rit	-477
▁te	-478
▁plant	-479
▁pub	-480
▁they	-481
▁am	-482
one	-483
▁out	-484
▁Pro	-485
are	-486
ph	-487
▁all	-488
▁conc	-489
▁world	-490
any	-491
iod	-492
ef	-493
li	-494
ari	-495
amp	-496
▁about	-497
ert	-498
ove	-499
▁under	-500
ween	-501
▁spec	-502
▁food	-503
▁ro	-504
ark	-505
▁V	-506
▁high	-507
ds	-508
▁agricult	-509
ause	-510
▁ind	-511
▁inf	-512
ased	-513
ivers	-514
▁green	-515
chn	-516
▁sci	-517
▁gener	-518
The	-519
▁govern	-520
▁des	-521
▁li	-522
ake	-523
reat	-524
▁inv	-525
▁had	-526
▁production	-527
▁between	-528
▁years	-529
▁these	-530
aw	-531
ite	-532
▁Ind	-533
▁up	-534
▁million	-535
ame	-536
▁cl	-537
olo	-538
▁stud	-539
▁through	-540
▁countries	-541
▁sur	-542
ral	-543
▁est	-544
ase	-545
▁one	-546
▁prov	-547
ources	-548
atural	-549
▁there	-550
ology	-551
▁organ	-552
int	-553
ough	-554
▁Com	-555
irst	-556
▁j	-557
▁result	-558
▁some	-559
lectric	-560
ose	-561
▁col	-562
▁°	-563
▁report	-564
".	-565
ics	-566
gest	-567
dust	-568
▁sc	-569
uro	-570
▁mod	-571
vi	-572
gen	-573
house	-574
▁sol	-575
▁qu	-576
ulation	-577
alth	-578
▁fuel	-579
ord	-580
▁power	-581
▁new	-582
osp	-583
▁rel	-584
▁Al	-585
▁form	-586
its	-587
ople	-588
▁ca	-589
▁Environment	-590
▁loc	-591
▁cent	-592
▁grow	-593
get	-594
▁dif	-595
ists	-596
ind	-597
▁dep	-598
▁well	-599
▁poll	-600
▁sign	-601
ning	-602
iversity	-603
▁indust	-604
ual	-605
ract	-606
ep	-607
▁Euro	-608
ability	-609
ince	-610
▁first	-611
▁found	-612
▁during	-613
▁increase	-614
▁warming	-615
▁bu	-616
arch	-617
ological	-618
▁ec	-619
ular	-620
▁resp	-621
▁human	-622
▁ma	-623
yc	-624
arth	-625
▁Europe	-626
pl	-627
ever	-628
ane	-629
▁process	-630
ys	-631
ved	-632
▁hy	-633
meric	-634
feren	-635
su	-636
▁air	-637
▁pop	-638
▁many	-639
ici	-640
here	-641
▁meth	-642
▁people	-643
▁polic	-644
▁natural	-645
▁large	-646
▁add	-647
▁vari	-648
▁due	-649
ines	-650
ption	-651
▁lead	-652
ale	-653
▁including	-654
ok	-655
ts	-656
ternational	-657
▁techn	-658
ible	-659
irect	-660
▁areas	-661
▁sust	-662
ied	-663
▁requ	-664
▁Americ	-665
▁sustain	-666
cing	-667
oun	-668
▁greenhouse	-669
."	-670
In	-671
▁ref	-672
▁only	-673
vent	-674
▁product	-675
▁ve	-676
▁do	-677
▁States	-678
oth	-679
▁Con	-680
ne	-681
▁time	-682
ically	-683
▁CO	-684
ob	-685
▁oil	-686
ern	-687
ident	-688
▁chang	-689
ild	-690
▁like	-691
▁An	-692
uc	-693
▁cre	-694
ten	-695
owever	-696
ards	-697
ork	-698
ays	-699
▁species	-700
orth	-701
roup	-702
▁project	-703
▁rem	-704
lu	-705
▁min	-706
▁work	-707
outh	-708
▁tw	-709
▁pres	-710
▁main	-711
ered	-712
▁off	-713
▁ph	-714
me	-715
▁when	-716
fter	-717
ted	-718
▁def	-719
ected	-720
ribut	-721
ade	-722
▁electric	-723
▁New	-724
▁public	-725
▁government	-726
▁cap	-727
gram	-728
▁partic	-729
ished	-730
ruct	-731
▁caus	-732
▁cor	-733
ized	-734
▁consum	-735
very	-736
▁str	-737
▁scient	-738
▁cost	-739
ization	-740
▁Ex	-741
▁development	-742
▁low	-743
▁ann	-744
▁include	-745
▁Ar	-746
CC	-747
▁occ	-748
ices	-749
ex	-750
urre	-751
ll	-752
▁commun	-753
▁could	-754
ather	-755
▁aff	-756
▁farm	-757
▁fe	-758
jor	-759
▁ass	-760
▁long	-761
▁US	-762
▁forest	-763
iel	-764
▁state	-765
▁rese	-766
▁sm	-767
mosp	-768
ined	-769
▁kn	-770
▁Earth	-771
ives	-772
▁pr	-773
ides	-774
▁inst	-775
▁being	-776
▁inter	-777
▁where	-778
▁contin	-779
ov	-780
▁dist	-781
▁increased	-782
hes	-783
▁po	-784
▁sa	-785
▁who	-786
ential	-787
la	-788
▁activ	-789
▁ob	-790
▁appro	-791
hic	-792
ife	-793
uch	-794
ina	-795
▁health	-796
pos	-797
ie	-798
ger	-799
▁hig	-800
cean	-801
▁sea	-802
ures	-803
▁mon	-804
▁major	-805
▁two	-806
ificant	-807
▁–	-808
▁att	-809
ting	-810
▁num	-811
arket	-812
ars	-813
▁prot	-814
▁Res	-815
▁plan	-816
▁import	-817
xide	-818
ality	-819
▁	-820
e	-821
t	-822
a	-823
i	-824
n	-825
o	-826
r	-827
s	-828
l	-829
c	-830
h	-831
d	-832
u	-833
m	-834
f	-835
p	-836
g	-837
y	-838
b	-839
w	-840
,	-841
v	-842
.	-843
0	-844
k	-845
2	-846
C	-847
1	-848
T	-849
A	-850
S	-851
I	-852
x	-853
-	-854
P	-855
E	-856
)	-857
(	-858
M	-859
9	-860
"	-861
N	-862
R	-863
B	-864
D	-865
G	-866
5	-867
F	-868
O	-869
3	-870
z	-871
U	-872
H	-873
'	-874
W	-875
8	-876
q	-877
4	-878
7	-879
6	-880
L	-881
j	-882
:	-883
%	-884
J	-885
K	-886
–	-887
;	-888
V	-889
/	-890
°	-891
$	-892
 	-893
Y	-894
Z	-895
=	-896
—	-897
Q	-898
&	-899
’	-900
]	-901
[	-902
+	-903
X	-904
{	-905
}	-906
\	-907
é	-908
−	-909
“	-910
”	-911
?	-912
ñ	-913
ö	-914
á	-915
‘	-916
~	-917
€	-918
ü	-919
§	-920
ó	-921
í	-922
£	-923
•	-924
×	-925
_	-926
ā	-927
ä	-928
±	-929
!	-930
^	-931
#	-932
⁄	-933
ã	-934
>	-935
 	-936
ø	-937
ç	-938
ı	-939
→	-940
<	-941
·	-942
ú	-943
δ	-944
ş	-945
İ	-946
è	-947
*	-948
|	-949
μ	-950
α	-951
‑	-952
σ	-953
 	-954
ô	-955
ğ	-956
ə	-957
æ	-958
…	-959
ō	-960
Δ	-961
о	-962
λ	-963
ς	-964
ʻ	-965
ˈ	-966
е	-967
ê	-968
и	-969
р	-970
а	-971
ν	-972
ο	-973
É	-974
à	-975
ρ	-976
′	-977
τ	-978
​	-979
≈	-980
Ö	-981
Ş	-982
″	-983
н	-984
₹	-985
ا	-986
²	-987
â	-988
ε	-989
т	-990
‐	-991
š	-992
ό	-993
₂	-994
θ	-995
ι	-996
π	-997
³	-998
ë	-999
κ	-1000
Ü	-1001
å	-1002
с	-1003
µ	-1004
Ç	-1005
ū	-1006
Á	-1007
ē	-1008
ī	-1009
к	-1010
л	-1011
﻿	-1012
ʼ	-1013
ر	-1014
ل	-1015
˚	-1016
̇	-1017
γ	-1018
⋅	-1019
º	-1020
ý	-1021
ł	-1022
ð	-1023
ː	-1024
в	-1025
‰	-1026
ć	-1027
η	-1028
م	-1029
ư	-1030
∂	-1031
ά	-1032
й	-1033
†	-1034
®	-1035
ï	-1036
ʁ	-1037
д	-1038
м	-1039
ب	-1040
č	-1041
Đ	-1042
ơ	-1043
ɐ	-1044
ω	-1045
و	-1046
⁡	-1047
¢	-1048
î	-1049
ò	-1050
ń	-1051
ŭ	-1052
ί	-1053
≥	-1054
¯	-1055
ì	-1056
ˌ	-1057
β	-1058
د	-1059
س	-1060
ي	-1061
⟶	-1062
ġ	-1063
ʊ	-1064
ی	-1065
ả	-1066
∗	-1067
@	-1068
Ø	-1069
ß	-1070
ă	-1071
ɛ	-1072
з	-1073
ن	-1074
ᵒ	-1075
₿	-1076
Î	-1077
ɑ	-1078
ύ	-1079
་	-1080
ậ	-1081
△	-1082
ș	-1083
ɪ	-1084
́	-1085
̯	-1086
υ	-1087
φ	-1088
С	-1089
г	-1090
п	-1091
ה	-1092
´	-1093
đ	-1094
Š	-1095
ɔ	-1096
ʃ	-1097
ʷ	-1098
έ	-1099
А	-1100
у	-1101
ت	-1102
ح	-1103
ि	-1104
်	-1105
ḥ	-1106
ắ	-1107
⇌	-1108
豆	-1109
Å	-1110
õ	-1111
Ō	-1112
ɡ	-1113
ζ	-1114
ξ	-1115
ϕ	-1116
К	-1117
ы	-1118
ق	-1119
म	-1120
ह	-1121
ก	-1122
ร	-1123
า	-1124
ა	-1125
ệ	-1126
ἡ	-1127
♭	-1128
♯	-1129
山	-1130
`	-1131
¤	-1132
û	-1133
ʲ	-1134
͡	-1135
Π	-1136
ή	-1137
ط	-1138
ा	-1139
း	-1140
ṭ	-1141
ớ	-1142
⁠	-1143
≡	-1144
⊗	-1145
ą	-1146
ŋ	-1147
ś	-1148
ɾ	-1149
̃	-1150
Θ	-1151
ϵ	-1152
П	-1153
б	-1154
ч	-1155
י	-1156
ز	-1157
्	-1158
อ	-1159
န	-1160
ḷ	-1161
ộ	-1162
↽	-1163
⇀	-1164
≤	-1165
股	-1166
산	-1167
½	-1168
Ā	-1169
ĩ	-1170
œ	-1171
ũ	-1172
ž	-1173
ƒ	-1174
ɫ	-1175
ɯ	-1176
ɲ	-1177
˙	-1178
Ε	-1179
Б	-1180
Г	-1181
я	-1182
ُ	-1183
ہ	-1184
र	-1185
ल	-1186
व	-1187
ห	-1188
เ	-1189
ང	-1190
ზ	-1191
უ	-1192
ღ	-1193
ᒋ	-1194
ạ	-1195
ἄ	-1196
ῆ	-1197
‒	-1198
―	-1199
„	-1200
™	-1201
∑	-1202
⬚	-1203
・	-1204
神	-1205
華	-1206
限	-1207
강	-1208
금	-1209
ù	-1210
þ	-1211
Č	-1212
ę	-1213
ŏ	-1214
ţ	-1215
ŷ	-1216
ǎ	-1217
ɣ	-1218
ˀ	-1219
Μ	-1220
ψ	-1221
ώ	-1222
ϖ	-1223
И	-1224
М	-1225
Р	-1226
Х	-1227
Ч	-1228
ц	-1229
ш	-1230
ь	-1231
ю	-1232
і	-1233
ד	-1234
ו	-1235
ם	-1236
מ	-1237
ן	-1238
أ	-1239
ش	-1240
ك	-1241
ه	-1242
َ	-1243
ِ	-1244
य	-1245
া	-1246
ด	-1247
บ	-1248
ག	-1249
ས	-1250
ရ	-1251
ာ	-1252
ေ	-1253
ᑭ	-1254
ᑲ	-1255
ᒥ	-1256
ị	-1257
ố	-1258
ồ	-1259
ổ	-1260
ἀ	-1261
Ἀ	-1262
ῖ	-1263
↑	-1264
∫	-1265
⟨	-1266
⟩	-1267
亜	-1268
公	-1269
司	-1270
有	-1271
Ꞓ	-1272
계	-1273
한	-1274
¥	-1275
©	-1276
«	-1277
¶	-1278
»	-1279
Ú	-1280
ė	-1281
Ł	-1282
Ś	-1283
ų	-1284
ǐ	-1285
ǫ	-1286
ț	-1287
ȳ	-1288
ɨ	-1289
ɵ	-1290
ʋ	-1291
ʰ	-1292
ʾ	-1293
ʿ	-1294
̀	-1295
̊	-1296
̩	-1297
Β	-1298
Σ	-1299
Φ	-1300
Ω	-1301
χ	-1302
В	-1303
Е	-1304
З	-1305
Н	-1306
О	-1307
У	-1308
ф	-1309
ъ	-1310
ң	-1311
ү	-1312
ӏ	-1313
א	-1314
כ	-1315
ת	-1316
ة	-1317
ع	-1318
ى	-1319
ّ	-1320
ْ	-1321
ख	-1322
त	-1323
स	-1324
ন	-1325
ব	-1326
ম	-1327
র	-1328
ল	-1329
্	-1330
ค	-1331
ง	-1332
จ	-1333
น	-1334
ะ	-1335
็	-1336
์	-1337
ལ	-1338
ེ	-1339
ོ	-1340
က	-1341
င	-1342
တ	-1343
ဝ	-1344
သ	-1345
ိ	-1346
ვ	-1347
ი	-1348
ს	-1349
ḍ	-1350
ḗ	-1351
ṣ	-1352
ấ	-1353
ầ	-1354
ằ	-1355
ọ	-1356
ữ	-1357
Ἄ	-1358
ἠ	-1359
ἰ	-1360
ἱ	-1361
ὴ	-1362
ῥ	-1363
ῷ	-1364
‌	-1365
‍	-1366
⁰	-1367
⅓	-1368
⅔	-1369
≃	-1370
中	-1371
份	-1372
力	-1373
喜	-1374
國	-1375
拉	-1376
林	-1377
枝	-1378
楓	-1379
油	-1380
浆	-1381
港	-1382
源	-1383
生	-1384
能	-1385
脉	-1386
行	-1387
雅	-1388
電	-1389
香	-1390
骨	-1391
구	-1392
국	-1393
농	-1394
박	-1395
원	-1396
지	-1397
콩	-1398
𐭤	-1399
𐭩	-1400
𐭫	-1401
¬	-1402
¸	-1403
Â	-1404
Ä	-1405
Ó	-1406
÷	-1407
Ć	-1408
ě	-1409
ň	-1410
ő	-1411
ř	-1412
ŝ	-1413
ź	-1414
Ż	-1415
ż	-1416
Ž	-1417
ǒ	-1418
ǔ	-1419
ɒ	-1420
ɕ	-1421
ɘ	-1422
ɜ	-1423
ɦ	-1424
ɳ	-1425
ɶ	-1426
ɻ	-1427
ʂ	-1428
ʈ	-1429
ʉ	-1430
ʏ	-1431
ʒ	-1432
ʔ	-1433
ʽ	-1434
ˉ	-1435
̂	-1436
̄	-1437
̌	-1438
̝	-1439
̧	-1440
̪	-1441
Ά	-1442
Α	-1443
Γ	-1444
Ν	-1445
Τ	-1446
Υ	-1447
Д	-1448
Л	-1449
Т	-1450
Ф	-1451
Ш	-1452
ж	-1453
щ	-1454
э	-1455
ё	-1456
қ	-1457
ә	-1458
ӯ	-1459
Ս	-1460
ե	-1461
ծ	-1462
ո	-1463
վ	-1464
ւ	-1465
ג	-1466
ז	-1467
ח	-1468
ל	-1469
ע	-1470
ץ	-1471
ר	-1472
خ	-1473
ض	-1474
غ	-1475
ٔ	-1476
ٱ	-1477
ک	-1478
ھ	-1479
ं	-1480
आ	-1481
ज	-1482
ड	-1483
ण	-1484
ध	-1485
न	-1486
प	-1487
श	-1488
े	-1489
ত	-1490
দ	-1491
প	-1492
য	-1493
স	-1494
হ	-1495
়	-1496
ি	-1497
ু	-1498
ਤ	-1499
ਬ	-1500
ਮ	-1501
ਸ	-1502
ਾ	-1503
ੀ	-1504
ම	-1505
ය	-1506
ල	-1507
හ	-1508
ා	-1509
ි	-1510
ช	-1511
ซ	-1512
ถ	-1513
ผ	-1514
ม	-1515
ั	-1516
ิ	-1517
ื	-1518
๊	-1519
།	-1520
ཅ	-1521
ན	-1522
པ	-1523
མ	-1524
ཙ	-1525
ཡ	-1526
ཧ	-1527
ི	-1528
ྗ	-1529
စ	-1530
ဌ	-1531
ထ	-1532
ပ	-1533
မ	-1534
ီ	-1535
့	-1536
ျ	-1537
ြ	-1538
ှ	-1539
ე	-1540
პ	-1541
რ	-1542
შ	-1543
ჩ	-1544
ᐁ	-1545
ᐅ	-1546
ᐊ	-1547
ᐦ	-1548
ᐧ	-1549
ᐯ	-1550
ᑉ	-1551
ᓂ	-1552
ᓈ	-1553
ᔑ	-1554
ᵻ	-1555
ḕ	-1556
Ḳ	-1557
ṓ	-1558
ṛ	-1559
Ṣ	-1560
ẹ	-1561
ế	-1562
ề	-1563
ễ	-1564
ỏ	-1565
ờ	-1566
ở	-1567
ụ	-1568
ừ	-1569
ự	-1570
ỹ	-1571
ἔ	-1572
ἵ	-1573
Ἰ	-1574
ὀ	-1575
ὁ	-1576
ὄ	-1577
ὅ	-1578
ὐ	-1579
ὔ	-1580
ὕ	-1581
Ὠ	-1582
ᾶ	-1583
ῦ	-1584
Ῥ	-1585
ῶ	-1586
 	-1587
 	-1588
‎	-1589
‚	-1590
‟	-1591
⁣	-1592
₱	-1593
₳	-1594
∆	-1595
∇	-1596
∝	-1597
≳	-1598
こ	-1599
と	-1600
の	-1601
べ	-1602
一	-1603
上	-1604
业	-1605
京	-1606
企	-1607
億	-1608
光	-1609
入	-1610
刑	-1611
剛	-1612
动	-1613
华	-1614
史	-1615
味	-1616
噌	-1617
士	-1618
天	-1619
奶	-1620
妙	-1621
定	-1622
岳	-1623
希	-1624
年	-1625
底	-1626
建	-1627
成	-1628
括	-1629
指	-1630
數	-1631
日	-1632
旬	-1633
書	-1634
期	-1635
構	-1636
樂	-1637
死	-1638
殿	-1639
水	-1640
池	-1641
沈	-1642
波	-1643
津	-1644
海	-1645
涼	-1646
漲	-1647
漿	-1648
燈	-1649
爭	-1650
産	-1651
發	-1652
皆	-1653
盘	-1654
祥	-1655
築	-1656
粉	-1657
納	-1658
級	-1659
紫	-1660
細	-1661
肉	-1662
腐	-1663
舂	-1664
苔	-1665
菜	-1666
萊	-1667
蓬	-1668
薬	-1669
計	-1670
設	-1671
議	-1672
诌	-1673
豉	-1674
赤	-1675
農	-1676
造	-1677
都	-1678
酒	-1679
醤	-1680
金	-1681
鋼	-1682
鐵	-1683
锂	-1684
隊	-1685
音	-1686
預	-1687
首	-1688
馬	-1689
马	-1690
黄	-1691
齐	-1692
ꞌ	-1693
개	-1694
경	-1695
골	-1696
김	-1697
나	-1698
내	-1699
너	-1700
들	-1701
딩	-1702
래	-1703
량	-1704
로	-1705
림	-1706
물	-1707
본	-1708
봉	-1709
빌	-1710
세	-1711
속	-1712
스	-1713
악	-1714
업	-1715
에	-1716
엑	-1717
연	-1718
외	-1719
우	-1720
울	-1721
의	-1722
제	-1723
조	-1724
촌	-1725
통	-1726
풍	-1727
ﺁ	-1728
𐀀	-1729
𐀊	-1730
𐀯	-1731
𐀹	-1732
𐭥	-1733
𐭦	-1734
𐭬	-1735
𒀸	-1736
𒉿	-1737
𒋗	-1738
𝛅	-1739
𝛾	-1740
