<unk>	0
<s>	0
</s>	0
<0x00>	0
<0x01>	0
<0x02>	0
<0x03>	0
<0x04>	0
<0x05>	0
<0x06>	0
<0x07>	0
<0x08>	0
<0x09>	0
<0x0A>	0
<0x0B>	0
<0x0C>	0
<0x0D>	0
<0x0E>	0
<0x0F>	0
<0x10>	0
<0x11>	0
<0x12>	0
<0x13>	0
<0x14>	0
<0x15>	0
<0x16>	0
<0x17>	0
<0x18>	0
<0x19>	0
<0x1A>	0
<0x1B>	0
<0x1C>	0
<0x1D>	0
<0x1E>	0
<0x1F>	0
<0x20>	0
<0x21>	0
<0x22>	0
<0x23>	0
<0x24>	0
<0x25>	0
<0x26>	0
<0x27>	0
<0x28>	0
<0x29>	0
<0x2A>	0
<0x2B>	0
<0x2C>	0
<0x2D>	0
<0x2E>	0
<0x2F>	0
<0x30>	0
<0x31>	0
<0x32>	0
<0x33>	0
<0x34>	0
<0x35>	0
<0x36>	0
<0x37>	0
<0x38>	0
<0x39>	0
<0x3A>	0
<0x3B>	0
<0x3C>	0
<0x3D>	0
<0x3E>	0
<0x3F>	0
<0x40>	0
<0x41>	0
<0x42>	0
<0x43>	0
<0x44>	0
<0x45>	0
<0x46>	0
<0x47>	0
<0x48>	0
<0x49>	0
<0x4A>	0
<0x4B>	0
<0x4C>	0
<0x4D>	0
<0x4E>	0
<0x4F>	0
<0x50>	0
<0x51>	0
<0x52>	0
<0x53>	0
<0x54>	0
<0x55>	0
<0x56>	0
<0x57>	0
<0x58>	0
<0x59>	0
<0x5A>	0
<0x5B>	0
<0x5C>	0
<0x5D>	0
<0x5E>	0
<0x5F>	0
<0x60>	0
<0x61>	0
<0x62>	0
<0x63>	0
<0x64>	0
<0x65>	0
<0x66>	0
<0x67>	0
<0x68>	0
<0x69>	0
<0x6A>	0
<0x6B>	0
<0x6C>	0
<0x6D>	0
<0x6E>	0
<0x6F>	0
<0x70>	0
<0x71>	0
<0x72>	0
<0x73>	0
<0x74>	0
<0x75>	0
<0x76>	0
<0x77>	0
<0x78>	0
<0x79>	0
<0x7A>	0
<0x7B>	0
<0x7C>	0
<0x7D>	0
<0x7E>	0
<0x7F>	0
<0x80>	0
<0x81>	0
<0x82>	0
<0x83>	0
<0x84>	0
<0x85>	0
<0x86>	0
<0x87>	0
<0x88>	0
<0x89>	0
<0x8A>	0
<0x8B>	0
<0x8C>	0
<0x8D>	0
<0x8E>	0
<0x8F>	0
<0x90>	0
<0x91>	0
<0x92>	0
<0x93>	0
<0x94>	0
<0x95>	0
<0x96>	0
<0x97>	0
<0x98>	0
<0x99>	0
<0x9A>	0
<0x9B>	0
<0x9C>	0
<0x9D>	0
<0x9E>	0
<0x9F>	0
<0xA0>	0
<0xA1>	0
<0xA2>	0
<0xA3>	0
<0xA4>	0
<0xA5>	0
<0xA6>	0
<0xA7>	0
<0xA8>	0
<0xA9>	0
<0xAA>	0
<0xAB>	0
<0xAC>	0
<0xAD>	0
<0xAE>	0
<0xAF>	0
<0xB0>	0
<0xB1>	0
<0xB2>	0
<0xB3>	0
<0xB4>	0
<0xB5>	0
<0xB6>	0
<0xB7>	0
<0xB8>	0
<0xB9>	0
<0xBA>	0
<0xBB>	0
<0xBC>	0
<0xBD>	0
<0xBE>	0
<0xBF>	0
<0xC0>	0
<0xC1>	0
<0xC2>	0
<0xC3>	0
<0xC4>	0
<0xC5>	0
<0xC6>	0
<0xC7>	0
<0xC8>	0
<0xC9>	0
<0xCA>	0
<0xCB>	0
<0xCC>	0
<0xCD>	0
<0xCE>	0
<0xCF>	0
<0xD0>	0
<0xD1>	0
<0xD2>	0
<0xD3>	0
<0xD4>	0
<0xD5>	0
<0xD6>	0
<0xD7>	0
<0xD8>	0
<0xD9>	0
<0xDA>	0
<0xDB>	0
<0xDC>	0
<0xDD>	0
<0xDE>	0
<0xDF>	0
<0xE0>	0
<0xE1>	0
<0xE2>	0
<0xE3>	0
<0xE4>	0
<0xE5>	0
<0xE6>	0
<0xE7>	0
<0xE8>	0
<0xE9>	0
<0xEA>	0
<0xEB>	0
<0xEC>	0
<0xED>	0
<0xEE>	0
<0xEF>	0
<0xF0>	0
<0xF1>	0
<0xF2>	0
<0xF3>	0
<0xF4>	0
<0xF5>	0
<0xF6>	0
<0xF7>	0
<0xF8>	0
<0xF9>	0
<0xFA>	0
<0xFB>	0
<0xFC>	0
<0xFD>	0
<0xFE>	0
<0xFF>	0
▁t	-0
▁a	-1
in	-2
he	-3
on	-4
re	-5
at	-6
er	-7
▁the	-8
en	-9
▁o	-10
▁c	-11
an	-12
▁s	-13
es	-14
al	-15
ed	-16
▁p	-17
it	-18
ion	-19
nd	-20
or	-21
▁in	-22
is	-23
▁of	-24
▁f	-25
▁w	-26
ar	-27
ic	-28
ing	-29
ro	-30
▁and	-31
▁b	-32
▁m	-33
as	-34
▁to	-35
▁d	-36
ent	-37
ct	-38
le	-39
▁e	-40
ou	-41
▁re	-42
st	-43
il	-44
▁h	-45
ation	-46
im	-47
ve	-48
▁th	-49
▁l	-50
om	-51
▁T	-52
ol	-53
▁g	-54
▁C	-55
▁A	-56
ly	-57
▁n	-58
ce	-59
ur	-60
▁S	-61
et	-62
ment	-63
ate	-64
▁is	-65
id	-66
ir	-67
ver	-68
se	-69
▁be	-70
ra	-71
ut	-72
▁for	-73
▁I	-74
▁pro	-75
ul	-76
ch	-77
▁(	-78
▁con	-79
ig	-80
ge	-81
ow	-82
▁The	-83
▁as	-84
▁on	-85
ies	-86
ot	-87
▁that	-88
▁E	-89
▁u	-90
▁st	-91
el	-92
▁P	-93
▁are	-94
▁su	-95
ity	-96
▁de	-97
ter	-98
▁by	-99
▁M	-100
her	-101
du	-102
if	-103
os	-104
th	-105
ith	-106
ad	-107
od	-108
ab	-109
ure	-110
and	-111
▁al	-112
lo	-113
▁en	-114
ect	-115
▁with	-116
est	-117
am	-118
um	-119
nt	-120
ore	-121
▁ex	-122
ist	-123
▁an	-124
em	-125
▁com	-126
▁B	-127
ci	-128
lim	-129
ort	-130
rom	-131
▁or	-132
▁R	-133
▁N	-134
ri	-135
ions	-136
ill	-137
▁ch	-138
▁G	-139
ay	-140
▁from	-141
ain	-142
▁inc	-143
▁wh	-144
limate	-145
▁was	-146
ers	-147
ive	-148
ant	-149
▁D	-150
us	-151
▁F	-152
▁it	-153
ere	-154
qu	-155
ud	-156
ess	-157
▁U	-158
ric	-159
▁In	-160
pp	-161
ld	-162
iv	-163
res	-164
▁H	-165
ater	-166
▁at	-167
ac	-168
ical	-169
ff	-170
▁r	-171
ated	-172
▁W	-173
▁v	-174
▁"	-175
ult	-176
gy	-177
per	-178
ew	-179
ange	-180
▁se	-181
▁ha	-182
pe	-183
rou	-184
▁O	-185
ction	-186
pt	-187
ia	-188
▁climate	-189
ich	-190
▁L	-191
oc	-192
▁pl	-193
▁res	-194
▁le	-195
iron	-196
ast	-197
ear	-198
ations	-199
act	-200
so	-201
▁im	-202
ak	-203
viron	-204
vironment	-205
art	-206
▁he	-207
iss	-208
un	-209
▁co	-210
ther	-211
▁have	-212
▁em	-213
our	-214
igh	-215
able	-216
▁which	-217
ans	-218
ount	-219
▁imp	-220
op	-221
iz	-222
▁has	-223
▁produ	-224
all	-225
▁comp	-226
reas	-227
▁cont	-228
arm	-229
ust	-230
gh	-231
cc	-232
age	-233
og	-234
ine	-235
▁can	-236
ial	-237
red	-238
▁ad	-239
ber	-240
▁change	-241
▁int	-242
▁per	-243
ard	-244
ates	-245
▁sh	-246
▁y	-247
ces	-248
ide	-249
▁ag	-250
▁pol	-251
▁also	-252
ost	-253
ergy	-254
▁J	-255
con	-256
lud	-257
▁not	-258
tern	-259
port	-260
ry	-261
ould	-262
arb	-263
ru	-264
▁wor	-265
ous	-266
ome	-267
▁us	-268
▁ab	-269
▁increas	-270
▁environment	-271
ap	-272
ary	-273
ally	-274
▁water	-275
▁more	-276
ong	-277
▁St	-278
ian	-279
arbon	-280
ific	-281
▁emiss	-282
▁so	-283
ood	-284
end	-285
lob	-286
ural	-287
▁cons	-288
ue	-289
ub	-290
▁eff	-291
▁man	-292
▁includ	-293
ational	-294
ence	-295
▁Un	-296
lop	-297
▁k	-298
▁Th	-299
yst	-300
low	-301
ign	-302
ag	-303
velop	-304
ature	-305
▁their	-306
▁dis	-307
lobal	-308
▁were	-309
).	-310
over	-311
▁ra	-312
ition	-313
▁other	-314
▁Ch	-315
rop	-316
out	-317
▁its	-318
▁year	-319
▁reg	-320
ced	-321
▁emissions	-322
ell	-323
▁been	-324
▁En	-325
ire	-326
▁such	-327
ystem	-328
▁part	-329
▁gas	-330
▁K	-331
▁than	-332
ip	-333
ib	-334
▁me	-335
▁energy	-336
vers	-337
▁comm	-338
lect	-339
ities	-340
),	-341
ens	-342
ance	-343
ass	-344
▁over	-345
▁whe	-346
ding	-347
illion	-348
ited	-349
ace	-350
erv	-351
ight	-352
ks	-353
ang	-354
▁ev	-355
▁Re	-356
▁this	-357
reen	-358
orm	-359
▁count	-360
lic	-361
land	-362
▁ne	-363
gan	-364
▁carbon	-365
▁exp	-366
▁redu	-367
ower	-368
ree	-369
▁develop	-370
ke	-371
ice	-372
rough	-373
ative	-374
▁app	-375
▁rec	-376
ution	-377
conom	-378
vel	-379
oss	-380
te	-381
▁dec	-382
ress	-383
▁lar	-384
ors	-385
rib	-386
ound	-387
▁un	-388
▁environmental	-389
▁pre	-390
ility	-391
▁global	-392
mer	-393
ons	-394
fere	-395
au	-396
les	-397
rans	-398
ricult	-399
overn	-400
uring	-401
▁spe	-402
▁met	-403
olog	-404
ating	-405
av	-406
▁bec	-407
io	-408
emper	-409
ments	-410
▁but	-411
▁This	-412
ject	-413
▁De	-414
ener	-415
cial	-416
we	-417
▁will	-418
▁use	-419
ach	-420
▁As	-421
ile	-422
▁Se	-423
erm	-424
▁sp	-425
ish	-426
▁into	-427
▁fu	-428
emperature	-429
▁ext	-430
nder	-431
arming	-432
row	-433
als	-434
▁Climate	-435
round	-436
orest	-437
ries	-438
ack	-439
▁land	-440
▁acc	-441
▁act	-442
▁effect	-443
▁pe	-444
▁would	-445
▁most	-446
ory	-447
▁impact	-448
ouse	-449
▁temperature	-450
▁tra	-451
cess	-452
ism	-453
hed	-454
ail	-455
▁bet	-456
ents	-457
cy	-458
▁ris	-459
▁sub	-460
▁level	-461
▁It	-462
▁used	-463
own	-464
▁econom	-465
▁tim	-466
▁system	-467
ram	-468
▁we	-469
▁supp	-470
▁trans	-471
▁ar	-472
▁may	-473
▁hum	-474
▁United	-475
▁ac	-476
rit	-477
▁te	-478
▁plant	-479
▁pub	-480
▁they	-481
▁am	-482
one	-483
▁out	-484
▁Pro	-485
are	-486
ph	-487
▁all	-488
▁conc	-489
▁world	-490
any	-491
iod	-492
ef	-493
li	-494
ari	-495
amp	-496
▁about	-497
ert	-498
ove	-499
▁under	-500
ween	-501
▁spec	-502
▁food	-503
▁ro	-504
ark	-505
▁V	-506
▁high	-507
ds	-508
▁agricult	-509
ause	-510
▁ind	-511
▁inf	-512
ased	-513
ivers	-514
▁green	-515
chn	-516
▁sci	-517
▁gener	-518
The	-519
▁govern	-520
▁des	-521
▁li	-522
ake	-523
reat	-524
▁inv	-525
▁had	-526
▁production	-527
▁between	-528
▁years	-529
▁these	-530
aw	-531
ite	-532
▁Ind	-533
▁up	-534
▁million	-535
ame	-536
▁cl	-537
olo	-538
▁stud	-539
▁through	-540
▁countries	-541
▁sur	-542
ral	-543
▁est	-544
ase	-545
▁one	-546
▁prov	-547
ources	-548
atural	-549
▁there	-550
ology	-551
▁organ	-552
int	-553
ough	-554
▁Com	-555
irst	-556
▁j	-557
▁result	-558
▁some	-559
lectric	-560
ose	-561
▁col	-562
▁°	-563
▁report	-564
".	-565
ics	-566
gest	-567
dust	-568
▁sc	-569
uro	-570
▁mod	-571
vi	-572
gen	-573
house	-574
▁sol	-575
▁qu	-576
ulation	-577
alth	-578
▁fuel	-579
ord	-580
▁power	-581
▁new	-582
osp	-583
▁rel	-584
▁Al	-585
▁form	-586
its	-587
ople	-588
▁ca	-589
▁Environment	-590
▁loc	-591
▁cent	-592
▁grow	-593
get	-594
▁dif	-595
ists	-596
ind	-597
▁dep	-598
▁well	-599
▁poll	-600
▁sign	-601
ning	-602
iversity	-603
▁indust	-604
ual	-605
ract	-606
ep	-607
▁Euro	-608
ability	-609
ince	-610
▁first	-611
▁found	-612
▁during	-613
▁increase	-614
▁warming	-615
▁bu	-616
arch	-617
ological	-618
▁ec	-619
ular	-620
▁resp	-621
▁human	-622
▁ma	-623
yc	-624
arth	-625
▁Europe	-626
pl	-627
ever	-628
ane	-629
▁process	-630
ys	-631
ved	-632
▁hy	-633
meric	-634
feren	-635
su	-636
▁air	-637
▁pop	-638
▁many	-639
ici	-640
here	-641
▁meth	-642
▁people	-643
▁polic	-644
▁natural	-645
▁large	-646
▁add	-647
▁vari	-648
▁due	-649
ines	-650
ption	-651
▁lead	-652
ale	-653
▁including	-654
ok	-655
ts	-656
ternational	-657
▁techn	-658
ible	-659
irect	-660
▁areas	-661
▁sust	-662
ied	-663
▁requ	-664
▁Americ	-665
▁sustain	-666
cing	-667
oun	-668
▁greenhouse	-669
."	-670
In	-671
▁ref	-672
▁only	-673
vent	-674
▁product	-675
▁ve	-676
▁do	-677
▁States	-678
oth	-679
▁Con	-680
ne	-681
▁time	-682
ically	-683
▁CO	-684
ob	-685
▁oil	-686
ern	-687
ident	-688
▁chang	-689
ild	-690
▁like	-691
▁An	-692
uc	-693
▁cre	-694
ten	-695
owever	-696
ards	-697
ork	-698
ays	-699
▁species	-700
orth	-701
roup	-702
▁project	-703
▁rem	-704
lu	-705
▁min	-706
▁work	-707
outh	-708
▁tw	-709
▁pres	-710
▁main	-711
ered	-712
▁off	-713
▁ph	-714
me	-715
▁when	-716
fter	-717
ted	-718
▁def	-719
ected	-720
ribut	-721
ade	-722
▁electric	-723
▁New	-724
▁public	-725
▁government	-726
▁cap	-727
gram	-728
▁partic	-729
ished	-730
ruct	-731
▁caus	-732
▁cor	-733
ized	-734
▁consum	-735
very	-736
▁str	-737
▁scient	-738
▁cost	-739
ization	-740
▁Ex	-741
▁development	-742
▁low	-743
▁ann	-744
▁include	-745
▁Ar	-746
CC	-747
▁occ	-748
ices	-749
ex	-750
urre	-751
ll	-752
▁commun	-753
▁could	-754
ather	-755
▁aff	-756
▁farm	-757
▁fe	-758
jor	-759
▁ass	-760
▁long	-761
▁US	-762
▁forest	-763
iel	-764
▁state	-765
▁rese	-766
▁sm	-767
mosp	-768
ined	-769
▁kn	-770
▁Earth	-771
ives	-772
▁pr	-773
ides	-774
▁inst	-775
▁being	-776
▁inter	-777
▁where	-778
▁contin	-779
ov	-780
▁dist	-781
▁increased	-782
hes	-783
▁po	-784
▁sa	-785
▁who	-786
ential	-787
la	-788
▁activ	-789
▁ob	-790
▁appro	-791
hic	-792
ife	-793
uch	-794
ina	-795
▁health	-796
pos	-797
ie	-798
ger	-799
▁hig	-800
cean	-801
▁sea	-802
ures	-803
▁mon	-804
▁major	-805
▁two	-806
ificant	-807
▁–	-808
▁att	-809
ting	-810
▁num	-811
arket	-812
ars	-813
▁prot	-814
▁Res	-815
▁plan	-816
▁import	-817
xide	-818
ality	-819
ety	-820
ration	-821
▁less	-822
▁fin	-823
▁study	-824
▁buil	-825
▁effects	-826
pr	-827
▁$	-828
▁need	-829
▁period	-830
▁Environmental	-831
lished	-832
▁no	-833
hem	-834
lear	-835
▁estim	-836
ath	-837
urrent	-838
▁while	-839
▁Ag	-840
▁significant	-841
▁hyd	-842
ury	-843
▁soil	-844
▁support	-845
ency	-846
verage	-847
▁economic	-848
▁around	-849
rad	-850
urb	-851
▁Y	-852
▁examp	-853
▁ty	-854
▁region	-855
▁atmosp	-856
▁ear	-857
ck	-858
ata	-859
ossil	-860
▁levels	-861
▁because	-862
ins	-863
form	-864
▁crop	-865
▁pollution	-866
▁billion	-867
cent	-868
ise	-869
led	-870
hen	-871
▁Comm	-872
▁oper	-873
▁agriculture	-874
mber	-875
▁changes	-876
els	-877
▁them	-878
▁plants	-879
ix	-880
▁waste	-881
ording	-882
igation	-883
▁after	-884
▁coal	-885
▁often	-886
▁both	-887
cip	-888
ros	-889
▁fact	-890
▁call	-891
▁These	-892
▁reduce	-893
ollow	-894
agement	-895
▁group	-896
▁bi	-897
▁end	-898
ission	-899
rial	-900
▁av	-901
▁country	-902
face	-903
▁rain	-904
ink	-905
▁Change	-906
▁He	-907
▁market	-908
▁since	-909
ble	-910
aterial	-911
▁consid	-912
ank	-913
old	-914
ants	-915
▁heat	-916
ferent	-917
▁For	-918
▁pot	-919
ily	-920
▁equ	-921
ection	-922
▁Aust	-923
▁Energy	-924
▁set	-925
▁policy	-926
▁impacts	-927
itions	-928
ax	-929
ually	-930
ource	-931
▁systems	-932
aking	-933
tal	-934
▁lim	-935
▁direct	-936
▁temperatures	-937
▁ice	-938
fore	-939
▁example	-940
▁However	-941
apt	-942
ond	-943
▁occur	-944
▁company	-945
urn	-946
hip	-947
ired	-948
▁Can	-949
ified	-950
lement	-951
▁cond	-952
▁exper	-953
▁term	-954
▁agricultural	-955
▁contro	-956
▁ent	-957
▁const	-958
▁meas	-959
▁dem	-960
orn	-961
▁his	-962
▁invest	-963
wn	-964
ven	-965
▁serv	-966
▁go	-967
▁flo	-968
ium	-969
▁fossil	-970
▁area	-971
cept	-972
und	-973
▁rele	-974
ren	-975
eg	-976
▁small	-977
▁amount	-978
▁different	-979
ters	-980
▁material	-981
read	-982
urther	-983
ctic	-984
por	-985
▁current	-986
ute	-987
ock	-988
▁anim	-989
▁sim	-990
▁program	-991
soci	-992
▁research	-993
▁much	-994
▁National	-995
▁European	-996
▁At	-997
▁North	-998
ioxide	-999
lands	-1000
ared	-1001
▁within	-1002
▁stand	-1003
▁population	-1004
▁Ad	-1005
osystem	-1006
▁Austral	-1007
▁vehic	-1008
▁average	-1009
▁sustainable	-1010
▁follow	-1011
▁aut	-1012
▁ge	-1013
ug	-1014
▁transport	-1015
ains	-1016
▁cyc	-1017
▁higher	-1018
▁industry	-1019
▁issu	-1020
▁trad	-1021
▁Af	-1022
▁dioxide	-1023
air	-1024
ize	-1025
▁disc	-1026
▁resources	-1027
▁surface	-1028
ty	-1029
▁val	-1030
ash	-1031
▁On	-1032
▁rep	-1033
▁Wor	-1034
▁increasing	-1035
▁allow	-1036
ving	-1037
ron	-1038
rodu	-1039
▁made	-1040
▁contribut	-1041
ember	-1042
veral	-1043
▁sug	-1044
ner	-1045
▁any	-1046
ately	-1047
ful	-1048
▁local	-1049
▁largest	-1050
▁-	-1051
▁if	-1052
▁Pol	-1053
ross	-1054
uss	-1055
▁det	-1056
ification	-1057
▁Green	-1058
▁adv	-1059
▁Pl	-1060
▁pract	-1061
▁total	-1062
▁number	-1063
▁impro	-1064
tle	-1065
▁effici	-1066
▁So	-1067
▁pric	-1068
ling	-1069
▁dam	-1070
ages	-1071
▁potential	-1072
▁known	-1073
raph	-1074
other	-1075
▁Afric	-1076
ived	-1077
▁building	-1078
ton	-1079
▁sect	-1080
istory	-1081
▁World	-1082
▁hydro	-1083
▁non	-1084
uture	-1085
▁those	-1086
▁electricity	-1087
▁Z	-1088
iness	-1089
co	-1090
▁China	-1091
▁growth	-1092
▁near	-1093
▁There	-1094
▁South	-1095
itation	-1096
ferences	-1097
ene	-1098
▁method	-1099
▁tre	-1100
view	-1101
▁using	-1102
der	-1103
▁century	-1104
▁solar	-1105
▁polit	-1106
▁crit	-1107
min	-1108
▁loss	-1109
..	-1110
▁bo	-1111
atic	-1112
▁products	-1113
estic	-1114
ision	-1115
ec	-1116
rid	-1117
▁Canad	-1118
▁ecosystem	-1119
▁called	-1120
vention	-1121
hemical	-1122
ick	-1123
xim	-1124
▁social	-1125
ases	-1126
eng	-1127
▁Act	-1128
▁rad	-1129
▁design	-1130
▁show	-1131
▁based	-1132
ivid	-1133
▁data	-1134
▁Sci	-1135
cur	-1136
▁typ	-1137
▁law	-1138
the	-1139
tic	-1140
ering	-1141
▁common	-1142
▁flood	-1143
ason	-1144
▁ocean	-1145
▁international	-1146
▁University	-1147
▁tar	-1148
▁comb	-1149
▁lower	-1150
ewable	-1151
▁three	-1152
▁Cent	-1153
▁ren	-1154
▁management	-1155
▁coast	-1156
enef	-1157
usiness	-1158
ulations	-1159
lp	-1160
",	-1161
▁American	-1162
: 	-1163
▁particular	-1164
▁several	-1165
▁mar	-1166
▁life	-1167
▁adapt	-1168
ised	-1169
▁z	-1170
ires	-1171
▁percent	-1172
▁car	-1173
▁Acc	-1174
ings	-1175
▁eng	-1176
sc	-1177
▁important	-1178
uclear	-1179
eral	-1180
▁Co	-1181
▁same	-1182
▁addition	-1183
ield	-1184
▁risk	-1185
▁cult	-1186
ference	-1187
▁account	-1188
▁deg	-1189
▁national	-1190
▁Cal	-1191
▁own	-1192
▁dom	-1193
ternal	-1194
ones	-1195
ructure	-1196
▁win	-1197
▁Global	-1198
▁pri	-1199
omet	-1200
▁International	-1201
blem	-1202
anies	-1203
▁caused	-1204
▁sum	-1205
idence	-1206
▁decreas	-1207
ward	-1208
▁Is	-1209
ently	-1210
ruction	-1211
▁neg	-1212
▁comple	-1213
▁rise	-1214
▁ed	-1215
rast	-1216
▁cr	-1217
▁help	-1218
cond	-1219
up	-1220
▁poss	-1221
iver	-1222
▁even	-1223
▁avail	-1224
urban	-1225
▁prim	-1226
▁vi	-1227
▁concern	-1228
▁er	-1229
▁fac	-1230
▁states	-1231
▁problem	-1232
akes	-1233
▁wind	-1234
▁mil	-1235
▁said	-1236
line	-1237
▁produced	-1238
▁early	-1239
▁atmosphere	-1240
▁then	-1241
▁ret	-1242
▁tax	-1243
ump	-1244
▁future	-1245
▁very	-1246
ervation	-1247
ocus	-1248
▁again	-1249
▁Wh	-1250
▁she	-1251
▁conditions	-1252
ets	-1253
stit	-1254
ital	-1255
▁become	-1256
man	-1257
▁likely	-1258
though	-1259
▁benef	-1260
igin	-1261
osed	-1262
▁prom	-1263
ober	-1264
▁Or	-1265
way	-1266
ict	-1267
▁liv	-1268
▁published	-1269
ertain	-1270
▁cause	-1271
▁developed	-1272
▁pur	-1273
▁Prot	-1274
▁issues	-1275
▁propos	-1276
cially	-1277
▁companies	-1278
ft	-1279
▁consumption	-1280
▁regions	-1281
▁leg	-1282
▁vol	-1283
▁sources	-1284
▁net	-1285
ues	-1286
▁fund	-1287
▁estab	-1288
▁extin	-1289
▁target	-1290
▁suggest	-1291
reme	-1292
water	-1293
reement	-1294
▁estimated	-1295
▁Min	-1296
▁ke	-1297
▁They	-1298
▁make	-1299
ator	-1300
ves	-1301
▁India	-1302
omen	-1303
iti	-1304
curity	-1305
▁how	-1306
▁sal	-1307
ring	-1308
▁each	-1309
ences	-1310
▁scientific	-1311
▁bas	-1312
▁conf	-1313
now	-1314
atter	-1315
▁focus	-1316
ime	-1317
▁cool	-1318
lean	-1319
ustain	-1320
▁char	-1321
▁methane	-1322
▁op	-1323
ropical	-1324
▁anal	-1325
ilar	-1326
▁dri	-1327
▁associ	-1328
raz	-1329
▁rainf	-1330
▁pred	-1331
ged	-1332
PCC	-1333
mp	-1334
ights	-1335
lor	-1336
▁economy	-1337
▁respons	-1338
▁mit	-1339
PA	-1340
irc	-1341
ret	-1342
▁biod	-1343
▁affect	-1344
▁rest	-1345
▁Australia	-1346
▁implement	-1347
▁Ph	-1348
▁move	-1349
ae	-1350
▁Par	-1351
▁present	-1352
▁med	-1353
une	-1354
com	-1355
▁depend	-1356
ote	-1357
▁desc	-1358
▁produce	-1359
mit	-1360
▁before	-1361
heric	-1362
ateg	-1363
▁Africa	-1364
▁exist	-1365
resent	-1366
▁costs	-1367
▁pers	-1368
▁record	-1369
▁arg	-1370
essment	-1371
▁vehicles	-1372
▁ri	-1373
▁soci	-1374
▁pass	-1375
ination	-1376
part	-1377
▁es	-1378
ness	-1379
iforn	-1380
▁science	-1381
val	-1382
▁pos	-1383
▁supply	-1384
▁urban	-1385
▁reduction	-1386
ann	-1387
▁Am	-1388
▁control	-1389
▁require	-1390
fact	-1391
▁Germ	-1392
ribution	-1393
sel	-1394
based	-1395
▁America	-1396
▁down	-1397
▁gases	-1398
▁action	-1399
▁Some	-1400
loy	-1401
sequ	-1402
▁Resear	-1403
▁Californ	-1404
▁should	-1405
af	-1406
▁further	-1407
▁inform	-1408
az	-1409
▁origin	-1410
▁quality	-1411
itive	-1412
▁rate	-1413
gin	-1414
▁UN	-1415
ensive	-1416
▁opp	-1417
▁weather	-1418
arc	-1419
chie	-1420
▁point	-1421
ograph	-1422
▁among	-1423
▁invol	-1424
▁ground	-1425
bers	-1426
ended	-1427
▁just	-1428
acter	-1429
▁concent	-1430
abit	-1431
▁ser	-1432
▁crops	-1433
▁threat	-1434
▁business	-1435
▁May	-1436
▁warm	-1437
▁chemical	-1438
anu	-1439
eb	-1440
▁must	-1441
▁gre	-1442
▁ste	-1443
▁times	-1444
.: 	-1445
▁California	-1446
▁feed	-1447
olution	-1448
rel	-1449
▁nuclear	-1450
▁short	-1451
acity	-1452
▁across	-1453
cember	-1454
▁provide	-1455
ained	-1456
▁Develop	-1457
estern	-1458
hern	-1459
▁renewable	-1460
▁range	-1461
▁influ	-1462
▁demand	-1463
▁start	-1464
▁along	-1465
▁auth	-1466
▁According	-1467
▁achie	-1468
▁cat	-1469
▁Canada	-1470
▁bl	-1471
ley	-1472
▁Agricult	-1473
▁lit	-1474
▁References	-1475
▁Ge	-1476
▁announ	-1477
▁events	-1478
▁Oct	-1479
▁second	-1480
▁indic	-1481
▁'	-1482
▁source	-1483
itud	-1484
▁industrial	-1485
▁obs	-1486
▁organic	-1487
▁policies	-1488
▁fuels	-1489
▁fish	-1490
▁December	-1491
pecially	-1492
▁Nations	-1493
outher	-1494
▁dise	-1495
▁communities	-1496
▁political	-1497
▁against	-1498
▁various	-1499
▁farming	-1500
▁developing	-1501
ued	-1502
atory	-1503
▁sector	-1504
ream	-1505
▁effort	-1506
▁technology	-1507
par	-1508
▁individ	-1509
▁IPCC	-1510
▁order	-1511
imes	-1512
inks	-1513
▁radi	-1514
ederal	-1515
▁ir	-1516
ili	-1517
ran	-1518
▁provid	-1519
▁Sea	-1520
orthern	-1521
ool	-1522
outhern	-1523
▁del	-1524
cipitation	-1525
▁now	-1526
put	-1527
▁ele	-1528
icial	-1529
aim	-1530
▁capacity	-1531
▁Research	-1532
▁scientists	-1533
ats	-1534
▁meet	-1535
▁still	-1536
ero	-1537
ators	-1538
sp	-1539
iqu	-1540
▁led	-1541
.,	-1542
▁mo	-1543
isms	-1544
orestation	-1545
▁Sustain	-1546
ah	-1547
▁Sh	-1548
▁press	-1549
ublic	-1550
iven	-1551
ird	-1552
▁four	-1553
be	-1554
istor	-1555
▁mass	-1556
▁annual	-1557
ify	-1558
▁subs	-1559
▁flow	-1560
▁extreme	-1561
▁last	-1562
▁fl	-1563
▁Instit	-1564
▁efficiency	-1565
▁activities	-1566
▁km	-1567
to	-1568
▁place	-1569
▁groups	-1570
▁EU	-1571
▁run	-1572
ffici	-1573
▁access	-1574
▁fil	-1575
▁materials	-1576
▁pat	-1577
▁Part	-1578
▁experi	-1579
▁See	-1580
▁describ	-1581
▁projects	-1582
ense	-1583
▁mult	-1584
▁Water	-1585
▁October	-1586
ptember	-1587
▁studies	-1588
▁similar	-1589
▁though	-1590
overnment	-1591
▁claim	-1592
▁became	-1593
▁few	-1594
▁expected	-1595
wards	-1596
ufact	-1597
anuary	-1598
ulf	-1599
▁associated	-1600
ites	-1601
ilities	-1602
▁fre	-1603
▁gra	-1604
▁available	-1605
▁season	-1606
oot	-1607
▁announced	-1608
▁Ju	-1609
▁rece	-1610
▁wild	-1611
▁address	-1612
atives	-1613
▁least	-1614
bs	-1615
▁past	-1616
▁farmers	-1617
▁gla	-1618
utions	-1619
▁June	-1620
▁manufact	-1621
▁ident	-1622
▁animals	-1623
rought	-1624
▁especially	-1625
minist	-1626
yn	-1627
▁lab	-1628
▁Development	-1629
▁Jo	-1630
▁hal	-1631
▁Q	-1632
lish	-1633
▁related	-1634
▁emp	-1635
gency	-1636
pid	-1637
ades	-1638
▁tons	-1639
▁January	-1640
▁day	-1641
▁reduced	-1642
▁introdu	-1643
ances	-1644
▁what	-1645
▁forests	-1646
▁without	-1647
road	-1648
▁way	-1649
▁services	-1650
▁September	-1651
▁standards	-1652
▁event	-1653
▁Report	-1654
▁precipitation	-1655
▁evidence	-1656
▁back	-1657
▁her	-1658
ands	-1659
▁top	-1660
ave	-1661
▁cal	-1662
xt	-1663
▁relative	-1664
▁began	-1665
▁dest	-1666
▁cities	-1667
ging	-1668
ovember	-1669
ologies	-1670
aper	-1671
▁emission	-1672
▁diff	-1673
▁month	-1674
▁Carbon	-1675
▁strong	-1676
▁reducing	-1677
▁compared	-1678
most	-1679
ior	-1680
▁abs	-1681
erest	-1682
▁lo	-1683
▁circ	-1684
▁July	-1685
▁Union	-1686
▁nut	-1687
▁Brit	-1688
▁following	-1689
▁considered	-1690
▁reported	-1691
▁Le	-1692
ively	-1693
▁unt	-1694
nes	-1695
▁Econom	-1696
rated	-1697
▁ecosystems	-1698
▁prof	-1699
eds	-1700
cer	-1701
▁mid	-1702
▁nit	-1703
▁take	-1704
▁November	-1705
ai	-1706
▁measure	-1707
▁information	-1708
▁ter	-1709
by	-1710
▁Institute	-1711
▁extinction	-1712
▁subst	-1713
▁Tr	-1714
ysis	-1715
▁heav	-1716
▁below	-1717
▁Other	-1718
ctions	-1719
▁rainfall	-1720
▁By	-1721
ntar	-1722
vious	-1723
▁Comp	-1724
▁generation	-1725
vest	-1726
▁improve	-1727
▁March	-1728
▁model	-1729
▁negative	-1730
vere	-1731
▁every	-1732
pping	-1733
▁above	-1734
▁Sc	-1735
chan	-1736
▁marine	-1737
▁history	-1738
ivity	-1739
pril	-1740
▁et	-1741
▁Col	-1742
ining	-1743
ier	-1744
▁commit	-1745
▁includes	-1746
aining	-1747
ious	-1748
▁Air	-1749
ta	-1750
ival	-1751
med	-1752
razil	-1753
▁UK	-1754
▁fert	-1755
rastructure	-1756
▁does	-1757
▁observ	-1758
▁She	-1759
▁city	-1760
▁Arctic	-1761
itor	-1762
▁eth	-1763
ulner	-1764
ibility	-1765
CO	-1766
mal	-1767
▁bur	-1768
aun	-1769
▁ric	-1770
▁open	-1771
▁making	-1772
ott	-1773
▁practices	-1774
▁Ass	-1775
▁Mar	-1776
aster	-1777
▁Russ	-1778
▁bre	-1779
itional	-1780
▁saf	-1781
▁biodiversity	-1782
wide	-1783
izations	-1784
▁proper	-1785
ogen	-1786
rate	-1787
▁clim	-1788
▁ox	-1789
▁created	-1790
▁included	-1791
▁dry	-1792
▁wide	-1793
▁links	-1794
▁habit	-1795
▁methods	-1796
▁represent	-1797
ccess	-1798
eth	-1799
ably	-1800
▁Brazil	-1801
yl	-1802
ields	-1803
ising	-1804
▁April	-1805
▁recyc	-1806
cil	-1807
▁trade	-1808
▁factors	-1809
ximately	-1810
▁security	-1811
▁did	-1812
▁processes	-1813
▁affected	-1814
ional	-1815
▁later	-1816
of	-1817
▁gr	-1818
▁increases	-1819
▁greater	-1820
▁beli	-1821
▁&	-1822
▁required	-1823
▁ado	-1824
▁mem	-1825
aken	-1826
▁cell	-1827
▁activity	-1828
▁finan	-1829
▁possible	-1830
▁price	-1831
▁particularly	-1832
resh	-1833
▁aim	-1834
▁Cons	-1835
▁community	-1836
▁Asia	-1837
▁Science	-1838
ler	-1839
let	-1840
▁proposed	-1841
▁rapid	-1842
▁tropical	-1843
▁York	-1844
▁stor	-1845
▁Te	-1846
▁Eng	-1847
onse	-1848
▁cycle	-1849
▁until	-1850
▁beh	-1851
amb	-1852
rict	-1853
▁pollut	-1854
▁role	-1855
▁chall	-1856
▁par	-1857
ugust	-1858
cies	-1859
▁wet	-1860
▁dra	-1861
ouncil	-1862
▁animal	-1863
erous	-1864
▁parts	-1865
icult	-1866
▁engine	-1867
oid	-1868
▁One	-1869
▁bio	-1870
▁sch	-1871
orpor	-1872
inc	-1873
ership	-1874
rogen	-1875
▁sustainability	-1876
enn	-1877
for	-1878
▁plast	-1879
▁construction	-1880
work	-1881
▁mean	-1882
▁Man	-1883
equ	-1884
incip	-1885
▁elect	-1886
stand	-1887
▁ton	-1888
▁Commission	-1889
▁mitigation	-1890
oto	-1891
▁dr	-1892
ocol	-1893
▁ecological	-1894
▁=	-1895
oint	-1896
cl	-1897
▁Med	-1898
aging	-1899
▁Sp	-1900
ects	-1901
▁late	-1902
▁consider	-1903
▁gu	-1904
▁great	-1905
▁Program	-1906
sue	-1907
iger	-1908
ales	-1909
▁interest	-1910
light	-1911
▁critic	-1912
▁adaptation	-1913
side	-1914
▁di	-1915
term	-1916
▁women	-1917
▁vulner	-1918
ont	-1919
▁shif	-1920
▁see	-1921
partment	-1922
sh	-1923
▁IS	-1924
▁August	-1925
▁coastal	-1926
ready	-1927
▁north	-1928
ulated	-1929
▁eas	-1930
▁treat	-1931
▁determ	-1932
▁damage	-1933
day	-1934
▁growing	-1935
▁infrastructure	-1936
hers	-1937
▁fam	-1938
▁view	-1939
▁recent	-1940
duct	-1941
▁External	-1942
▁cover	-1943
▁lack	-1944
▁To	-1945
▁Department	-1946
▁fall	-1947
▁results	-1948
▁good	-1949
▁atmospheric	-1950
▁Imp	-1951
▁Sustainable	-1952
ull	-1953
ensity	-1954
▁frequ	-1955
▁previous	-1956
▁reach	-1957
▁case	-1958
▁Trans	-1959
▁Ky	-1960
▁tr	-1961
iment	-1962
▁half	-1963
▁generally	-1964
gress	-1965
iance	-1966
throp	-1967
▁mic	-1968
acific	-1969
▁limit	-1970
▁summer	-1971
▁released	-1972
▁review	-1973
▁measures	-1974
▁Reg	-1975
▁efforts	-1976
▁humans	-1977
▁already	-1978
▁success	-1979
▁bar	-1980
▁deb	-1981
eal	-1982
▁value	-1983
▁response	-1984
fu	-1985
ills	-1986
ebru	-1987
aces	-1988
▁mining	-1989
▁however	-1990
▁established	-1991
▁hydrogen	-1992
▁repl	-1993
▁Ocean	-1994
▁State	-1995
▁priv	-1996
ebruary	-1997
▁cooling	-1998
ik	-1999
omm	-2000
aged	-2001
▁emit	-2002
▁snow	-2003
yd	-2004
▁commer	-2005
▁bod	-2006
▁fun	-2007
▁rates	-2008
epend	-2009
ither	-2010
▁veget	-2011
▁leading	-2012
▁light	-2013
▁ide	-2014
▁technologies	-2015
ico	-2016
▁mig	-2017
▁create	-2018
▁Sw	-2019
ourt	-2020
ges	-2021
▁storm	-2022
▁approximately	-2023
▁altern	-2024
▁models	-2025
ramew	-2026
▁means	-2027
▁employ	-2028
▁certain	-2029
iliz	-2030
▁prevent	-2031
HG	-2032
▁war	-2033
hest	-2034
▁EPA	-2035
▁Food	-2036
▁coll	-2037
aries	-2038
▁camp	-2039
▁approach	-2040
ourn	-2041
ister	-2042
arily	-2043
▁author	-2044
ym	-2045
▁analysis	-2046
▁With	-2047
▁mechan	-2048
estock	-2049
lies	-2050
▁general	-2051
▁February	-2052
less	-2053
pted	-2054
ories	-2055
▁south	-2056
▁winter	-2057
▁space	-2058
▁flu	-2059
▁degrad	-2060
▁initi	-2061
▁issue	-2062
▁scale	-2063
▁five	-2064
ention	-2065
▁federal	-2066
▁usually	-2067
▁know	-2068
▁field	-2069
▁modern	-2070
▁Car	-2071
ntarctic	-2072
▁deforestation	-2073
▁class	-2074
etro	-2075
▁specific	-2076
▁blo	-2077
▁Ec	-2078
▁Pres	-2079
▁Sch	-2080
eline	-2081
▁pestic	-2082
▁Bo	-2083
▁fail	-2084
▁problems	-2085
▁subsid	-2086
▁clean	-2087
▁Pacific	-2088
ministration	-2089
ored	-2090
▁phys	-2091
▁others	-2092
▁former	-2093
dle	-2094
▁irr	-2095
ID	-2096
▁organizations	-2097
▁cut	-2098
ocene	-2099
hold	-2100
▁rather	-2101
▁den	-2102
▁Paris	-2103
▁protect	-2104
▁Em	-2105
▁days	-2106
▁risks	-2107
ush	-2108
▁harm	-2109
▁Inter	-2110
▁glaci	-2111
▁pattern	-2112
▁Antarctic	-2113
▁free	-2114
▁Organ	-2115
▁histor	-2116
▁protection	-2117
▁expl	-2118
▁resulting	-2119
cks	-2120
▁artic	-2121
▁members	-2122
▁pressure	-2123
emic	-2124
▁emer	-2125
▁kil	-2126
▁mix	-2127
▁[	-2128
istry	-2129
ledge	-2130
▁educ	-2131
igen	-2132
▁lay	-2133
ument	-2134
▁History	-2135
aign	-2136
▁reserv	-2137
▁conservation	-2138
ison	-2139
▁Me	-2140
inated	-2141
▁stated	-2142
▁princip	-2143
▁trend	-2144
▁another	-2145
▁foot	-2146
▁Agriculture	-2147
▁ant	-2148
▁gen	-2149
▁instit	-2150
▁storage	-2151
assic	-2152
▁inse	-2153
▁particip	-2154
ulate	-2155
▁Per	-2156
iesel	-2157
osure	-2158
▁responsible	-2159
▁Rep	-2160
▁Group	-2161
▁applic	-2162
▁live	-2163
▁While	-2164
▁minim	-2165
▁compet	-2166
go	-2167
▁book	-2168
▁given	-2169
ways	-2170
▁child	-2171
▁benefits	-2172
▁key	-2173
osion	-2174
▁Council	-2175
▁Cont	-2176
rations	-2177
▁Germany	-2178
SA	-2179
▁terms	-2180
igenous	-2181
xic	-2182
ores	-2183
▁scen	-2184
▁living	-2185
▁agreement	-2186
▁Plan	-2187
▁maint	-2188
ana	-2189
▁severe	-2190
▁movement	-2191
aters	-2192
hn	-2193
isl	-2194
lied	-2195
▁port	-2196
▁concept	-2197
▁perform	-2198
▁integ	-2199
▁acid	-2200
▁poor	-2201
▁types	-2202
omes	-2203
▁cold	-2204
▁British	-2205
zone	-2206
▁far	-2207
▁primary	-2208
iber	-2209
▁towards	-2210
▁difficult	-2211
▁All	-2212
▁paper	-2213
use	-2214
itude	-2215
print	-2216
▁concerns	-2217
▁reef	-2218
▁decrease	-2219
▁Assessment	-2220
ape	-2221
ynt	-2222
▁sun	-2223
▁broad	-2224
▁nature	-2225
reg	-2226
▁Gu	-2227
▁trees	-2228
ogn	-2229
▁fore	-2230
aves	-2231
enced	-2232
▁domestic	-2233
...	-2234
pro	-2235
▁Since	-2236
fficient	-2237
▁Fin	-2238
▁belie	-2239
ournal	-2240
▁collect	-2241
▁according	-2242
oph	-2243
▁cars	-2244
▁larger	-2245
▁distribution	-2246
ramework	-2247
▁Tur	-2248
▁har	-2249
▁thus	-2250
aced	-2251
▁River	-2252
▁clo	-2253
▁rights	-2254
▁directly	-2255
ead	-2256
▁East	-2257
mon	-2258
▁consequ	-2259
▁conclud	-2260
back	-2261
▁Mex	-2262
▁almost	-2263
▁regard	-2264
▁Further	-2265
▁commercial	-2266
▁Des	-2267
▁programs	-2268
▁causes	-2269
▁although	-2270
apan	-2271
▁share	-2272
%.	-2273
▁enc	-2274
▁ther	-2275
▁Many	-2276
▁conn	-2277
▁typically	-2278
▁sed	-2279
ially	-2280
▁Hum	-2281
ask	-2282
apor	-2283
▁mount	-2284
▁somet	-2285
▁livestock	-2286
▁nations	-2287
▁resource	-2288
BN	-2289
▁limited	-2290
▁necess	-2291
ptions	-2292
▁death	-2293
related	-2294
▁capital	-2295
▁mel	-2296
▁clear	-2297
▁President	-2298
▁film	-2299
isions	-2300
ogenic	-2301
▁better	-2302
▁When	-2303
▁either	-2304
▁populations	-2305
▁exce	-2306
fer	-2307
▁Net	-2308
▁campaign	-2309
▁sing	-2310
▁governments	-2311
▁significantly	-2312
unt	-2313
pped	-2314
▁GHG	-2315
▁hot	-2316
▁held	-2317
▁During	-2318
▁challeng	-2319
dom	-2320
▁regional	-2321
▁decl	-2322
oura	-2323
▁transportation	-2324
▁depos	-2325
▁==	-2326
▁cred	-2327
▁begin	-2328
tee	-2329
▁coral	-2330
ris	-2331
▁person	-2332
year	-2333
▁house	-2334
▁convention	-2335
▁pip	-2336
▁list	-2337
▁doc	-2338
vert	-2339
.;	-2340
ables	-2341
ached	-2342
▁farms	-2343
▁entire	-2344
▁Protocol	-2345
▁pay	-2346
▁financial	-2347
cast	-2348
ient	-2349
▁King	-2350
pite	-2351
▁Inc	-2352
▁prices	-2353
▁northern	-2354
oy	-2355
▁br	-2356
▁our	-2357
aches	-2358
▁investment	-2359
):	-2360
lant	-2361
▁meat	-2362
▁Japan	-2363
▁contam	-2364
▁decision	-2365
▁export	-2366
ames	-2367
▁wood	-2368
pper	-2369
▁fire	-2370
▁head	-2371
▁rising	-2372
▁quant	-2373
anol	-2374
▁John	-2375
▁acqu	-2376
▁ins	-2377
ygen	-2378
▁hand	-2379
▁slow	-2380
▁discuss	-2381
elf	-2382
▁plastic	-2383
▁strateg	-2384
▁prior	-2385
▁understand	-2386
▁character	-2387
CA	-2388
▁Polic	-2389
▁longer	-2390
▁private	-2391
▁read	-2392
▁seen	-2393
ashing	-2394
life	-2395
▁radiation	-2396
▁tend	-2397
▁unc	-2398
▁cris	-2399
▁link	-2400
▁having	-2401
▁relations	-2402
bor	-2403
action	-2404
▁absor	-2405
▁consist	-2406
▁vehicle	-2407
Wh	-2408
▁planet	-2409
▁Agreement	-2410
▁irrigation	-2411
ols	-2412
▁play	-2413
off	-2414
▁resid	-2415
▁worldwide	-2416
aur	-2417
▁nutri	-2418
▁buildings	-2419
ivil	-2420
▁cultiv	-2421
▁described	-2422
▁individual	-2423
▁uses	-2424
▁haz	-2425
anced	-2426
uation	-2427
▁fresh	-2428
▁needs	-2429
▁stat	-2430
▁tonnes	-2431
▁ISBN	-2432
▁Soci	-2433
▁needed	-2434
▁recogn	-2435
▁highest	-2436
▁mi	-2437
▁rice	-2438
▁test	-2439
▁throughout	-2440
▁erosion	-2441
▁Zeal	-2442
▁micro	-2443
▁Zealand	-2444
▁achieve	-2445
▁river	-2446
▁Mid	-2447
▁taken	-2448
▁existing	-2449
▁War	-2450
▁overall	-2451
▁Trump	-2452
▁close	-2453
▁southern	-2454
▁size	-2455
▁manufacture	-2456
ware	-2457
▁Cl	-2458
carbon	-2459
▁heavy	-2460
▁II	-2461
iter	-2462
▁Sol	-2463
▁old	-2464
▁third	-2465
▁thous	-2466
▁legisl	-2467
▁single	-2468
▁targets	-2469
▁official	-2470
On	-2471
▁ut	-2472
anges	-2473
▁researc	-2474
▁requires	-2475
▁CA	-2476
oper	-2477
▁promot	-2478
▁compar	-2479
▁central	-2480
▁able	-2481
▁operations	-2482
▁Most	-2483
▁refer	-2484
▁rat	-2485
▁type	-2486
▁perm	-2487
▁Protection	-2488
▁currently	-2489
ee	-2490
▁Red	-2491
▁continent	-2492
not	-2493
▁Fr	-2494
▁substant	-2495
▁El	-2496
▁goal	-2497
▁Agency	-2498
▁flooding	-2499
ending	-2500
lection	-2501
▁assess	-2502
▁expand	-2503
▁Great	-2504
▁built	-2505
▁plans	-2506
▁drought	-2507
self	-2508
▁forms	-2509
▁Center	-2510
▁working	-2511
▁decline	-2512
▁Although	-2513
ched	-2514
▁react	-2515
▁appear	-2516
▁ens	-2517
ours	-2518
▁clou	-2519
ned	-2520
hood	-2521
▁Kyoto	-2522
▁enough	-2523
▁additional	-2524
acy	-2525
▁disease	-2526
▁Ni	-2527
lier	-2528
like	-2529
▁mag	-2530
▁turn	-2531
ha	-2532
bed	-2533
oll	-2534
▁Pr	-2535
istance	-2536
▁Off	-2537
▁Bank	-2538
▁provides	-2539
▁maxim	-2540
▁West	-2541
▁original	-2542
▁Ma	-2543
▁standard	-2544
oming	-2545
▁nitrogen	-2546
loc	-2547
▁provided	-2548
▁introduced	-2549
ole	-2550
ensus	-2551
▁regulations	-2552
leg	-2553
▁release	-2554
▁vulnerable	-2555
izing	-2556
▁media	-2557
▁causing	-2558
▁mot	-2559
▁Arch	-2560
▁Law	-2561
▁variety	-2562
▁sk	-2563
ened	-2564
▁Mexico	-2565
▁corpor	-2566
▁reports	-2567
▁fertiliz	-2568
▁harvest	-2569
▁Pe	-2570
▁suggested	-2571
▁traditional	-2572
▁six	-2573
▁months	-2574
▁calc	-2575
▁Health	-2576
ps	-2577
ple	-2578
rest	-2579
▁writ	-2580
▁member	-2581
▁school	-2582
▁continue	-2583
ox	-2584
▁put	-2585
ules	-2586
verse	-2587
▁deep	-2588
▁degradation	-2589
char	-2590
▁observed	-2591
▁influence	-2592
▁estimates	-2593
▁avoid	-2594
▁goals	-2595
chnology	-2596
▁conduct	-2597
▁lat	-2598
▁steel	-2599
▁waters	-2600
▁decades	-2601
rete	-2602
ties	-2603
▁relatively	-2604
▁And	-2605
lantic	-2606
▁bound	-2607
▁object	-2608
▁periods	-2609
▁knowledge	-2610
▁ft	-2611
▁sw	-2612
▁More	-2613
ecut	-2614
▁ban	-2615
▁name	-2616
▁Su	-2617
abor	-2618
▁cycl	-2619
▁effective	-2620
▁footprint	-2621
irds	-2622
uals	-2623
▁society	-2624
vey	-2625
▁ways	-2626
anel	-2627
▁App	-2628
▁real	-2629
▁road	-2630
▁reflect	-2631
ots	-2632
reed	-2633
inking	-2634
DP	-2635
▁path	-2636
▁article	-2637
▁Bl	-2638
▁formed	-2639
▁spread	-2640
▁monitor	-2641
▁stations	-2642
▁highly	-2643
▁Gener	-2644
▁occurred	-2645
▁earth	-2646
▁separ	-2647
▁Impact	-2648
▁ozone	-2649
▁primarily	-2650
▁concentrations	-2651
asons	-2652
▁purch	-2653
NG	-2654
cret	-2655
▁attem	-2656
▁oxygen	-2657
▁content	-2658
▁Government	-2659
▁crisis	-2660
▁vis	-2661
▁little	-2662
▁Convention	-2663
▁complex	-2664
unic	-2665
▁aqu	-2666
▁Land	-2667
▁compon	-2668
▁sometimes	-2669
▁System	-2670
▁anthrop	-2671
oney	-2672
illed	-2673
▁whether	-2674
▁milk	-2675
▁pack	-2676
encies	-2677
illing	-2678
▁located	-2679
can	-2680
ode	-2681
▁Spe	-2682
▁Over	-2683
▁rural	-2684
▁stream	-2685
▁children	-2686
ortun	-2687
elling	-2688
▁might	-2689
▁multip	-2690
volution	-2691
▁subject	-2692
▁CE	-2693
itable	-2694
▁After	-2695
amed	-2696
▁contribute	-2697
ares	-2698
▁president	-2699
▁deal	-2700
raction	-2701
key	-2702
iving	-2703
▁Western	-2704
▁diseases	-2705
▁assessment	-2706
▁next	-2707
▁habitat	-2708
hol	-2709
▁education	-2710
▁transition	-2711
▁shown	-2712
▁feature	-2713
etic	-2714
▁special	-2715
▁Australian	-2716
ume	-2717
omass	-2718
▁Central	-2719
▁Human	-2720
▁burning	-2721
CE	-2722
ze	-2723
▁Natural	-2724
▁phot	-2725
▁actions	-2726
ids	-2727
▁cit	-2728
▁income	-2729
▁conflic	-2730
▁If	-2731
lying	-2732
▁arch	-2733
▁exposure	-2734
▁planning	-2735
▁mer	-2736
▁remov	-2737
▁patterns	-2738
▁Ab	-2739
▁We	-2740
ependent	-2741
▁majority	-2742
ributed	-2743
▁techniqu	-2744
▁laun	-2745
▁site	-2746
▁Forest	-2747
aps	-2748
▁Ac	-2749
▁Pre	-2750
▁Ste	-2751
▁Atlantic	-2752
ray	-2753
▁liqu	-2754
▁Project	-2755
▁alternative	-2756
amm	-2757
▁zero	-2758
▁Indian	-2759
ians	-2760
▁tru	-2761
usion	-2762
▁Direct	-2763
istic	-2764
▁home	-2765
▁defined	-2766
vant	-2767
▁post	-2768
▁concluded	-2769
▁say	-2770
ceans	-2771
▁Russia	-2772
▁ago	-2773
▁Court	-2774
▁Kingdom	-2775
▁heating	-2776
▁respect	-2777
▁establish	-2778
▁toget	-2779
isation	-2780
▁accept	-2781
▁stress	-2782
den	-2783
▁Press	-2784
▁encoura	-2785
▁together	-2786
▁facilities	-2787
▁sil	-2788
▁efficient	-2789
ext	-2790
▁Be	-2791
iner	-2792
▁ability	-2793
▁organisms	-2794
uth	-2795
▁art	-2796
ography	-2797
▁Company	-2798
▁ur	-2799
udget	-2800
▁therefore	-2801
▁matter	-2802
▁cattle	-2803
▁mainly	-2804
▁Economic	-2805
▁too	-2806
▁cases	-2807
▁colon	-2808
▁progress	-2809
▁continued	-2810
ama	-2811
▁sites	-2812
▁took	-2813
▁instead	-2814
▁nearly	-2815
▁funding	-2816
▁physical	-2817
▁complete	-2818
▁positive	-2819
▁	-2820
e	-2821
t	-2822
a	-2823
i	-2824
n	-2825
o	-2826
r	-2827
s	-2828
l	-2829
c	-2830
h	-2831
d	-2832
u	-2833
m	-2834
f	-2835
p	-2836
g	-2837
y	-2838
b	-2839
w	-2840
,	-2841
v	-2842
.	-2843
0	-2844
k	-2845
2	-2846
C	-2847
1	-2848
T	-2849
A	-2850
S	-2851
I	-2852
x	-2853
-	-2854
P	-2855
E	-2856
)	-2857
(	-2858
M	-2859
9	-2860
"	-2861
N	-2862
R	-2863
B	-2864
D	-2865
G	-2866
5	-2867
F	-2868
O	-2869
3	-2870
z	-2871
U	-2872
H	-2873
'	-2874
W	-2875
8	-2876
q	-2877
4	-2878
7	-2879
6	-2880
L	-2881
j	-2882
:	-2883
%	-2884
J	-2885
K	-2886
–	-2887
;	-2888
V	-2889
/	-2890
°	-2891
$	-2892
 	-2893
Y	-2894
Z	-2895
=	-2896
—	-2897
Q	-2898
&	-2899
’	-2900
]	-2901
[	-2902
+	-2903
X	-2904
{	-2905
}	-2906
\	-2907
é	-2908
−	-2909
“	-2910
”	-2911
?	-2912
ñ	-2913
ö	-2914
á	-2915
‘	-2916
~	-2917
€	-2918
ü	-2919
§	-2920
ó	-2921
í	-2922
£	-2923
•	-2924
×	-2925
_	-2926
ā	-2927
ä	-2928
±	-2929
!	-2930
^	-2931
#	-2932
⁄	-2933
ã	-2934
>	-2935
 	-2936
ø	-2937
ç	-2938
ı	-2939
→	-2940
<	-2941
·	-2942
ú	-2943
δ	-2944
ş	-2945
İ	-2946
è	-2947
*	-2948
|	-2949
μ	-2950
α	-2951
‑	-2952
σ	-2953
 	-2954
ô	-2955
ğ	-2956
ə	-2957
æ	-2958
…	-2959
ō	-2960
Δ	-2961
о	-2962
λ	-2963
ς	-2964
ʻ	-2965
ˈ	-2966
е	-2967
ê	-2968
и	-2969
р	-2970
а	-2971
ν	-2972
ο	-2973
É	-2974
à	-2975
ρ	-2976
′	-2977
τ	-2978
​	-2979
≈	-2980
Ö	-2981
Ş	-2982
″	-2983
н	-2984
₹	-2985
ا	-2986
²	-2987
â	-2988
ε	-2989
т	-2990
‐	-2991
š	-2992
ό	-2993
₂	-2994
θ	-2995
ι	-2996
π	-2997
³	-2998
ë	-2999
κ	-3000
Ü	-3001
å	-3002
с	-3003
µ	-3004
Ç	-3005
ū	-3006
Á	-3007
ē	-3008
ī	-3009
к	-3010
л	-3011
﻿	-3012
ʼ	-3013
ر	-3014
ل	-3015
˚	-3016
̇	-3017
γ	-3018
⋅	-3019
º	-3020
ý	-3021
ł	-3022
ð	-3023
ː	-3024
в	-3025
‰	-3026
ć	-3027
η	-3028
م	-3029
ư	-3030
∂	-3031
ά	-3032
й	-3033
†	-3034
®	-3035
ï	-3036
ʁ	-3037
д	-3038
м	-3039
ب	-3040
č	-3041
Đ	-3042
ơ	-3043
ɐ	-3044
ω	-3045
و	-3046
⁡	-3047
¢	-3048
î	-3049
ò	-3050
ń	-3051
ŭ	-3052
ί	-3053
≥	-3054
¯	-3055
ì	-3056
ˌ	-3057
β	-3058
د	-3059
س	-3060
ي	-3061
⟶	-3062
ġ	-3063
ʊ	-3064
ی	-3065
ả	-3066
∗	-3067
@	-3068
Ø	-3069
ß	-3070
ă	-3071
ɛ	-3072
з	-3073
ن	-3074
ᵒ	-3075
₿	-3076
Î	-3077
ɑ	-3078
ύ	-3079
་	-3080
ậ	-3081
△	-3082
ș	-3083
ɪ	-3084
́	-3085
̯	-3086
υ	-3087
φ	-3088
С	-3089
г	-3090
п	-3091
ה	-3092
´	-3093
đ	-3094
Š	-3095
ɔ	-3096
ʃ	-3097
ʷ	-3098
έ	-3099
А	-3100
у	-3101
ت	-3102
ح	-3103
ि	-3104
်	-3105
ḥ	-3106
ắ	-3107
⇌	-3108
豆	-3109
Å	-3110
õ	-3111
Ō	-3112
ɡ	-3113
ζ	-3114
ξ	-3115
ϕ	-3116
К	-3117
ы	-3118
ق	-3119
म	-3120
ह	-3121
ก	-3122
ร	-3123
า	-3124
ა	-3125
ệ	-3126
ἡ	-3127
♭	-3128
♯	-3129
山	-3130
`	-3131
¤	-3132
û	-3133
ʲ	-3134
͡	-3135
Π	-3136
ή	-3137
ط	-3138
ा	-3139
း	-3140
ṭ	-3141
ớ	-3142
⁠	-3143
≡	-3144
⊗	-3145
ą	-3146
ŋ	-3147
ś	-3148
ɾ	-3149
̃	-3150
Θ	-3151
ϵ	-3152
П	-3153
б	-3154
ч	-3155
י	-3156
ز	-3157
्	-3158
อ	-3159
န	-3160
ḷ	-3161
ộ	-3162
↽	-3163
⇀	-3164
≤	-3165
股	-3166
산	-3167
½	-3168
Ā	-3169
ĩ	-3170
œ	-3171
ũ	-3172
ž	-3173
ƒ	-3174
ɫ	-3175
ɯ	-3176
ɲ	-3177
˙	-3178
Ε	-3179
Б	-3180
Г	-3181
я	-3182
ُ	-3183
ہ	-3184
र	-3185
ल	-3186
व	-3187
ห	-3188
เ	-3189
ང	-3190
ზ	-3191
უ	-3192
ღ	-3193
ᒋ	-3194
ạ	-3195
ἄ	-3196
ῆ	-3197
‒	-3198
―	-3199
„	-3200
™	-3201
∑	-3202
⬚	-3203
・	-3204
神	-3205
華	-3206
限	-3207
강	-3208
금	-3209
ù	-3210
þ	-3211
Č	-3212
ę	-3213
ŏ	-3214
ţ	-3215
ŷ	-3216
ǎ	-3217
ɣ	-3218
ˀ	-3219
Μ	-3220
ψ	-3221
ώ	-3222
ϖ	-3223
И	-3224
М	-3225
Р	-3226
Х	-3227
Ч	-3228
ц	-3229
ш	-3230
ь	-3231
ю	-3232
і	-3233
ד	-3234
ו	-3235
ם	-3236
מ	-3237
ן	-3238
أ	-3239
ش	-3240
ك	-3241
ه	-3242
َ	-3243
ِ	-3244
य	-3245
া	-3246
ด	-3247
บ	-3248
ག	-3249
ས	-3250
ရ	-3251
ာ	-3252
ေ	-3253
ᑭ	-3254
ᑲ	-3255
ᒥ	-3256
ị	-3257
ố	-3258
ồ	-3259
ổ	-3260
ἀ	-3261
Ἀ	-3262
ῖ	-3263
↑	-3264
∫	-3265
⟨	-3266
⟩	-3267
亜	-3268
公	-3269
司	-3270
有	-3271
Ꞓ	-3272
계	-3273
한	-3274
¥	-3275
©	-3276
«	-3277
¶	-3278
»	-3279
Ú	-3280
ė	-3281
Ł	-3282
Ś	-3283
ų	-3284
ǐ	-3285
ǫ	-3286
ț	-3287
ȳ	-3288
ɨ	-3289
ɵ	-3290
ʋ	-3291
ʰ	-3292
ʾ	-3293
ʿ	-3294
̀	-3295
̊	-3296
̩	-3297
Β	-3298
Σ	-3299
Φ	-3300
Ω	-3301
χ	-3302
В	-3303
Е	-3304
З	-3305
Н	-3306
О	-3307
У	-3308
ф	-3309
ъ	-3310
ң	-3311
ү	-3312
ӏ	-3313
א	-3314
כ	-3315
ת	-3316
ة	-3317
ع	-3318
ى	-3319
ّ	-3320
ْ	-3321
ख	-3322
त	-3323
स	-3324
ন	-3325
ব	-3326
ম	-3327
র	-3328
ল	-3329
্	-3330
ค	-3331
ง	-3332
จ	-3333
น	-3334
ะ	-3335
็	-3336
์	-3337
ལ	-3338
ེ	-3339
ོ	-3340
က	-3341
င	-3342
တ	-3343
ဝ	-3344
သ	-3345
ိ	-3346
ვ	-3347
ი	-3348
ს	-3349
ḍ	-3350
ḗ	-3351
ṣ	-3352
ấ	-3353
ầ	-3354
ằ	-3355
ọ	-3356
ữ	-3357
Ἄ	-3358
ἠ	-3359
ἰ	-3360
ἱ	-3361
ὴ	-3362
ῥ	-3363
ῷ	-3364
‌	-3365
‍	-3366
⁰	-3367
⅓	-3368
⅔	-3369
≃	-3370
中	-3371
份	-3372
力	-3373
喜	-3374
國	-3375
拉	-3376
林	-3377
枝	-3378
楓	-3379
油	-3380
浆	-3381
港	-3382
源	-3383
生	-3384
能	-3385
脉	-3386
行	-3387
雅	-3388
電	-3389
香	-3390
骨	-3391
구	-3392
국	-3393
농	-3394
박	-3395
원	-3396
지	-3397
콩	-3398
𐭤	-3399
𐭩	-3400
𐭫	-3401
¬	-3402
¸	-3403
Â	-3404
Ä	-3405
Ó	-3406
÷	-3407
Ć	-3408
ě	-3409
ň	-3410
ő	-3411
ř	-3412
ŝ	-3413
ź	-3414
Ż	-3415
ż	-3416
Ž	-3417
ǒ	-3418
ǔ	-3419
ɒ	-3420
ɕ	-3421
ɘ	-3422
ɜ	-3423
ɦ	-3424
ɳ	-3425
ɶ	-3426
ɻ	-3427
ʂ	-3428
ʈ	-3429
ʉ	-3430
ʏ	-3431
ʒ	-3432
ʔ	-3433
ʽ	-3434
ˉ	-3435
̂	-3436
̄	-3437
̌	-3438
̝	-3439
̧	-3440
̪	-3441
Ά	-3442
Α	-3443
Γ	-3444
Ν	-3445
Τ	-3446
Υ	-3447
Д	-3448
Л	-3449
Т	-3450
Ф	-3451
Ш	-3452
ж	-3453
щ	-3454
э	-3455
ё	-3456
қ	-3457
ә	-3458
ӯ	-3459
Ս	-3460
ե	-3461
ծ	-3462
ո	-3463
վ	-3464
ւ	-3465
ג	-3466
ז	-3467
ח	-3468
ל	-3469
ע	-3470
ץ	-3471
ר	-3472
خ	-3473
ض	-3474
غ	-3475
ٔ	-3476
ٱ	-3477
ک	-3478
ھ	-3479
ं	-3480
आ	-3481
ज	-3482
ड	-3483
ण	-3484
ध	-3485
न	-3486
प	-3487
श	-3488
े	-3489
ত	-3490
দ	-3491
প	-3492
য	-3493
স	-3494
হ	-3495
়	-3496
ি	-3497
ু	-3498
ਤ	-3499
ਬ	-3500
ਮ	-3501
ਸ	-3502
ਾ	-3503
ੀ	-3504
ම	-3505
ය	-3506
ල	-3507
හ	-3508
ා	-3509
ි	-3510
ช	-3511
ซ	-3512
ถ	-3513
ผ	-3514
ม	-3515
ั	-3516
ิ	-3517
ื	-3518
๊	-3519
།	-3520
ཅ	-3521
ན	-3522
པ	-3523
མ	-3524
ཙ	-3525
ཡ	-3526
ཧ	-3527
ི	-3528
ྗ	-3529
စ	-3530
ဌ	-3531
ထ	-3532
ပ	-3533
မ	-3534
ီ	-3535
့	-3536
ျ	-3537
ြ	-3538
ှ	-3539
ე	-3540
პ	-3541
რ	-3542
შ	-3543
ჩ	-3544
ᐁ	-3545
ᐅ	-3546
ᐊ	-3547
ᐦ	-3548
ᐧ	-3549
ᐯ	-3550
ᑉ	-3551
ᓂ	-3552
ᓈ	-3553
ᔑ	-3554
ᵻ	-3555
ḕ	-3556
Ḳ	-3557
ṓ	-3558
ṛ	-3559
Ṣ	-3560
ẹ	-3561
ế	-3562
ề	-3563
ễ	-3564
ỏ	-3565
ờ	-3566
ở	-3567
ụ	-3568
ừ	-3569
ự	-3570
ỹ	-3571
ἔ	-3572
ἵ	-3573
Ἰ	-3574
ὀ	-3575
ὁ	-3576
ὄ	-3577
ὅ	-3578
ὐ	-3579
ὔ	-3580
ὕ	-3581
Ὠ	-3582
ᾶ	-3583
ῦ	-3584
Ῥ	-3585
ῶ	-3586
 	-3587
 	-3588
‎	-3589
‚	-3590
‟	-3591
⁣	-3592
₱	-3593
₳	-3594
∆	-3595
∇	-3596
∝	-3597
≳	-3598
こ	-3599
と	-3600
の	-3601
べ	-3602
一	-3603
上	-3604
业	-3605
京	-3606
企	-3607
億	-3608
光	-3609
入	-3610
刑	-3611
剛	-3612
动	-3613
华	-3614
史	-3615
味	-3616
噌	-3617
士	-3618
天	-3619
奶	-3620
妙	-3621
定	-3622
岳	-3623
希	-3624
年	-3625
底	-3626
建	-3627
成	-3628
括	-3629
指	-3630
數	-3631
日	-3632
旬	-3633
書	-3634
期	-3635
構	-3636
樂	-3637
死	-3638
殿	-3639
水	-3640
池	-3641
沈	-3642
波	-3643
津	-3644
海	-3645
涼	-3646
漲	-3647
漿	-3648
燈	-3649
爭	-3650
産	-3651
發	-3652
皆	-3653
盘	-3654
祥	-3655
築	-3656
粉	-3657
納	-3658
級	-3659
紫	-3660
細	-3661
肉	-3662
腐	-3663
舂	-3664
苔	-3665
菜	-3666
萊	-3667
蓬	-3668
薬	-3669
計	-3670
設	-3671
議	-3672
诌	-3673
豉	-3674
赤	-3675
農	-3676
造	-3677
都	-3678
酒	-3679
醤	-3680
金	-3681
鋼	-3682
鐵	-3683
锂	-3684
隊	-3685
音	-3686
預	-3687
首	-3688
馬	-3689
马	-3690
黄	-3691
齐	-3692
ꞌ	-3693
개	-3694
경	-3695
골	-3696
김	-3697
나	-3698
내	-3699
너	-3700
들	-3701
딩	-3702
래	-3703
량	-3704
로	-3705
림	-3706
물	-3707
본	-3708
봉	-3709
빌	-3710
세	-3711
속	-3712
스	-3713
악	-3714
업	-3715
에	-3716
엑	-3717
연	-3718
외	-3719
우	-3720
울	-3721
의	-3722
제	-3723
조	-3724
촌	-3725
통	-3726
풍	-3727
ﺁ	-3728
𐀀	-3729
𐀊	-3730
𐀯	-3731
𐀹	-3732
𐭥	-3733
𐭦	-3734
𐭬	-3735
𒀸	-3736
𒉿	-3737
𒋗	-3738
𝛅	-3739
𝛾	-3740
