<unk>	0
<s>	0
</s>	0
<0x00>	0
<0x01>	0
<0x02>	0
<0x03>	0
<0x04>	0
<0x05>	0
<0x06>	0
<0x07>	0
<0x08>	0
<0x09>	0
<0x0A>	0
<0x0B>	0
<0x0C>	0
<0x0D>	0
<0x0E>	0
<0x0F>	0
<0x10>	0
<0x11>	0
<0x12>	0
<0x13>	0
<0x14>	0
<0x15>	0
<0x16>	0
<0x17>	0
<0x18>	0
<0x19>	0
<0x1A>	0
<0x1B>	0
<0x1C>	0
<0x1D>	0
<0x1E>	0
<0x1F>	0
<0x20>	0
<0x21>	0
<0x22>	0
<0x23>	0
<0x24>	0
<0x25>	0
<0x26>	0
<0x27>	0
<0x28>	0
<0x29>	0
<0x2A>	0
<0x2B>	0
<0x2C>	0
<0x2D>	0
<0x2E>	0
<0x2F>	0
<0x30>	0
<0x31>	0
<0x32>	0
<0x33>	0
<0x34>	0
<0x35>	0
<0x36>	0
<0x37>	0
<0x38>	0
<0x39>	0
<0x3A>	0
<0x3B>	0
<0x3C>	0
<0x3D>	0
<0x3E>	0
<0x3F>	0
<0x40>	0
<0x41>	0
<0x42>	0
<0x43>	0
<0x44>	0
<0x45>	0
<0x46>	0
<0x47>	0
<0x48>	0
<0x49>	0
<0x4A>	0
<0x4B>	0
<0x4C>	0
<0x4D>	0
<0x4E>	0
<0x4F>	0
<0x50>	0
<0x51>	0
<0x52>	0
<0x53>	0
<0x54>	0
<0x55>	0
<0x56>	0
<0x57>	0
<0x58>	0
<0x59>	0
<0x5A>	0
<0x5B>	0
<0x5C>	0
<0x5D>	0
<0x5E>	0
<0x5F>	0
<0x60>	0
<0x61>	0
<0x62>	0
<0x63>	0
<0x64>	0
<0x65>	0
<0x66>	0
<0x67>	0
<0x68>	0
<0x69>	0
<0x6A>	0
<0x6B>	0
<0x6C>	0
<0x6D>	0
<0x6E>	0
<0x6F>	0
<0x70>	0
<0x71>	0
<0x72>	0
<0x73>	0
<0x74>	0
<0x75>	0
<0x76>	0
<0x77>	0
<0x78>	0
<0x79>	0
<0x7A>	0
<0x7B>	0
<0x7C>	0
<0x7D>	0
<0x7E>	0
<0x7F>	0
<0x80>	0
<0x81>	0
<0x82>	0
<0x83>	0
<0x84>	0
<0x85>	0
<0x86>	0
<0x87>	0
<0x88>	0
<0x89>	0
<0x8A>	0
<0x8B>	0
<0x8C>	0
<0x8D>	0
<0x8E>	0
<0x8F>	0
<0x90>	0
<0x91>	0
<0x92>	0
<0x93>	0
<0x94>	0
<0x95>	0
<0x96>	0
<0x97>	0
<0x98>	0
<0x99>	0
<0x9A>	0
<0x9B>	0
<0x9C>	0
<0x9D>	0
<0x9E>	0
<0x9F>	0
<0xA0>	0
<0xA1>	0
<0xA2>	0
<0xA3>	0
<0xA4>	0
<0xA5>	0
<0xA6>	0
<0xA7>	0
<0xA8>	0
<0xA9>	0
<0xAA>	0
<0xAB>	0
<0xAC>	0
<0xAD>	0
<0xAE>	0
<0xAF>	0
<0xB0>	0
<0xB1>	0
<0xB2>	0
<0xB3>	0
<0xB4>	0
<0xB5>	0
<0xB6>	0
<0xB7>	0
<0xB8>	0
<0xB9>	0
<0xBA>	0
<0xBB>	0
<0xBC>	0
<0xBD>	0
<0xBE>	0
<0xBF>	0
<0xC0>	0
<0xC1>	0
<0xC2>	0
<0xC3>	0
<0xC4>	0
<0xC5>	0
<0xC6>	0
<0xC7>	0
<0xC8>	0
<0xC9>	0
<0xCA>	0
<0xCB>	0
<0xCC>	0
<0xCD>	0
<0xCE>	0
<0xCF>	0
<0xD0>	0
<0xD1>	0
<0xD2>	0
<0xD3>	0
<0xD4>	0
<0xD5>	0
<0xD6>	0
<0xD7>	0
<0xD8>	0
<0xD9>	0
<0xDA>	0
<0xDB>	0
<0xDC>	0
<0xDD>	0
<0xDE>	0
<0xDF>	0
<0xE0>	0
<0xE1>	0
<0xE2>	0
<0xE3>	0
<0xE4>	0
<0xE5>	0
<0xE6>	0
<0xE7>	0
<0xE8>	0
<0xE9>	0
<0xEA>	0
<0xEB>	0
<0xEC>	0
<0xED>	0
<0xEE>	0
<0xEF>	0
<0xF0>	0
<0xF1>	0
<0xF2>	0
<0xF3>	0
<0xF4>	0
<0xF5>	0
<0xF6>	0
<0xF7>	0
<0xF8>	0
<0xF9>	0
<0xFA>	0
<0xFB>	0
<0xFC>	0
<0xFD>	0
<0xFE>	0
<0xFF>	0
▁t	-0
▁a	-1
in	-2
he	-3
on	-4
re	-5
at	-6
er	-7
▁the	-8
en	-9
▁o	-10
▁c	-11
an	-12
▁s	-13
es	-14
al	-15
ed	-16
▁p	-17
it	-18
nd	-19
ion	-20
or	-21
▁in	-22
is	-23
▁of	-24
▁f	-25
ic	-26
ar	-27
▁w	-28
ro	-29
ing	-30
▁and	-31
▁b	-32
▁m	-33
as	-34
▁to	-35
▁d	-36
ent	-37
ct	-38
le	-39
▁e	-40
ou	-41
▁re	-42
st	-43
il	-44
ation	-45
▁h	-46
im	-47
ve	-48
▁l	-49
▁th	-50
om	-51
▁T	-52
ol	-53
▁g	-54
▁C	-55
▁A	-56
ly	-57
▁n	-58
ce	-59
ur	-60
▁S	-61
et	-62
ment	-63
ate	-64
▁is	-65
ir	-66
id	-67
ver	-68
se	-69
▁be	-70
ra	-71
ut	-72
▁for	-73
▁I	-74
ul	-75
▁pro	-76
ch	-77
▁(	-78
▁con	-79
ig	-80
ge	-81
ow	-82
▁The	-83
▁as	-84
▁on	-85
ies	-86
ot	-87
▁E	-88
▁that	-89
▁u	-90
▁st	-91
el	-92
▁P	-93
▁are	-94
ity	-95
▁su	-96
▁de	-97
ter	-98
▁by	-99
▁M	-100
her	-101
du	-102
if	-103
os	-104
th	-105
ith	-106
od	-107
ab	-108
ad	-109
ure	-110
and	-111
▁al	-112
▁en	-113
lo	-114
ect	-115
▁with	-116
est	-117
nt	-118
um	-119
am	-120
ore	-121
▁ex	-122
ist	-123
em	-124
▁com	-125
▁an	-126
▁B	-127
lim	-128
ci	-129
ort	-130
▁or	-131
rom	-132
▁R	-133
▁N	-134
ri	-135
ions	-136
▁ch	-137
▁G	-138
ay	-139
ill	-140
▁from	-141
ain	-142
▁inc	-143
limate	-144
▁wh	-145
ant	-146
ive	-147
ers	-148
▁was	-149
▁D	-150
us	-151
▁F	-152
ere	-153
ces	-154
▁it	-155
qu	-156
ud	-157
▁U	-158
ric	-159
▁In	-160
pp	-161
iv	-162
ld	-163
ater	-164
▁H	-165
res	-166
▁at	-167
ical	-168
ff	-169
▁r	-170
▁W	-171
ated	-172
ac	-173
▁v	-174
ult	-175
gy	-176
per	-177
▁"	-178
▁se	-179
ange	-180
ew	-181
pe	-182
▁ha	-183
rou	-184
▁O	-185
ia	-186
pt	-187
ction	-188
▁climate	-189
▁L	-190
ich	-191
iron	-192
▁res	-193
▁pl	-194
oc	-195
ast	-196
▁le	-197
ations	-198
ear	-199
act	-200
viron	-201
so	-202
▁im	-203
vironment	-204
ak	-205
art	-206
iss	-207
▁he	-208
▁co	-209
ther	-210
un	-211
▁have	-212
▁em	-213
our	-214
able	-215
igh	-216
ans	-217
ount	-218
▁which	-219
▁imp	-220
▁has	-221
iz	-222
op	-223
▁produ	-224
all	-225
▁comp	-226
reas	-227
▁cont	-228
arm	-229
ust	-230
gh	-231
ess	-232
age	-233
og	-234
▁can	-235
ine	-236
red	-237
ial	-238
▁ad	-239
▁change	-240
▁per	-241
ber	-242
▁int	-243
ard	-244
ates	-245
▁sh	-246
▁y	-247
ide	-248
▁ag	-249
▁pol	-250
▁also	-251
ergy	-252
▁ac	-253
ost	-254
con	-255
▁J	-256
lud	-257
tern	-258
port	-259
▁not	-260
ry	-261
arb	-262
▁us	-263
▁wor	-264
ru	-265
ome	-266
▁increas	-267
▁environment	-268
▁ab	-269
▁water	-270
ould	-271
ous	-272
ap	-273
ally	-274
ary	-275
▁more	-276
ong	-277
▁emiss	-278
arbon	-279
▁St	-280
ific	-281
ood	-282
ian	-283
▁so	-284
ural	-285
lob	-286
end	-287
▁cons	-288
ue	-289
▁eff	-290
ub	-291
▁includ	-292
▁man	-293
lop	-294
yst	-295
ational	-296
▁k	-297
▁Un	-298
▁Th	-299
low	-300
ence	-301
velop	-302
ag	-303
ign	-304
ature	-305
).	-306
▁their	-307
lobal	-308
▁dis	-309
▁ra	-310
rop	-311
▁Ch	-312
▁other	-313
▁emissions	-314
over	-315
ition	-316
out	-317
▁year	-318
▁reg	-319
▁were	-320
ystem	-321
▁En	-322
▁its	-323
▁such	-324
ell	-325
ced	-326
▁been	-327
▁gas	-328
ire	-329
▁part	-330
▁K	-331
▁than	-332
▁energy	-333
cess	-334
▁me	-335
ip	-336
ib	-337
),	-338
vers	-339
ities	-340
lect	-341
▁comm	-342
ens	-343
ance	-344
▁whe	-345
▁over	-346
ding	-347
ass	-348
ited	-349
ace	-350
erv	-351
ks	-352
ight	-353
▁Re	-354
ang	-355
reen	-356
▁count	-357
illion	-358
orm	-359
▁ev	-360
land	-361
▁this	-362
lic	-363
gan	-364
▁ne	-365
▁redu	-366
▁carbon	-367
ower	-368
▁exp	-369
▁develop	-370
ree	-371
rough	-372
ice	-373
ke	-374
ative	-375
ution	-376
conom	-377
▁app	-378
vel	-379
oss	-380
▁rec	-381
te	-382
▁dec	-383
rib	-384
ors	-385
▁lar	-386
ress	-387
▁environmental	-388
ility	-389
ound	-390
▁un	-391
▁pre	-392
fere	-393
mer	-394
▁global	-395
rans	-396
les	-397
au	-398
ons	-399
ricult	-400
▁spe	-401
overn	-402
uring	-403
olog	-404
▁met	-405
ating	-406
av	-407
emper	-408
▁bec	-409
io	-410
▁This	-411
ments	-412
ener	-413
▁De	-414
ject	-415
▁will	-416
▁but	-417
cial	-418
we	-419
▁use	-420
▁As	-421
ach	-422
ile	-423
▁Se	-424
erm	-425
ish	-426
emperature	-427
▁into	-428
▁sp	-429
▁fu	-430
row	-431
▁Climate	-432
nder	-433
als	-434
orest	-435
ries	-436
▁ext	-437
▁land	-438
round	-439
arming	-440
ack	-441
▁act	-442
▁effect	-443
▁impact	-444
▁temperature	-445
▁tra	-446
ory	-447
▁pe	-448
ouse	-449
▁most	-450
hed	-451
▁bet	-452
▁It	-453
▁used	-454
ents	-455
ail	-456
▁sub	-457
cy	-458
▁system	-459
▁ris	-460
own	-461
▁level	-462
▁econom	-463
▁would	-464
ram	-465
ism	-466
cc	-467
▁trans	-468
▁tim	-469
▁may	-470
▁we	-471
▁hum	-472
▁supp	-473
▁United	-474
ech	-475
▁ar	-476
▁plant	-477
▁Pro	-478
▁am	-479
ph	-480
one	-481
rit	-482
are	-483
▁they	-484
▁world	-485
▁out	-486
▁all	-487
iod	-488
▁pub	-489
ari	-490
any	-491
▁conc	-492
ert	-493
▁spec	-494
ef	-495
▁food	-496
li	-497
amp	-498
▁agricult	-499
▁under	-500
▁about	-501
▁V	-502
ween	-503
ark	-504
▁ro	-505
ds	-506
ause	-507
▁high	-508
ove	-509
▁inf	-510
▁green	-511
ased	-512
▁ind	-513
▁gener	-514
ivers	-515
▁des	-516
▁govern	-517
▁li	-518
The	-519
echn	-520
ake	-521
▁Ind	-522
reat	-523
▁between	-524
▁inv	-525
▁production	-526
▁sci	-527
▁countries	-528
▁years	-529
▁these	-530
aw	-531
olo	-532
ite	-533
▁through	-534
▁up	-535
ral	-536
▁sur	-537
ame	-538
atural	-539
▁million	-540
ources	-541
▁cl	-542
▁had	-543
ology	-544
▁est	-545
▁prov	-546
▁stud	-547
▁one	-548
ase	-549
▁there	-550
lectric	-551
▁organ	-552
int	-553
▁°	-554
▁acc	-555
irst	-556
▁result	-557
▁col	-558
▁Com	-559
ough	-560
▁some	-561
▁j	-562
▁sc	-563
▁mod	-564
ose	-565
ics	-566
▁report	-567
uro	-568
dust	-569
house	-570
gen	-571
ulation	-572
▁qu	-573
alth	-574
".	-575
▁sol	-576
▁fuel	-577
gest	-578
ord	-579
▁power	-580
▁rel	-581
osp	-582
▁new	-583
vi	-584
▁Environment	-585
▁Al	-586
▁form	-587
▁grow	-588
its	-589
▁loc	-590
▁cent	-591
ople	-592
▁ca	-593
get	-594
▁dif	-595
▁poll	-596
▁dep	-597
ind	-598
ning	-599
▁well	-600
▁indust	-601
ual	-602
iversity	-603
ract	-604
▁sign	-605
ability	-606
▁Euro	-607
ists	-608
ince	-609
ep	-610
▁increase	-611
▁bu	-612
ological	-613
▁first	-614
▁ec	-615
ular	-616
▁during	-617
▁found	-618
▁ma	-619
arch	-620
▁human	-621
pl	-622
▁Europe	-623
yc	-624
▁process	-625
▁resp	-626
ex	-627
arth	-628
▁warming	-629
ys	-630
▁pop	-631
ved	-632
feren	-633
▁air	-634
ici	-635
ever	-636
▁natural	-637
▁hy	-638
ane	-639
su	-640
here	-641
▁many	-642
▁vari	-643
ines	-644
meric	-645
▁people	-646
▁large	-647
▁meth	-648
▁polic	-649
ption	-650
▁due	-651
dition	-652
ternational	-653
▁areas	-654
▁techn	-655
▁sust	-656
ts	-657
ale	-658
▁lead	-659
irect	-660
▁sustain	-661
▁including	-662
ible	-663
cing	-664
▁requ	-665
ied	-666
▁greenhouse	-667
▁product	-668
▁ref	-669
▁ve	-670
king	-671
▁Americ	-672
vent	-673
▁only	-674
▁Con	-675
oth	-676
▁States	-677
ern	-678
▁time	-679
ically	-680
▁do	-681
ild	-682
▁CO	-683
oun	-684
▁chang	-685
ten	-686
▁An	-687
▁species	-688
▁oil	-689
uc	-690
▁like	-691
ards	-692
orth	-693
ob	-694
ident	-695
In	-696
owever	-697
ays	-698
▁project	-699
▁cre	-700
▁min	-701
outh	-702
lu	-703
."	-704
▁electric	-705
▁rem	-706
▁ph	-707
▁tw	-708
roup	-709
▁def	-710
ribut	-711
ected	-712
me	-713
▁main	-714
ered	-715
▁pres	-716
▁cap	-717
ted	-718
▁when	-719
▁off	-720
gram	-721
ne	-722
ade	-723
▁New	-724
▁partic	-725
▁government	-726
ruct	-727
▁consum	-728
fter	-729
▁cor	-730
▁caus	-731
ished	-732
▁public	-733
▁cost	-734
very	-735
▁include	-736
▁Ar	-737
▁development	-738
ization	-739
ized	-740
▁Ex	-741
▁str	-742
▁low	-743
CC	-744
▁occ	-745
ices	-746
▁farm	-747
la	-748
▁ann	-749
urre	-750
▁aff	-751
▁fe	-752
ather	-753
jor	-754
▁could	-755
led	-756
▁scient	-757
▁forest	-758
iel	-759
▁long	-760
▁commun	-761
▁kn	-762
ined	-763
▁Earth	-764
ok	-765
mosp	-766
ides	-767
▁ass	-768
▁sm	-769
▁US	-770
ork	-771
ives	-772
▁rese	-773
▁where	-774
ov	-775
▁dist	-776
▁pr	-777
▁being	-778
▁inst	-779
▁inter	-780
▁increased	-781
▁contin	-782
▁state	-783
▁po	-784
ife	-785
hic	-786
hes	-787
▁ob	-788
▁activ	-789
ential	-790
▁health	-791
▁appro	-792
ina	-793
▁hig	-794
uch	-795
cean	-796
▁who	-797
▁–	-798
ie	-799
▁mon	-800
▁sea	-801
▁major	-802
ures	-803
▁num	-804
arket	-805
ificant	-806
ting	-807
ality	-808
▁two	-809
pos	-810
ger	-811
▁prot	-812
▁import	-813
▁sa	-814
▁plan	-815
ars	-816
▁Res	-817
ety	-818
xide	-819
▁Environmental	-820
▁buil	-821
▁att	-822
▁less	-823
ration	-824
▁effects	-825
hem	-826
▁Ag	-827
▁period	-828
▁need	-829
▁fin	-830
urrent	-831
▁significant	-832
pr	-833
▁study	-834
ath	-835
▁ty	-836
▁estim	-837
ury	-838
▁examp	-839
ency	-840
lear	-841
lished	-842
▁no	-843
▁hyd	-844
▁soil	-845
urb	-846
verage	-847
▁region	-848
▁economic	-849
▁while	-850
▁around	-851
▁support	-852
▁atmosp	-853
▁Y	-854
▁crop	-855
▁ear	-856
▁rain	-857
▁work	-858
ossil	-859
ata	-860
▁pollution	-861
▁because	-862
form	-863
▁levels	-864
▁$	-865
hen	-866
cent	-867
▁agriculture	-868
ise	-869
▁oper	-870
rol	-871
ix	-872
▁plants	-873
▁changes	-874
▁waste	-875
igation	-876
rad	-877
▁often	-878
▁Comm	-879
els	-880
cip	-881
▁them	-882
▁These	-883
▁reduce	-884
▁Wor	-885
agement	-886
ording	-887
ros	-888
ission	-889
▁both	-890
▁Change	-891
mber	-892
▁bi	-893
ins	-894
ollow	-895
▁coal	-896
alled	-897
▁av	-898
▁fact	-899
face	-900
▁heat	-901
rial	-902
▁billion	-903
▁market	-904
▁after	-905
▁country	-906
aterial	-907
▁end	-908
ferent	-909
▁For	-910
▁since	-911
▁group	-912
ants	-913
ble	-914
▁impacts	-915
▁consid	-916
▁Aust	-917
▁systems	-918
▁ice	-919
▁pot	-920
▁set	-921
▁equ	-922
ually	-923
▁He	-924
ource	-925
ily	-926
▁example	-927
ection	-928
▁Energy	-929
old	-930
apt	-931
itions	-932
▁policy	-933
▁temperatures	-934
▁direct	-935
aking	-936
▁lim	-937
▁However	-938
tal	-939
lement	-940
▁occur	-941
fore	-942
ax	-943
▁agricultural	-944
ond	-945
▁Can	-946
ired	-947
hip	-948
urn	-949
ified	-950
▁exper	-951
ctic	-952
▁flo	-953
▁company	-954
▁meas	-955
▁term	-956
▁area	-957
▁const	-958
▁serv	-959
ck	-960
orn	-961
wn	-962
▁ent	-963
ium	-964
ven	-965
▁different	-966
▁fossil	-967
und	-968
ling	-969
▁anim	-970
▁go	-971
▁dem	-972
▁amount	-973
ters	-974
urther	-975
▁material	-976
cept	-977
ren	-978
▁current	-979
▁small	-980
ute	-981
▁invest	-982
▁program	-983
▁population	-984
por	-985
▁European	-986
eg	-987
read	-988
▁rele	-989
▁North	-990
osystem	-991
▁stand	-992
▁research	-993
▁At	-994
▁within	-995
ock	-996
▁vehic	-997
▁much	-998
▁Austral	-999
lands	-1000
▁sim	-1001
▁sustainable	-1002
soci	-1003
ared	-1004
▁average	-1005
▁transport	-1006
ank	-1007
▁Ad	-1008
ains	-1009
▁his	-1010
▁National	-1011
▁ge	-1012
ioxide	-1013
▁resources	-1014
▁Af	-1015
▁higher	-1016
▁cyc	-1017
▁follow	-1018
▁surface	-1019
▁increasing	-1020
ize	-1021
ty	-1022
▁val	-1023
air	-1024
rodu	-1025
▁aut	-1026
▁issu	-1027
ug	-1028
▁industry	-1029
▁dioxide	-1030
▁allow	-1031
▁rep	-1032
▁contribut	-1033
ash	-1034
ving	-1035
▁-	-1036
▁disc	-1037
ner	-1038
▁local	-1039
veral	-1040
▁Pol	-1041
▁made	-1042
ron	-1043
ification	-1044
ll	-1045
▁On	-1046
ately	-1047
▁Green	-1048
▁det	-1049
ember	-1050
ful	-1051
▁effici	-1052
▁number	-1053
ross	-1054
▁pract	-1055
▁any	-1056
▁Pl	-1057
tle	-1058
▁if	-1059
uss	-1060
▁sug	-1061
▁pric	-1062
▁known	-1063
istory	-1064
ages	-1065
▁impro	-1066
▁largest	-1067
▁Afric	-1068
raph	-1069
▁dam	-1070
▁total	-1071
▁World	-1072
▁building	-1073
▁adv	-1074
▁potential	-1075
▁So	-1076
▁sect	-1077
▁electricity	-1078
other	-1079
ived	-1080
▁growth	-1081
itation	-1082
uture	-1083
ton	-1084
▁hydro	-1085
ferences	-1086
▁Z	-1087
▁non	-1088
co	-1089
▁China	-1090
ene	-1091
▁There	-1092
▁solar	-1093
▁century	-1094
▁South	-1095
estic	-1096
▁products	-1097
iness	-1098
▁method	-1099
▁tre	-1100
▁near	-1101
der	-1102
▁those	-1103
▁using	-1104
▁loss	-1105
▁add	-1106
ec	-1107
rid	-1108
▁ecosystem	-1109
hemical	-1110
▁lin	-1111
▁design	-1112
atic	-1113
ision	-1114
eng	-1115
▁cond	-1116
xim	-1117
▁Canad	-1118
vention	-1119
ases	-1120
▁prom	-1121
▁typ	-1122
▁called	-1123
▁rad	-1124
▁based	-1125
▁polit	-1126
..	-1127
view	-1128
ivid	-1129
▁common	-1130
▁flood	-1131
▁social	-1132
ason	-1133
▁crit	-1134
▁comb	-1135
tic	-1136
ewable	-1137
ering	-1138
▁ocean	-1139
▁international	-1140
cur	-1141
▁show	-1142
▁Act	-1143
▁tar	-1144
▁data	-1145
▁law	-1146
▁Sci	-1147
▁control	-1148
▁management	-1149
▁coast	-1150
▁lower	-1151
▁three	-1152
the	-1153
▁Cent	-1154
▁ren	-1155
▁bo	-1156
▁University	-1157
: 	-1158
enef	-1159
ick	-1160
ulations	-1161
▁adapt	-1162
▁life	-1163
▁z	-1164
usiness	-1165
lp	-1166
▁particular	-1167
▁eng	-1168
ires	-1169
▁percent	-1170
▁several	-1171
▁mar	-1172
sc	-1173
▁car	-1174
ternal	-1175
▁important	-1176
▁win	-1177
▁American	-1178
ield	-1179
▁International	-1180
▁account	-1181
▁Co	-1182
▁cult	-1183
ones	-1184
▁Global	-1185
ised	-1186
▁deg	-1187
omet	-1188
",	-1189
▁risk	-1190
ructure	-1191
▁dom	-1192
eral	-1193
▁own	-1194
▁sum	-1195
▁decreas	-1196
uclear	-1197
▁Is	-1198
▁pri	-1199
ference	-1200
▁addition	-1201
▁Cal	-1202
▁same	-1203
blem	-1204
anies	-1205
ently	-1206
▁national	-1207
▁caused	-1208
ruction	-1209
ring	-1210
▁avail	-1211
▁rise	-1212
▁mil	-1213
urban	-1214
▁ed	-1215
rast	-1216
▁comple	-1217
▁help	-1218
▁neg	-1219
de	-1220
▁wind	-1221
iver	-1222
ward	-1223
inist	-1224
▁poss	-1225
▁prim	-1226
▁atmosphere	-1227
▁problem	-1228
up	-1229
▁even	-1230
akes	-1231
line	-1232
idence	-1233
▁early	-1234
▁concern	-1235
▁cr	-1236
▁future	-1237
▁er	-1238
▁produced	-1239
ervation	-1240
▁ret	-1241
▁states	-1242
▁very	-1243
▁conditions	-1244
▁become	-1245
cond	-1246
▁then	-1247
ocus	-1248
▁net	-1249
▁Or	-1250
ital	-1251
▁she	-1252
igin	-1253
stit	-1254
▁Wh	-1255
▁benef	-1256
▁tax	-1257
▁Prot	-1258
▁vi	-1259
▁developed	-1260
▁likely	-1261
way	-1262
▁consumption	-1263
▁Acc	-1264
▁liv	-1265
▁sources	-1266
though	-1267
▁cause	-1268
ict	-1269
▁regions	-1270
man	-1271
water	-1272
cially	-1273
osed	-1274
▁India	-1275
▁again	-1276
▁fac	-1277
▁pur	-1278
▁companies	-1279
▁target	-1280
▁issues	-1281
▁vol	-1282
ertain	-1283
▁estab	-1284
ets	-1285
reme	-1286
ft	-1287
ober	-1288
▁leg	-1289
ues	-1290
▁ke	-1291
ump	-1292
▁estimated	-1293
▁published	-1294
iti	-1295
ustain	-1296
▁They	-1297
curity	-1298
ator	-1299
reement	-1300
now	-1301
ves	-1302
▁bas	-1303
▁each	-1304
▁propos	-1305
▁make	-1306
▁sal	-1307
▁rainf	-1308
▁focus	-1309
ropical	-1310
▁dri	-1311
▁cool	-1312
▁suggest	-1313
ime	-1314
ences	-1315
▁fund	-1316
atter	-1317
▁char	-1318
mp	-1319
▁how	-1320
ings	-1321
▁associ	-1322
lean	-1323
omen	-1324
PCC	-1325
▁said	-1326
▁conf	-1327
▁op	-1328
▁mit	-1329
▁economy	-1330
▁pred	-1331
ilar	-1332
▁affect	-1333
▁methane	-1334
▁Australia	-1335
lor	-1336
PA	-1337
▁gra	-1338
▁Ph	-1339
▁implement	-1340
▁anal	-1341
▁biod	-1342
ights	-1343
ination	-1344
▁respons	-1345
▁present	-1346
▁scientific	-1347
ged	-1348
▁depend	-1349
ret	-1350
▁produce	-1351
▁rest	-1352
irc	-1353
com	-1354
ateg	-1355
▁costs	-1356
▁Par	-1357
▁ri	-1358
▁extin	-1359
▁Africa	-1360
une	-1361
▁med	-1362
▁move	-1363
▁vehicles	-1364
▁exist	-1365
essment	-1366
▁record	-1367
mit	-1368
heric	-1369
▁urban	-1370
▁soci	-1371
▁supply	-1372
ness	-1373
▁pass	-1374
ribution	-1375
ae	-1376
resent	-1377
▁es	-1378
▁require	-1379
▁gases	-1380
▁before	-1381
▁Germ	-1382
▁desc	-1383
▁Some	-1384
sel	-1385
▁pers	-1386
▁quality	-1387
rel	-1388
af	-1389
iforn	-1390
▁America	-1391
▁reduction	-1392
fact	-1393
based	-1394
part	-1395
▁UN	-1396
ensive	-1397
ograph	-1398
▁down	-1399
▁arg	-1400
▁rate	-1401
▁further	-1402
▁Am	-1403
▁should	-1404
▁crops	-1405
▁ste	-1406
▁ground	-1407
ann	-1408
chie	-1409
▁Resear	-1410
▁origin	-1411
sequ	-1412
▁weather	-1413
▁chemical	-1414
.: 	-1415
▁inform	-1416
abit	-1417
loy	-1418
acter	-1419
▁feed	-1420
gin	-1421
▁pos	-1422
▁Californ	-1423
acity	-1424
az	-1425
▁action	-1426
▁concent	-1427
▁warm	-1428
▁invol	-1429
▁point	-1430
val	-1431
▁must	-1432
▁science	-1433
itive	-1434
▁among	-1435
▁References	-1436
▁Develop	-1437
bers	-1438
▁ser	-1439
▁provide	-1440
▁just	-1441
▁gre	-1442
ended	-1443
▁renewable	-1444
▁threat	-1445
▁range	-1446
▁times	-1447
arc	-1448
▁short	-1449
▁Agricult	-1450
hern	-1451
▁demand	-1452
▁business	-1453
▁May	-1454
olution	-1455
▁opp	-1456
▁California	-1457
▁across	-1458
▁along	-1459
▁achie	-1460
estern	-1461
anu	-1462
▁start	-1463
▁Canada	-1464
▁nuclear	-1465
▁bl	-1466
cember	-1467
▁cat	-1468
▁industrial	-1469
▁events	-1470
▁influ	-1471
▁Nations	-1472
▁organic	-1473
▁dise	-1474
▁source	-1475
outher	-1476
▁farming	-1477
ained	-1478
▁According	-1479
eb	-1480
▁lit	-1481
▁fuels	-1482
▁second	-1483
▁indic	-1484
ley	-1485
▁Sea	-1486
▁various	-1487
▁Ge	-1488
pecially	-1489
▁developing	-1490
▁'	-1491
cipitation	-1492
▁technology	-1493
▁obs	-1494
▁policies	-1495
▁sector	-1496
atory	-1497
ili	-1498
▁IPCC	-1499
▁communities	-1500
▁ir	-1501
▁auth	-1502
▁capacity	-1503
outhern	-1504
itud	-1505
▁radi	-1506
▁Oct	-1507
par	-1508
ran	-1509
orthern	-1510
▁individ	-1511
▁fish	-1512
put	-1513
▁effort	-1514
ream	-1515
ero	-1516
▁provid	-1517
▁December	-1518
▁order	-1519
ederal	-1520
▁against	-1521
▁now	-1522
ued	-1523
orestation	-1524
▁Sustain	-1525
imes	-1526
.,	-1527
ats	-1528
▁mo	-1529
▁subs	-1530
iqu	-1531
ators	-1532
icial	-1533
▁Research	-1534
▁ele	-1535
ool	-1536
▁meet	-1537
be	-1538
▁still	-1539
▁flow	-1540
▁Sh	-1541
▁del	-1542
▁See	-1543
▁led	-1544
▁four	-1545
ird	-1546
▁political	-1547
▁efficiency	-1548
▁fl	-1549
▁km	-1550
isms	-1551
ffici	-1552
▁activities	-1553
iven	-1554
ining	-1555
▁annual	-1556
▁extreme	-1557
▁Water	-1558
ify	-1559
▁last	-1560
ublic	-1561
▁press	-1562
istor	-1563
▁Instit	-1564
▁access	-1565
▁materials	-1566
▁announ	-1567
▁run	-1568
to	-1569
▁EU	-1570
aim	-1571
▁mult	-1572
ah	-1573
▁experi	-1574
ilities	-1575
▁mass	-1576
▁projects	-1577
▁place	-1578
▁available	-1579
sp	-1580
▁gla	-1581
▁season	-1582
▁groups	-1583
▁expected	-1584
▁scientists	-1585
overnment	-1586
▁wild	-1587
▁farmers	-1588
▁fre	-1589
▁pat	-1590
▁Part	-1591
oot	-1592
ense	-1593
▁fil	-1594
▁associated	-1595
▁studies	-1596
ufact	-1597
▁animals	-1598
bs	-1599
wards	-1600
▁similar	-1601
▁few	-1602
▁Q	-1603
rought	-1604
▁Development	-1605
ulf	-1606
▁though	-1607
▁address	-1608
▁especially	-1609
▁least	-1610
▁precipitation	-1611
▁ident	-1612
▁October	-1613
▁past	-1614
▁related	-1615
atives	-1616
▁forests	-1617
▁reduced	-1618
ites	-1619
yn	-1620
▁manufact	-1621
▁became	-1622
▁describ	-1623
▁introdu	-1624
▁services	-1625
▁hal	-1626
▁lab	-1627
ances	-1628
ades	-1629
lish	-1630
▁Report	-1631
▁standards	-1632
utions	-1633
anuary	-1634
▁promot	-1635
▁cities	-1636
▁rece	-1637
pid	-1638
▁Ju	-1639
▁day	-1640
ptember	-1641
▁relative	-1642
road	-1643
▁claim	-1644
oh	-1645
▁emp	-1646
▁way	-1647
gency	-1648
▁top	-1649
▁Carbon	-1650
▁cal	-1651
▁dest	-1652
▁June	-1653
ands	-1654
▁without	-1655
ologies	-1656
minist	-1657
▁emission	-1658
▁reducing	-1659
▁her	-1660
▁what	-1661
ave	-1662
▁began	-1663
▁compared	-1664
▁abs	-1665
▁diff	-1666
▁January	-1667
ior	-1668
▁nut	-1669
▁nit	-1670
▁lo	-1671
most	-1672
▁Econom	-1673
ccess	-1674
ging	-1675
▁event	-1676
▁month	-1677
nes	-1678
▁following	-1679
▁back	-1680
▁circ	-1681
▁ecosystems	-1682
ntar	-1683
ively	-1684
▁measure	-1685
▁considered	-1686
▁tons	-1687
▁rainfall	-1688
▁Union	-1689
▁strong	-1690
▁generation	-1691
▁evidence	-1692
▁Le	-1693
▁Brit	-1694
▁below	-1695
ta	-1696
eds	-1697
aper	-1698
▁September	-1699
▁Other	-1700
rated	-1701
▁announced	-1702
raz	-1703
▁subst	-1704
▁reported	-1705
by	-1706
▁heav	-1707
▁information	-1708
ovember	-1709
▁By	-1710
▁mid	-1711
erest	-1712
▁Sc	-1713
▁prof	-1714
▁July	-1715
▁above	-1716
▁Institute	-1717
▁take	-1718
▁ter	-1719
▁unt	-1720
▁fert	-1721
▁Comp	-1722
▁model	-1723
▁every	-1724
▁negative	-1725
▁history	-1726
▁improve	-1727
ivity	-1728
ctions	-1729
vere	-1730
pping	-1731
▁Arctic	-1732
▁includes	-1733
ai	-1734
▁et	-1735
▁Air	-1736
▁city	-1737
▁UK	-1738
ysis	-1739
▁Col	-1740
aining	-1741
▁ric	-1742
vest	-1743
vious	-1744
CO	-1745
▁commit	-1746
rastructure	-1747
▁November	-1748
▁March	-1749
▁links	-1750
ulner	-1751
▁Ass	-1752
▁marine	-1753
ival	-1754
oint	-1755
▁does	-1756
▁biodiversity	-1757
pril	-1758
▁observ	-1759
▁bre	-1760
aster	-1761
ious	-1762
▁open	-1763
▁making	-1764
mal	-1765
wide	-1766
ibility	-1767
ier	-1768
▁saf	-1769
▁practices	-1770
▁processes	-1771
▁Russ	-1772
ogen	-1773
▁dry	-1774
ink	-1775
cer	-1776
▁clim	-1777
ields	-1778
▁bur	-1779
aun	-1780
med	-1781
itor	-1782
cil	-1783
▁habit	-1784
rate	-1785
▁wide	-1786
izations	-1787
▁methods	-1788
▁security	-1789
▁ox	-1790
▁recyc	-1791
▁factors	-1792
yl	-1793
▁trade	-1794
ott	-1795
▁proper	-1796
ably	-1797
eth	-1798
▁represent	-1799
of	-1800
▁increases	-1801
▁ado	-1802
ional	-1803
▁created	-1804
ximately	-1805
▁affected	-1806
▁Asia	-1807
▁Tr	-1808
resh	-1809
▁required	-1810
▁She	-1811
▁price	-1812
▁stor	-1813
▁greater	-1814
▁pollut	-1815
▁&	-1816
▁particularly	-1817
ising	-1818
▁included	-1819
amb	-1820
▁cell	-1821
▁April	-1822
▁engine	-1823
let	-1824
▁cycle	-1825
▁later	-1826
▁animal	-1827
rogen	-1828
▁finan	-1829
▁aim	-1830
▁Cons	-1831
▁tropical	-1832
aken	-1833
▁wet	-1834
▁activity	-1835
▁community	-1836
▁possible	-1837
▁Eng	-1838
▁parts	-1839
▁rapid	-1840
▁=	-1841
ext	-1842
▁gr	-1843
▁dra	-1844
ouncil	-1845
▁sustainability	-1846
term	-1847
▁beh	-1848
▁eth	-1849
ler	-1850
▁extinction	-1851
▁construction	-1852
▁ton	-1853
icult	-1854
▁Mar	-1855
▁did	-1856
▁mem	-1857
▁te	-1858
▁One	-1859
▁par	-1860
equ	-1861
rict	-1862
▁role	-1863
erous	-1864
▁chall	-1865
inc	-1866
cies	-1867
ocol	-1868
▁IS	-1869
aces	-1870
onse	-1871
orpor	-1872
▁Science	-1873
▁proposed	-1874
▁mitigation	-1875
▁Man	-1876
aging	-1877
ership	-1878
▁plast	-1879
▁Commission	-1880
▁adaptation	-1881
▁di	-1882
▁mean	-1883
▁Med	-1884
iger	-1885
oid	-1886
▁dr	-1887
▁bio	-1888
▁until	-1889
▁Program	-1890
for	-1891
ects	-1892
▁External	-1893
▁north	-1894
▁Min	-1895
ales	-1896
▁beli	-1897
▁ecological	-1898
oto	-1899
ugust	-1900
▁York	-1901
incip	-1902
razil	-1903
▁vulner	-1904
cl	-1905
▁Sp	-1906
▁sch	-1907
enn	-1908
▁Imp	-1909
▁great	-1910
▁consider	-1911
side	-1912
stand	-1913
▁determ	-1914
▁growing	-1915
ont	-1916
light	-1917
▁shif	-1918
sh	-1919
▁eas	-1920
▁elect	-1921
▁gu	-1922
ulated	-1923
▁damage	-1924
▁coastal	-1925
▁Sustainable	-1926
▁treat	-1927
▁infrastructure	-1928
▁late	-1929
▁recent	-1930
▁Ky	-1931
sue	-1932
▁To	-1933
▁see	-1934
▁cover	-1935
duct	-1936
▁fall	-1937
▁fam	-1938
▁lack	-1939
▁frequ	-1940
▁summer	-1941
throp	-1942
ensity	-1943
▁interest	-1944
▁good	-1945
▁Trans	-1946
partment	-1947
ull	-1948
▁reach	-1949
▁women	-1950
day	-1951
▁generally	-1952
▁Brazil	-1953
iment	-1954
▁half	-1955
▁results	-1956
▁mic	-1957
ready	-1958
work	-1959
▁August	-1960
▁snow	-1961
iance	-1962
▁atmospheric	-1963
▁Reg	-1964
▁limit	-1965
▁humans	-1966
▁Department	-1967
▁Ocean	-1968
hers	-1969
ills	-1970
▁bod	-1971
acific	-1972
▁value	-1973
▁emit	-1974
▁commer	-1975
▁mining	-1976
▁fun	-1977
▁priv	-1978
▁efforts	-1979
▁case	-1980
▁established	-1981
iliz	-1982
▁veget	-1983
▁measures	-1984
▁mig	-1985
gress	-1986
▁repl	-1987
▁success	-1988
▁tr	-1989
▁bar	-1990
▁light	-1991
▁previous	-1992
▁critic	-1993
ither	-1994
▁technologies	-1995
chan	-1996
▁cooling	-1997
fu	-1998
▁however	-1999
▁hydrogen	-2000
▁response	-2001
ges	-2002
▁storm	-2003
▁leading	-2004
▁Sw	-2005
ramew	-2006
▁models	-2007
▁altern	-2008
▁released	-2009
▁view	-2010
▁rates	-2011
ico	-2012
eal	-2013
▁Food	-2014
▁already	-2015
▁State	-2016
▁means	-2017
aged	-2018
▁create	-2019
HG	-2020
hest	-2021
▁winter	-2022
▁approximately	-2023
epend	-2024
ebru	-2025
▁deb	-2026
estock	-2027
▁south	-2028
▁mechan	-2029
▁certain	-2030
▁prevent	-2031
▁approach	-2032
aries	-2033
ebruary	-2034
▁EPA	-2035
▁With	-2036
▁employ	-2037
▁usually	-2038
▁space	-2039
lies	-2040
ntarctic	-2041
arily	-2042
▁coll	-2043
ister	-2044
▁degrad	-2045
ik	-2046
▁ide	-2047
▁Sch	-2048
▁modern	-2049
ym	-2050
ourt	-2051
▁flu	-2052
▁general	-2053
▁Ec	-2054
▁war	-2055
▁deforestation	-2056
▁scale	-2057
omm	-2058
less	-2059
▁initi	-2060
▁review	-2061
pted	-2062
▁field	-2063
▁pestic	-2064
▁specific	-2065
▁author	-2066
▁five	-2067
yd	-2068
ories	-2069
▁know	-2070
▁Em	-2071
ourn	-2072
ditional	-2073
▁analysis	-2074
▁phys	-2075
▁Antarctic	-2076
▁subsid	-2077
▁problems	-2078
▁Car	-2079
▁irr	-2080
▁class	-2081
loc	-2082
▁glaci	-2083
▁History	-2084
ored	-2085
▁February	-2086
▁issue	-2087
▁Organ	-2088
▁kil	-2089
ocene	-2090
▁federal	-2091
▁Paris	-2092
inated	-2093
▁Inter	-2094
dle	-2095
▁clean	-2096
▁harm	-2097
▁Pacific	-2098
▁Agriculture	-2099
ention	-2100
▁protection	-2101
ledge	-2102
▁fail	-2103
▁organizations	-2104
▁[	-2105
▁free	-2106
▁risks	-2107
▁reserv	-2108
▁protect	-2109
▁storage	-2110
hold	-2111
▁others	-2112
▁resulting	-2113
▁conservation	-2114
eline	-2115
▁days	-2116
▁educ	-2117
▁former	-2118
▁mix	-2119
iesel	-2120
▁pressure	-2121
▁gen	-2122
▁Per	-2123
▁cut	-2124
▁lay	-2125
▁camp	-2126
ush	-2127
ulate	-2128
▁inse	-2129
▁foot	-2130
▁live	-2131
▁Pres	-2132
▁applic	-2133
▁histor	-2134
ument	-2135
▁Bo	-2136
▁While	-2137
▁rather	-2138
ison	-2139
▁Group	-2140
▁pattern	-2141
▁emer	-2142
ID	-2143
▁Cont	-2144
▁expl	-2145
▁Germany	-2146
▁benefits	-2147
osion	-2148
▁trend	-2149
▁another	-2150
▁minim	-2151
▁Council	-2152
igen	-2153
osure	-2154
▁members	-2155
▁particip	-2156
ministration	-2157
go	-2158
▁Plan	-2159
▁artic	-2160
▁princip	-2161
ways	-2162
SA	-2163
ores	-2164
▁key	-2165
▁perform	-2166
▁cold	-2167
▁given	-2168
▁child	-2169
▁types	-2170
▁compet	-2171
▁responsible	-2172
▁concept	-2173
▁scen	-2174
rations	-2175
▁integ	-2176
▁ant	-2177
▁instit	-2178
omes	-2179
▁Rep	-2180
▁terms	-2181
lied	-2182
▁living	-2183
xic	-2184
ana	-2185
ynt	-2186
emic	-2187
▁sun	-2188
▁port	-2189
▁severe	-2190
aves	-2191
aters	-2192
fficient	-2193
▁domestic	-2194
▁Assessment	-2195
zone	-2196
▁Tur	-2197
▁poor	-2198
▁Since	-2199
▁trees	-2200
▁maint	-2201
▁fore	-2202
▁far	-2203
igenous	-2204
▁primary	-2205
ape	-2206
▁difficult	-2207
ogn	-2208
▁Fin	-2209
▁acid	-2210
▁distribution	-2211
▁cars	-2212
▁nature	-2213
▁decrease	-2214
▁River	-2215
ramework	-2216
▁All	-2217
print	-2218
▁towards	-2219
ead	-2220
▁agreement	-2221
▁stated	-2222
reg	-2223
isl	-2224
apan	-2225
▁reef	-2226
▁British	-2227
▁larger	-2228
▁collect	-2229
▁Gu	-2230
use	-2231
▁broad	-2232
▁thus	-2233
▁movement	-2234
▁according	-2235
▁directly	-2236
▁concerns	-2237
▁commercial	-2238
▁programs	-2239
iber	-2240
BN	-2241
oph	-2242
▁East	-2243
▁typically	-2244
assic	-2245
enced	-2246
▁Further	-2247
apor	-2248
itude	-2249
▁Hum	-2250
aign	-2251
▁Des	-2252
▁paper	-2253
▁causes	-2254
ked	-2255
aced	-2256
▁ther	-2257
▁Mex	-2258
%.	-2259
▁conn	-2260
▁consequ	-2261
▁resource	-2262
▁clo	-2263
▁mount	-2264
back	-2265
▁Joh	-2266
▁almost	-2267
▁Many	-2268
pro	-2269
▁nations	-2270
▁although	-2271
▁livestock	-2272
▁enc	-2273
▁rights	-2274
▁==	-2275
▁sed	-2276
▁share	-2277
▁pet	-2278
ially	-2279
ournal	-2280
▁mel	-2281
...	-2282
▁somet	-2283
▁regard	-2284
mon	-2285
▁Net	-2286
▁har	-2287
related	-2288
oy	-2289
▁belie	-2290
▁necess	-2291
.;	-2292
▁either	-2293
▁significantly	-2294
▁den	-2295
▁When	-2296
▁exce	-2297
▁death	-2298
fer	-2299
ogenic	-2300
▁regional	-2301
▁farms	-2302
▁GHG	-2303
):	-2304
isions	-2305
▁coral	-2306
▁populations	-2307
ptions	-2308
unt	-2309
▁clear	-2310
▁better	-2311
▁governments	-2312
▁meat	-2313
▁During	-2314
▁limited	-2315
▁transportation	-2316
dom	-2317
▁conclud	-2318
pped	-2319
▁Japan	-2320
oura	-2321
▁capital	-2322
▁hot	-2323
▁contam	-2324
▁Protocol	-2325
▁challeng	-2326
▁depos	-2327
▁King	-2328
▁northern	-2329
ables	-2330
▁decl	-2331
▁sing	-2332
cks	-2333
▁Inc	-2334
▁held	-2335
ient	-2336
pper	-2337
▁begin	-2338
ris	-2339
▁wood	-2340
▁house	-2341
▁quant	-2342
▁film	-2343
▁book	-2344
▁person	-2345
▁strateg	-2346
▁doc	-2347
▁fire	-2348
▁convention	-2349
▁list	-2350
lant	-2351
year	-2352
▁hand	-2353
▁export	-2354
▁rising	-2355
▁Polic	-2356
▁financial	-2357
▁pay	-2358
▁entire	-2359
▁pip	-2360
aches	-2361
▁absor	-2362
ames	-2363
ached	-2364
▁prices	-2365
tee	-2366
life	-2367
▁slow	-2368
▁President	-2369
▁ISBN	-2370
▁worldwide	-2371
▁investment	-2372
▁irrigation	-2373
▁longer	-2374
bor	-2375
▁private	-2376
▁buildings	-2377
ivil	-2378
▁head	-2379
▁nutri	-2380
▁decision	-2381
elf	-2382
vert	-2383
▁seen	-2384
aur	-2385
▁uses	-2386
▁rice	-2387
▁cultiv	-2388
▁vehicle	-2389
Wh	-2390
ygen	-2391
▁plastic	-2392
▁character	-2393
▁cred	-2394
▁planet	-2395
off	-2396
cast	-2397
▁haz	-2398
▁tend	-2399
action	-2400
▁fresh	-2401
▁our	-2402
xt	-2403
▁mi	-2404
▁play	-2405
▁tonnes	-2406
▁Agreement	-2407
▁understand	-2408
pite	-2409
▁ins	-2410
▁prior	-2411
▁having	-2412
▁radiation	-2413
▁John	-2414
▁read	-2415
ashing	-2416
▁river	-2417
▁consist	-2418
CA	-2419
▁needs	-2420
▁individual	-2421
▁relations	-2422
uation	-2423
▁resid	-2424
ask	-2425
▁recogn	-2426
▁highest	-2427
▁southern	-2428
▁erosion	-2429
▁Zeal	-2430
▁discuss	-2431
▁Zealand	-2432
▁existing	-2433
▁acqu	-2434
▁cris	-2435
anced	-2436
▁throughout	-2437
iter	-2438
▁unc	-2439
▁needed	-2440
anges	-2441
▁achieve	-2442
▁targets	-2443
▁Soci	-2444
▁micro	-2445
not	-2446
▁CA	-2447
▁campaign	-2448
▁ut	-2449
▁Sol	-2450
▁size	-2451
▁stat	-2452
▁Mid	-2453
▁old	-2454
carbon	-2455
▁central	-2456
▁perm	-2457
▁refer	-2458
▁requires	-2459
▁type	-2460
▁heavy	-2461
▁overall	-2462
▁flooding	-2463
▁manufacture	-2464
ware	-2465
▁built	-2466
▁taken	-2467
▁continent	-2468
▁War	-2469
▁Most	-2470
▁goal	-2471
▁test	-2472
▁forms	-2473
▁drought	-2474
▁Protection	-2475
ols	-2476
▁third	-2477
▁compar	-2478
▁blo	-2479
▁close	-2480
lection	-2481
▁currently	-2482
▁rat	-2483
▁Fr	-2484
▁II	-2485
oper	-2486
▁disease	-2487
▁operations	-2488
ee	-2489
ours	-2490
▁Red	-2491
▁clou	-2492
▁Kyoto	-2493
▁assess	-2494
▁react	-2495
▁working	-2496
▁Although	-2497
▁described	-2498
▁Cl	-2499
▁El	-2500
▁Agency	-2501
▁single	-2502
▁substant	-2503
▁able	-2504
▁official	-2505
ched	-2506
▁Arch	-2507
▁Ni	-2508
▁ens	-2509
▁nitrogen	-2510
hood	-2511
▁expand	-2512
▁legisl	-2513
▁fertiliz	-2514
▁Off	-2515
▁maxim	-2516
▁Center	-2517
bed	-2518
▁introduced	-2519
like	-2520
▁West	-2521
▁plans	-2522
▁researc	-2523
ole	-2524
▁Pr	-2525
▁Great	-2526
lier	-2527
▁provides	-2528
▁standard	-2529
▁appear	-2530
istance	-2531
▁variety	-2532
▁provided	-2533
▁steel	-2534
▁original	-2535
self	-2536
▁Law	-2537
▁decline	-2538
▁reports	-2539
▁traditional	-2540
▁vulnerable	-2541
▁sk	-2542
▁regulations	-2543
oming	-2544
▁enough	-2545
rete	-2546
▁six	-2547
ned	-2548
▁Health	-2549
oll	-2550
▁turn	-2551
▁Ma	-2552
▁ft	-2553
izing	-2554
▁thous	-2555
ple	-2556
anol	-2557
▁ban	-2558
▁goals	-2559
▁causing	-2560
▁degradation	-2561
▁Mexico	-2562
ened	-2563
▁relatively	-2564
▁mag	-2565
char	-2566
▁mot	-2567
▁calc	-2568
▁additional	-2569
▁months	-2570
▁waters	-2571
▁periods	-2572
▁knowledge	-2573
▁Pe	-2574
ensus	-2575
verse	-2576
▁object	-2577
▁road	-2578
irds	-2579
▁corpor	-2580
ending	-2581
▁Impact	-2582
▁continue	-2583
▁transition	-2584
ha	-2585
▁sw	-2586
abor	-2587
ules	-2588
▁Bank	-2589
NG	-2590
▁conduct	-2591
▁observed	-2592
▁influence	-2593
DP	-2594
vey	-2595
▁name	-2596
▁stations	-2597
▁More	-2598
lantic	-2599
inking	-2600
▁Gener	-2601
▁decades	-2602
▁footprint	-2603
▁suggested	-2604
ots	-2605
▁App	-2606
▁put	-2607
▁release	-2608
▁Bl	-2609
▁avoid	-2610
▁member	-2611
leg	-2612
▁Me	-2613
ties	-2614
uals	-2615
▁And	-2616
▁estimates	-2617
ecut	-2618
▁cycl	-2619
▁path	-2620
▁System	-2621
▁harvest	-2622
▁monitor	-2623
▁society	-2624
echnology	-2625
▁lat	-2626
▁effective	-2627
anel	-2628
▁Land	-2629
▁ways	-2630
ps	-2631
▁school	-2632
▁br	-2633
rest	-2634
▁aqu	-2635
▁highly	-2636
▁sometimes	-2637
asons	-2638
▁deep	-2639
▁ozone	-2640
▁primarily	-2641
▁content	-2642
▁Convention	-2643
acy	-2644
▁separ	-2645
▁formed	-2646
▁anthrop	-2647
▁reflect	-2648
▁concentrations	-2649
illed	-2650
▁media	-2651
▁rural	-2652
▁compon	-2653
▁spread	-2654
▁located	-2655
cret	-2656
unic	-2657
ode	-2658
▁Spe	-2659
▁vis	-2660
▁Over	-2661
▁complex	-2662
▁pack	-2663
▁real	-2664
omass	-2665
▁bound	-2666
▁stream	-2667
▁contribute	-2668
▁Government	-2669
ortun	-2670
▁writ	-2671
encies	-2672
itable	-2673
▁might	-2674
▁little	-2675
▁diseases	-2676
▁oxygen	-2677
▁feature	-2678
▁children	-2679
▁Human	-2680
▁multip	-2681
▁whether	-2682
▁purch	-2683
raction	-2684
etic	-2685
▁arch	-2686
▁Trump	-2687
▁income	-2688
▁occurred	-2689
▁assessment	-2690
key	-2691
▁crisis	-2692
▁education	-2693
ox	-2694
▁article	-2695
▁habitat	-2696
▁CE	-2697
illing	-2698
▁Central	-2699
▁Ab	-2700
▁Su	-2701
▁phot	-2702
▁After	-2703
▁Forest	-2704
▁shown	-2705
volution	-2706
ume	-2707
oney	-2708
▁planning	-2709
CE	-2710
▁Pre	-2711
elling	-2712
▁earth	-2713
▁Natural	-2714
▁exposure	-2715
can	-2716
reed	-2717
▁liqu	-2718
▁Indian	-2719
▁subject	-2720
hol	-2721
▁site	-2722
▁burning	-2723
ares	-2724
▁special	-2725
▁techniqu	-2726
▁attem	-2727
amm	-2728
▁zero	-2729
▁Ste	-2730
▁Western	-2731
▁defined	-2732
▁alternative	-2733
▁Australian	-2734
▁conflic	-2735
▁heating	-2736
▁Project	-2737
▁Ac	-2738
▁If	-2739
▁next	-2740
▁facilities	-2741
ians	-2742
▁remov	-2743
▁Kingdom	-2744
ids	-2745
▁We	-2746
amed	-2747
▁ago	-2748
▁Press	-2749
▁respect	-2750
aps	-2751
▁actions	-2752
iving	-2753
▁Direct	-2754
▁Russia	-2755
ography	-2756
▁majority	-2757
On	-2758
▁tru	-2759
▁Atlantic	-2760
▁therefore	-2761
▁sil	-2762
isation	-2763
ributed	-2764
▁cattle	-2765
vant	-2766
▁laun	-2767
▁toget	-2768
▁efficient	-2769
ceans	-2770
lying	-2771
▁stress	-2772
▁together	-2773
▁cit	-2774
▁Economic	-2775
ray	-2776
▁president	-2777
▁encoura	-2778
▁Be	-2779
istic	-2780
▁mainly	-2781
ependent	-2782
▁physical	-2783
▁deal	-2784
▁home	-2785
▁establish	-2786
▁patterns	-2787
▁mer	-2788
rane	-2789
usion	-2790
▁colon	-2791
issions	-2792
iner	-2793
udget	-2794
▁matter	-2795
▁glob	-2796
▁cases	-2797
▁ability	-2798
▁organisms	-2799
ze	-2800
▁nearly	-2801
den	-2802
▁ur	-2803
ung	-2804
▁webs	-2805
▁Policy	-2806
▁Company	-2807
uth	-2808
ustion	-2809
▁sites	-2810
▁complete	-2811
▁progress	-2812
▁via	-2813
▁accept	-2814
▁amounts	-2815
ote	-2816
▁Court	-2817
raw	-2818
imal	-2819
▁art	-2820
▁enh	-2821
▁mostly	-2822
▁pesticides	-2823
▁post	-2824
osphere	-2825
▁expans	-2826
▁structure	-2827
▁concluded	-2828
brid	-2829
▁too	-2830
▁sens	-2831
▁safety	-2832
nov	-2833
▁Tra	-2834
▁best	-2835
▁recycling	-2836
▁took	-2837
▁toxic	-2838
Cs	-2839
heast	-2840
istan	-2841
▁funding	-2842
bac	-2843
▁ce	-2844
▁norm	-2845
ivalent	-2846
▁bal	-2847
▁organization	-2848
oral	-2849
scale	-2850
▁nation	-2851
▁popular	-2852
▁continued	-2853
▁High	-2854
▁say	-2855
overty	-2856
▁surround	-2857
ama	-2858
rade	-2859
▁init	-2860
▁positive	-2861
▁asp	-2862
▁tour	-2863
▁instead	-2864
▁Conference	-2865
app	-2866
▁lif	-2867
▁milk	-2868
▁document	-2869
oir	-2870
▁Dav	-2871
▁sulf	-2872
▁rivers	-2873
▁largely	-2874
▁el	-2875
inent	-2876
osition	-2877
▁Nor	-2878
▁Pet	-2879
▁dev	-2880
▁bring	-2881
▁struct	-2882
▁chemicals	-2883
▁Action	-2884
▁civil	-2885
ashington	-2886
▁“	-2887
▁Associ	-2888
▁smaller	-2889
▁biomass	-2890
▁contain	-2891
▁Mal	-2892
isp	-2893
inant	-2894
▁sold	-2895
▁Clean	-2896
west	-2897
▁cho	-2898
ounds	-2899
▁designed	-2900
cyc	-2901
lex	-2902
▁practice	-2903
▁rock	-2904
▁German	-2905
ecause	-2906
▁multiple	-2907
ried	-2908
ening	-2909
▁Indones	-2910
▁consumers	-2911
▁strategies	-2912
atur	-2913
▁age	-2914
▁City	-2915
role	-2916
▁call	-2917
▁service	-2918
ditionally	-2919
▁Bi	-2920
▁capt	-2921
▁today	-2922
pot	-2923
▁changing	-2924
aly	-2925
ests	-2926
▁Bar	-2927
▁Mon	-2928
▁Republic	-2929
▁line	-2930
ecutive	-2931
▁Public	-2932
rug	-2933
cts	-2934
▁super	-2935
▁followed	-2936
▁diversity	-2937
▁big	-2938
▁dou	-2939
ground	-2940
▁oceans	-2941
▁Washington	-2942
▁received	-2943
▁individuals	-2944
astern	-2945
government	-2946
▁pollutants	-2947
▁che	-2948
ender	-2949
isher	-2950
▁mill	-2951
roleum	-2952
▁behav	-2953
▁started	-2954
▁producing	-2955
▁itself	-2956
▁sectors	-2957
▁necessary	-2958
▁beginning	-2959
▁Mod	-2960
eding	-2961
▁quest	-2962
▁resili	-2963
▁Society	-2964
▁expansion	-2965
▁batter	-2966
hesis	-2967
▁body	-2968
istics	-2969
▁Minister	-2970
▁implementation	-2971
irm	-2972
uil	-2973
medi	-2974
stan	-2975
▁recomm	-2976
▁series	-2977
▁productivity	-2978
▁sit	-2979
▁surv	-2980
▁defin	-2981
ondon	-2982
ranean	-2983
▁Indust	-2984
▁recorded	-2985
▁anthropogenic	-2986
▁administration	-2987
▁come	-2988
▁peak	-2989
▁Sum	-2990
▁widely	-2991
used	-2992
▁Count	-2993
▁NA	-2994
▁aer	-2995
▁Canadian	-2996
▁communic	-2997
▁challenges	-2998
▁conventional	-2999
mb	-3000
rie	-3001
set	-3002
▁Met	-3003
▁care	-3004
ipment	-3005
ipping	-3006
▁reached	-3007
▁workers	-3008
▁opportun	-3009
▁vary	-3010
onst	-3011
▁Gas	-3012
rates	-3013
▁Serv	-3014
▁Island	-3015
▁Resources	-3016
▁generated	-3017
%,	-3018
As	-3019
▁full	-3020
▁occurs	-3021
ends	-3022
▁solutions	-3023
▁treatment	-3024
heme	-3025
▁From	-3026
▁relationship	-3027
▁eval	-3028
▁right	-3029
▁Sen	-3030
▁concrete	-3031
▁involved	-3032
iterranean	-3033
▁requirements	-3034
isc	-3035
▁uncertain	-3036
CCC	-3037
▁Commit	-3038
oz	-3039
overy	-3040
▁makes	-3041
▁groundwater	-3042
▁keep	-3043
wh	-3044
hib	-3045
reng	-3046
▁remains	-3047
▁Ne	-3048
▁Del	-3049
▁div	-3050
▁consensus	-3051
▁Kore	-3052
▁African	-3053
▁X	-3054
oms	-3055
rab	-3056
rost	-3057
▁argued	-3058
▁website	-3059
▁und	-3060
▁pump	-3061
▁kilomet	-3062
governmental	-3063
▁researchers	-3064
adem	-3065
▁ess	-3066
▁maximum	-3067
iden	-3068
▁displ	-3069
▁London	-3070
▁travel	-3071
elines	-3072
▁predic	-3073
▁adopted	-3074
▁combustion	-3075
cont	-3076
akers	-3077
eties	-3078
▁Northern	-3079
▁creating	-3080
oe	-3081
▁Mc	-3082
produ	-3083
▁advoc	-3084
▁Electric	-3085
pose	-3086
ressed	-3087
▁desert	-3088
ita	-3089
luor	-3090
rovers	-3091
▁factor	-3092
att	-3093
▁Ice	-3094
arent	-3095
▁strat	-3096
▁fields	-3097
▁island	-3098
▁commonly	-3099
▁reservoir	-3100
stream	-3101
▁providing	-3102
▁equivalent	-3103
▁fav	-3104
cient	-3105
rition	-3106
▁Southern	-3107
rist	-3108
▁budget	-3109
▁get	-3110
▁host	-3111
▁Scient	-3112
iff	-3113
▁Found	-3114
▁landsc	-3115
▁vegetation	-3116
iam	-3117
▁sav	-3118
▁reven	-3119
▁France	-3120
▁return	-3121
▁benefit	-3122
cers	-3123
▁dang	-3124
▁done	-3125
▁resulted	-3126
hetic	-3127
▁units	-3128
▁Sm	-3129
▁ten	-3130
▁earlier	-3131
orks	-3132
▁Ren	-3133
version	-3134
▁floods	-3135
▁experience	-3136
▁Int	-3137
▁explo	-3138
▁intensity	-3139
change	-3140
▁consumer	-3141
▁performance	-3142
MO	-3143
▁der	-3144
▁thermal	-3145
▁monitoring	-3146
eor	-3147
▁hard	-3148
▁mitig	-3149
▁promote	-3150
▁regulation	-3151
oti	-3152
▁soy	-3153
▁summ	-3154
▁regul	-3155
▁Because	-3156
▁markets	-3157
▁reductions	-3158
▁Mediterranean	-3159
umb	-3160
▁sales	-3161
▁trading	-3162
▁tree	-3163
▁upon	-3164
▁polar	-3165
pread	-3166
▁autom	-3167
▁identified	-3168
▁inequ	-3169
▁labor	-3170
▁cannot	-3171
ule	-3172
ords	-3173
▁attempt	-3174
idespread	-3175
▁ensure	-3176
▁signed	-3177
▁consequences	-3178
▁combined	-3179
▁equipment	-3180
▁Agricultural	-3181
▁Bas	-3182
▁job	-3183
oking	-3184
▁suff	-3185
▁Another	-3186
berg	-3187
▁Niger	-3188
hel	-3189
▁Def	-3190
▁Mich	-3191
undred	-3192
▁poverty	-3193
▁conver	-3194
▁network	-3195
rees	-3196
ategy	-3197
▁categ	-3198
▁forcing	-3199
▁strategy	-3200
▁indigenous	-3201
RI	-3202
▁sequ	-3203
▁ship	-3204
▁Sub	-3205
▁Cong	-3206
▁log	-3207
▁landf	-3208
▁Corpor	-3209
▁output	-3210
formation	-3211
▁away	-3212
portion	-3213
▁Committee	-3214
empor	-3215
▁Stud	-3216
▁rail	-3217
▁stri	-3218
▁hol	-3219
▁biofu	-3220
▁biological	-3221
▁availability	-3222
zing	-3223
▁Fund	-3224
▁phase	-3225
ney	-3226
son	-3227
▁shows	-3228
electric	-3229
▁demonst	-3230
EC	-3231
▁justice	-3232
▁projected	-3233
celer	-3234
▁came	-3235
acteria	-3236
▁industries	-3237
▁legal	-3238
roughts	-3239
▁profess	-3240
▁successful	-3241
▁Mount	-3242
▁Management	-3243
ario	-3244
▁agreed	-3245
more	-3246
▁cert	-3247
▁extensive	-3248
DF	-3249
rs	-3250
▁Ed	-3251
▁Sun	-3252
▁producer	-3253
▁widespread	-3254
▁List	-3255
ma	-3256
ych	-3257
aste	-3258
▁Hol	-3259
▁unit	-3260
▁Nature	-3261
▁iron	-3262
ashion	-3263
itudes	-3264
▁grass	-3265
▁grown	-3266
▁allowed	-3267
▁pipeline	-3268
▁thought	-3269
▁viol	-3270
▁ethanol	-3271
▁+	-3272
▁final	-3273
inate	-3274
▁reefs	-3275
▁family	-3276
▁mountain	-3277
▁supported	-3278
▁concentration	-3279
ara	-3280
ota	-3281
see	-3282
▁yet	-3283
▁Camb	-3284
▁Greenhouse	-3285
▁accounting	-3286
arly	-3287
▁red	-3288
aring	-3289
▁extent	-3290
▁remain	-3291
▁legislation	-3292
▁Under	-3293
▁noted	-3294
▁streng	-3295
▁Association	-3296
▁Not	-3297
▁manufacturing	-3298
overed	-3299
lia	-3300
uous	-3301
▁Coal	-3302
▁Turkey	-3303
▁formation	-3304
▁framework	-3305
FCCC	-3306
▁Middle	-3307
▁applied	-3308
▁western	-3309
uel	-3310
▁sl	-3311
▁COP	-3312
luding	-3313
▁whole	-3314
▁allows	-3315
ifically	-3316
▁serious	-3317
pre	-3318
roy	-3319
▁guid	-3320
▁partn	-3321
▁increasingly	-3322
rupt	-3323
▁trop	-3324
▁fires	-3325
mission	-3326
▁predict	-3327
▁Ke	-3328
airy	-3329
▁capture	-3330
oor	-3331
▁Biden	-3332
▁Stand	-3333
▁theory	-3334
▁yields	-3335
▁Poll	-3336
▁subsidies	-3337
▁techniques	-3338
▁decreased	-3339
ES	-3340
yle	-3341
▁aware	-3342
▁cells	-3343
inistry	-3344
▁issued	-3345
▁launched	-3346
▁referred	-3347
▁migration	-3348
erb	-3349
▁Ret	-3350
ective	-3351
▁basis	-3352
▁dispos	-3353
▁incorpor	-3354
organ	-3355
▁General	-3356
▁outside	-3357
itary	-3358
▁left	-3359
▁diver	-3360
▁glaciers	-3361
ED	-3362
▁elev	-3363
▁Power	-3364
▁black	-3365
▁understanding	-3366
cra	-3367
obil	-3368
▁dig	-3369
urric	-3370
▁Organization	-3371
uk	-3372
rain	-3373
utes	-3374
▁Panel	-3375
▁meeting	-3376
asc	-3377
ula	-3378
▁constit	-3379
▁conference	-3380
▁Br	-3381
aid	-3382
▁Geor	-3383
▁shift	-3384
▁hundred	-3385
▁drop	-3386
▁goods	-3387
▁Foundation	-3388
▁circulation	-3389
phas	-3390
▁Val	-3391
▁location	-3392
▁Indonesia	-3393
ief	-3394
▁Lake	-3395
▁islands	-3396
▁rapidly	-3397
AR	-3398
bo	-3399
dings	-3400
▁sediment	-3401
▁Har	-3402
▁squ	-3403
▁mine	-3404
▁showed	-3405
▁position	-3406
aching	-3407
▁deaths	-3408
ographic	-3409
▁annually	-3410
▁i	-3411
▁opt	-3412
arian	-3413
▁lost	-3414
▁function	-3415
▁cust	-3416
asters	-3417
ows	-3418
uge	-3419
rown	-3420
▁hect	-3421
▁incent	-3422
ridge	-3423
▁winds	-3424
oes	-3425
atch	-3426
▁But	-3427
An	-3428
CS	-3429
inese	-3430
▁controvers	-3431
,"	-3432
▁peat	-3433
amples	-3434
▁oxide	-3435
▁wildf	-3436
▁locations	-3437
yond	-3438
▁Oil	-3439
▁phen	-3440
▁Ministry	-3441
gypt	-3442
rous	-3443
▁zone	-3444
rian	-3445
▁House	-3446
▁layer	-3447
▁volcan	-3448
▁destruction	-3449
just	-3450
▁Sim	-3451
▁plug	-3452
▁foods	-3453
erve	-3454
ynam	-3455
▁burn	-3456
▁diet	-3457
▁territ	-3458
▁pal	-3459
▁vir	-3460
▁focused	-3461
▁improved	-3462
EP	-3463
▁Go	-3464
▁critical	-3465
azon	-3466
inal	-3467
inity	-3468
▁leak	-3469
▁bill	-3470
▁prob	-3471
▁values	-3472
ago	-3473
▁Wild	-3474
▁hybrid	-3475
▁{	-3476
▁bott	-3477
▁leads	-3478
▁reason	-3479
uses	-3480
▁Just	-3481
ifying	-3482
▁businesses	-3483
pon	-3484
▁alt	-3485
▁doi	-3486
▁turb	-3487
▁soils	-3488
▁substantial	-3489
ises	-3490
olved	-3491
▁laws	-3492
▁synt	-3493
▁citiz	-3494
▁Russian	-3495
▁Archived	-3496
aff	-3497
rag	-3498
▁Vol	-3499
oline	-3500
▁active	-3501
▁linked	-3502
▁evolution	-3503
▁surrounding	-3504
▁once	-3505
iments	-3506
▁regarding	-3507
▁engineering	-3508
▁Qu	-3509
▁wee	-3510
▁text	-3511
▁west	-3512
restrial	-3513
▁scenario	-3514
▁mm	-3515
gent	-3516
▁warmer	-3517
▁droughts	-3518
▁Programme	-3519
ocr	-3520
osph	-3521
force	-3522
▁Swed	-3523
▁Egypt	-3524
▁chain	-3525
▁creation	-3526
▁processing	-3527
▁contributed	-3528
▁losses	-3529
▁becoming	-3530
sych	-3531
▁east	-3532
▁negoti	-3533
▁implemented	-3534
tt	-3535
ania	-3536
▁Redu	-3537
▁transfer	-3538
▁essential	-3539
▁fast	-3540
▁eastern	-3541
▁previously	-3542
▁Port	-3543
▁wast	-3544
▁added	-3545
▁moist	-3546
▁acceler	-3547
rieved	-3548
▁cooper	-3549
▁taking	-3550
▁Chinese	-3551
▁respond	-3552
▁climates	-3553
▁Antarctica	-3554
going	-3555
▁hours	-3556
▁emphas	-3557
ique	-3558
▁Dem	-3559
▁buy	-3560
utral	-3561
▁hous	-3562
ese	-3563
oic	-3564
win	-3565
▁Tex	-3566
rench	-3567
▁yield	-3568
▁nutrients	-3569
ica	-3570
ropri	-3571
▁Amazon	-3572
▁hazard	-3573
▁Conservation	-3574
▁Bang	-3575
▁build	-3576
▁Hyd	-3577
▁cloud	-3578
▁invas	-3579
▁diesel	-3580
eps	-3581
▁innov	-3582
▁lands	-3583
▁survey	-3584
▁subsequ	-3585
▁variability	-3586
);	-3587
yan	-3588
▁Pri	-3589
▁Dist	-3590
▁stake	-3591
▁Secret	-3592
▁produces	-3593
zen	-3594
▁La	-3595
izes	-3596
atell	-3597
riger	-3598
▁face	-3599
▁claims	-3600
▁culture	-3601
▁destroy	-3602
osing	-3603
ches	-3604
▁Niñ	-3605
enger	-3606
▁reli	-3607
▁miles	-3608
▁England	-3609
▁operation	-3610
cons	-3611
▁bord	-3612
▁self	-3613
▁abund	-3614
▁comes	-3615
▁cultural	-3616
iting	-3617
oks	-3618
▁mov	-3619
selves	-3620
▁agree	-3621
▁input	-3622
▁reform	-3623
▁fashion	-3624
▁happ	-3625
▁break	-3626
▁works	-3627
▁Early	-3628
▁geological	-3629
▁experienced	-3630
oa	-3631
▁Pal	-3632
▁youn	-3633
▁spring	-3634
▁wildlife	-3635
▁pp	-3636
rophic	-3637
▁solid	-3638
▁disaster	-3639
▁Emissions	-3640
arios	-3641
▁fishing	-3642
▁San	-3643
▁Arab	-3644
▁Black	-3645
▁advant	-3646
▁Char	-3647
▁reporting	-3648
▁potentially	-3649
▁No	-3650
level	-3651
▁magn	-3652
liament	-3653
asing	-3654
istry	-3655
▁storms	-3656
▁volume	-3657
▁custom	-3658
▁detail	-3659
ologists	-3660
dis	-3661
down	-3662
▁agencies	-3663
tra	-3664
▁birds	-3665
▁Will	-3666
urassic	-3667
▁aspects	-3668
▁experts	-3669
▁numerous	-3670
▁predicted	-3671
▁rainforest	-3672
▁environments	-3673
▁quick	-3674
▁liquid	-3675
▁Sa	-3676
bean	-3677
▁indirect	-3678
▁internal	-3679
▁BC	-3680
▁Eff	-3681
▁GDP	-3682
▁globally	-3683
IS	-3684
▁Ob	-3685
▁Day	-3686
▁base	-3687
▁enter	-3688
▁fract	-3689
▁Review	-3690
▁Dis	-3691
▁Prof	-3692
▁grid	-3693
▁divid	-3694
▁wells	-3695
▁records	-3696
▁Transport	-3697
▁independent	-3698
such	-3699
▁Also	-3700
▁places	-3701
▁elements	-3702
och	-3703
ront	-3704
▁gradu	-3705
▁Federal	-3706
▁institutions	-3707
isphere	-3708
▁etc	-3709
anging	-3710
▁humid	-3711
▁raised	-3712
iet	-3713
▁Solar	-3714
▁force	-3715
▁Retrieved	-3716
▁resilience	-3717
▁degrees	-3718
▁contract	-3719
▁alg	-3720
▁ill	-3721
▁named	-3722
▁bodies	-3723
▁excess	-3724
▁contains	-3725
▁conducted	-3726
▁approaches	-3727
▁First	-3728
▁passed	-3729
▁climatic	-3730
▁presence	-3731
▁technical	-3732
▁themselves	-3733
NA	-3734
▁Tu	-3735
time	-3736
▁Adv	-3737
▁gard	-3738
▁usage	-3739
▁governance	-3740
▁jo	-3741
▁sand	-3742
▁Adapt	-3743
▁Additionally	-3744
▁Ann	-3745
▁pand	-3746
▁Commun	-3747
▁authors	-3748
▁principles	-3749
▁mand	-3750
pers	-3751
▁obt	-3752
▁Park	-3753
ension	-3754
ologist	-3755
▁comput	-3756
▁minimum	-3757
EV	-3758
ope	-3759
udi	-3760
inary	-3761
▁elim	-3762
▁historical	-3763
CP	-3764
yt	-3765
ude	-3766
umin	-3767
▁Sur	-3768
▁dairy	-3769
▁points	-3770
▁brought	-3771
▁aims	-3772
▁diss	-3773
▁Korea	-3774
▁Congress	-3775
▁achieved	-3776
pass	-3777
▁inh	-3778
▁ran	-3779
lades	-3780
▁rare	-3781
▁Texas	-3782
▁emitted	-3783
▁journal	-3784
▁condition	-3785
aily	-3786
atin	-3787
▁don	-3788
aving	-3789
▁freshwater	-3790
mitted	-3791
▁occup	-3792
▁evapor	-3793
▁construct	-3794
▁cultivation	-3795
ya	-3796
▁BP	-3797
▁find	-3798
unicip	-3799
▁debate	-3800
▁decade	-3801
▁immedi	-3802
▁native	-3803
▁scheme	-3804
▁property	-3805
▁Ext	-3806
▁ult	-3807
▁Perm	-3808
▁depth	-3809
▁tobac	-3810
▁density	-3811
▁estimate	-3812
.)	-3813
rier	-3814
owered	-3815
▁Christ	-3816
▁tourism	-3817
▁contrast	-3818
▁producers	-3819
▁−	-3820
▁rough	-3821
▁gasoline	-3822
▁operating	-3823
▁tri	-3824
uries	-3825
afrost	-3826
▁refers	-3827
▁meaning	-3828
▁station	-3829
▁habitats	-3830
▁compounds	-3831
active	-3832
▁vapor	-3833
uilding	-3834
▁French	-3835
▁extraction	-3836
▁initiatives	-3837
VID	-3838
ban	-3839
ibly	-3840
rote	-3841
ulture	-3842
▁behind	-3843
▁Renewable	-3844
otic	-3845
▁David	-3846
▁Parties	-3847
▁reading	-3848
▁instance	-3849
▁refriger	-3850
▁assum	-3851
▁removal	-3852
oke	-3853
▁Due	-3854
▁idea	-3855
▁beyond	-3856
▁Islands	-3857
▁generate	-3858
▁question	-3859
▁application	-3860
▁mis	-3861
▁accum	-3862
▁select	-3863
▁depending	-3864
▁properties	-3865
Os	-3866
hens	-3867
duced	-3868
▁Journal	-3869
▁changed	-3870
▁tobacco	-3871
▁maintain	-3872
▁balance	-3873
▁replace	-3874
▁residents	-3875
vered	-3876
▁side	-3877
ees	-3878
aint	-3879
▁Initi	-3880
▁trends	-3881
apse	-3882
▁Bel	-3883
▁dim	-3884
▁rev	-3885
▁ever	-3886
riassic	-3887
▁remaining	-3888
▁Gr	-3889
▁Its	-3890
▁liter	-3891
▁disasters	-3892
▁inequality	-3893
▁applications	-3894
ford	-3895
iles	-3896
▁team	-3897
making	-3898
▁allowing	-3899
▁importance	-3900
BC	-3901
angu	-3902
▁radio	-3903
PDF	-3904
che	-3905
▁MW	-3906
ffic	-3907
otal	-3908
▁prote	-3909
ression	-3910
viation	-3911
▁degree	-3912
▁context	-3913
▁cyclones	-3914
▁scenarios	-3915
▁Cor	-3916
▁Alber	-3917
Ch	-3918
yp	-3919
ifer	-3920
ully	-3921
▁Bay	-3922
atform	-3923
▁withd	-3924
▁UNFCCC	-3925
▁capita	-3926
▁covered	-3927
▁leaders	-3928
▁recently	-3929
▁attention	-3930
▁Corporation	-3931
ida	-3932
oon	-3933
▁gender	-3934
▁extract	-3935
▁Sam	-3936
▁fig	-3937
▁Te	-3938
valu	-3939
fired	-3940
ladesh	-3941
▁COVID	-3942
▁weight	-3943
itz	-3944
rew	-3945
long	-3946
▁Low	-3947
▁square	-3948
gi	-3949
airs	-3950
osaur	-3951
▁sett	-3952
letion	-3953
▁Party	-3954
▁joint	-3955
▁revenue	-3956
▁suggests	-3957
rich	-3958
ellow	-3959
▁James	-3960
holders	-3961
▁Centre	-3962
▁amb	-3963
where	-3964
▁recon	-3965
▁wealth	-3966
▁harmful	-3967
▁awareness	-3968
▁determined	-3969
▁pul	-3970
▁firm	-3971
▁opin	-3972
▁cross	-3973
▁opportunities	-3974
abil	-3975
isheries	-3976
▁petroleum	-3977
ift	-3978
▁men	-3979
▁Coast	-3980
▁money	-3981
▁metric	-3982
▁reduces	-3983
▁statement	-3984
bur	-3985
ply	-3986
▁Gulf	-3987
▁wrote	-3988
▁exposed	-3989
▁measured	-3990
▁thousands	-3991
EA	-3992
▁Mont	-3993
▁Ur	-3994
oples	-3995
riend	-3996
▁Such	-3997
conomic	-3998
▁initial	-3999
▁components	-4000
ems	-4001
agen	-4002
ourse	-4003
▁safe	-4004
▁homes	-4005
▁wheat	-4006
▁center	-4007
▁Current	-4008
▁investig	-4009
SP	-4010
▁give	-4011
▁Board	-4012
▁lakes	-4013
▁deposits	-4014
▁wetlands	-4015
▁Greenland	-4016
▁ep	-4017
shore	-4018
▁Shell	-4019
▁involve	-4020
▁Revolution	-4021
▁fertilizers	-4022
▁contamination	-4023
▁fix	-4024
▁compl	-4025
▁Jurassic	-4026
▁investments	-4027
nce	-4028
ided	-4029
▁...	-4030
▁melting	-4031
▁Adaptation	-4032
▁definition	-4033
▁Govern	-4034
▁Impacts	-4035
▁conflict	-4036
▁Bangladesh	-4037
▁Technology	-4038
▁continental	-4039
▁waves	-4040
oman	-4041
▁town	-4042
▁carry	-4043
Climate	-4044
Th	-4045
▁exam	-4046
uments	-4047
▁parties	-4048
%)	-4049
▁Str	-4050
▁Framework	-4051
▁structures	-4052
ael	-4053
rael	-4054
▁Her	-4055
▁Gree	-4056
mental	-4057
▁Increas	-4058
▁Service	-4059
▁citizens	-4060
eff	-4061
rap	-4062
ounter	-4063
▁satell	-4064
ineering	-4065
▁affects	-4066
▁attributed	-4067
aska	-4068
▁Sal	-4069
▁corn	-4070
▁jobs	-4071
▁mach	-4072
▁agency	-4073
▁Working	-4074
▁despite	-4075
▁Pollution	-4076
UN	-4077
▁expert	-4078
▁middle	-4079
including	-4080
▁executive	-4081
enge	-4082
▁pen	-4083
▁mark	-4084
▁pled	-4085
▁takes	-4086
▁distin	-4087
▁pandemic	-4088
▁responsibility	-4089
▁alone	-4090
▁evalu	-4091
▁intended	-4092
▁completed	-4093
ops	-4094
▁Tw	-4095
▁ver	-4096
acing	-4097
▁hypot	-4098
▁sulfur	-4099
▁roughly	-4100
▁decisions	-4101
lig	-4102
xon	-4103
ider	-4104
▁Biod	-4105
iveness	-4106
▁Studies	-4107
▁approved	-4108
▁rot	-4109
▁date	-4110
▁founded	-4111
▁mechanisms	-4112
lec	-4113
utch	-4114
▁fru	-4115
iction	-4116
▁glacial	-4117
▁involves	-4118
▁determine	-4119
▁improving	-4120
▁radiative	-4121
▁terrestrial	-4122
semb	-4123
▁bro	-4124
▁white	-4125
outheast	-4126
▁director	-4127
▁frequent	-4128
▁packaging	-4129
▁integrated	-4130
▁permafrost	-4131
ilit	-4132
ength	-4133
▁Norway	-4134
▁denial	-4135
▁foreign	-4136
▁accounts	-4137
iring	-4138
otton	-4139
▁vent	-4140
▁finance	-4141
▁Sciences	-4142
▁acquired	-4143
▁frequency	-4144
▁landscape	-4145
▁Pa	-4146
ishing	-4147
oved	-4148
lihood	-4149
▁chlor	-4150
▁online	-4151
▁adverse	-4152
▁differences	-4153
well	-4154
▁san	-4155
▁vot	-4156
▁military	-4157
▁criticized	-4158
hing	-4159
▁Age	-4160
▁aeros	-4161
▁flows	-4162
▁purpose	-4163
▁occurring	-4164
▁contribution	-4165
▁Flor	-4166
▁perce	-4167
▁Social	-4168
▁mitigate	-4169
▁depletion	-4170
bre	-4171
onal	-4172
▁doub	-4173
▁Times	-4174
▁minor	-4175
▁rocks	-4176
▁perman	-4177
▁battery	-4178
▁Initiative	-4179
▁Of	-4180
free	-4181
▁fully	-4182
▁runoff	-4183
▁believed	-4184
▁hectares	-4185
ET	-4186
war	-4187
acks	-4188
▁raw	-4189
oration	-4190
▁cycles	-4191
▁believe	-4192
▁reasons	-4193
▁collabor	-4194
▁interact	-4195
▁fertilizer	-4196
▁resistance	-4197
▁Farm	-4198
▁schol	-4199
▁whose	-4200
▁limits	-4201
▁status	-4202
▁Justice	-4203
▁traffic	-4204
ky	-4205
▁GW	-4206
ozoic	-4207
▁Rober	-4208
▁neigh	-4209
▁Israel	-4210
▁jud	-4211
works	-4212
arcity	-4213
▁basic	-4214
▁upper	-4215
ruption	-4216
▁claimed	-4217
▁receive	-4218
lications	-4219
▁Alliance	-4220
▁Pale	-4221
▁Profess	-4222
▁drinking	-4223
▁feedback	-4224
▁phenomen	-4225
ca	-4226
itch	-4227
▁let	-4228
▁prop	-4229
▁setting	-4230
onds	-4231
▁Mor	-4232
▁tit	-4233
▁feet	-4234
▁salt	-4235
utional	-4236
▁economics	-4237
uty	-4238
raul	-4239
ilipp	-4240
▁acres	-4241
▁Nigeria	-4242
▁removed	-4243
▁appropri	-4244
▁extremely	-4245
obby	-4246
▁bit	-4247
▁saw	-4248
▁numbers	-4249
▁quickly	-4250
▁features	-4251
▁reaching	-4252
▁presented	-4253
bi	-4254
▁cub	-4255
itect	-4256
▁Fran	-4257
▁Meth	-4258
▁Nuclear	-4259
▁fossils	-4260
ino	-4261
▁greatly	-4262
mark	-4263
▁Bet	-4264
▁seed	-4265
▁thousand	-4266
AS	-4267
log	-4268
▁Bal	-4269
▁retail	-4270
▁Secretary	-4271
▁specifically	-4272
ods	-4273
umn	-4274
anes	-4275
fall	-4276
▁Ber	-4277
ought	-4278
▁molec	-4279
▁rules	-4280
▁corporate	-4281
▁prep	-4282
▁concl	-4283
riendly	-4284
▁Academ	-4285
▁insects	-4286
▁disposal	-4287
▁livelihood	-4288
▁LNG	-4289
▁party	-4290
▁Philipp	-4291
▁nutrient	-4292
na	-4293
▁Hem	-4294
▁eight	-4295
unicipal	-4296
▁engines	-4297
▁kilometres	-4298
▁respectively	-4299
▁environmentally	-4300
▁regular	-4301
▁scarcity	-4302
▁expensive	-4303
DA	-4304
holds	-4305
▁Polit	-4306
▁basin	-4307
▁zones	-4308
▁planned	-4309
▁behavior	-4310
▁election	-4311
▁examples	-4312
▁passenger	-4313
emi	-4314
ocal	-4315
▁Asian	-4316
▁slight	-4317
▁Despite	-4318
▁Warming	-4319
PS	-4320
ado	-4321
▁Rio	-4322
▁exc	-4323
▁reb	-4324
▁sugar	-4325
▁stores	-4326
orph	-4327
eared	-4328
▁owned	-4329
▁Tuvalu	-4330
▁neutral	-4331
▁forecast	-4332
▁modified	-4333
▁separate	-4334
▁eventually	-4335
▁variations	-4336
▁combination	-4337
ony	-4338
▁Li	-4339
▁him	-4340
▁tools	-4341
▁margin	-4342
▁English	-4343
▁heavily	-4344
ria	-4345
There	-4346
▁Mass	-4347
▁Future	-4348
▁Network	-4349
▁external	-4350
gn	-4351
▁NO	-4352
▁driven	-4353
▁restrict	-4354
enh	-4355
▁beg	-4356
ologic	-4357
▁toward	-4358
CF	-4359
TA	-4360
▁Che	-4361
charge	-4362
raulic	-4363
▁lines	-4364
▁seven	-4365
▁metres	-4366
▁Several	-4367
ncy	-4368
▁Edu	-4369
▁Que	-4370
anted	-4371
▁Bill	-4372
▁herb	-4373
▁catast	-4374
▁instru	-4375
▁phosph	-4376
▁politics	-4377
▁supplies	-4378
▁initiative	-4379
ery	-4380
aria	-4381
▁Soil	-4382
aration	-4383
▁Business	-4384
▁seasonal	-4385
▁emergency	-4386
▁pesticide	-4387
En	-4388
wise	-4389
▁aid	-4390
▁fat	-4391
▁vast	-4392
duction	-4393
▁credits	-4394
▁meg	-4395
▁ord	-4396
herlands	-4397
▁comparison	-4398
▁electrical	-4399
▁contributing	-4400
gg	-4401
▁Bio	-4402
▁imm	-4403
▁sew	-4404
▁furn	-4405
▁reve	-4406
▁Michael	-4407
▁William	-4408
▁technological	-4409
cation	-4410
▁alloc	-4411
▁psych	-4412
▁exceed	-4413
▁useful	-4414
▁varies	-4415
▁affecting	-4416
▁transmission	-4417
lin	-4418
▁ast	-4419
▁emb	-4420
poses	-4421
energy	-4422
▁Wales	-4423
▁stock	-4424
▁young	-4425
▁kg	-4426
soon	-4427
lines	-4428
▁coord	-4429
emporary	-4430
▁opposed	-4431
▁peoples	-4432
ured	-4433
riers	-4434
▁dust	-4435
▁divided	-4436
▁failure	-4437
▁indicate	-4438
▁installed	-4439
▁interests	-4440
▁particles	-4441
▁households	-4442
▁Netherlands	-4443
DG	-4444
ij	-4445
lt	-4446
aled	-4447
▁cru	-4448
▁fem	-4449
onian	-4450
▁Late	-4451
▁mixed	-4452
▁cement	-4453
▁collapse	-4454
▁nutrition	-4455
▁Lim	-4456
▁Rich	-4457
▁Scot	-4458
▁aver	-4459
ewater	-4460
▁Office	-4461
▁corals	-4462
▁saying	-4463
▁dangerous	-4464
▁expressed	-4465
mes	-4466
▁rul	-4467
orter	-4468
▁Dutch	-4469
▁relevant	-4470
AO	-4471
eter	-4472
▁Dam	-4473
▁lake	-4474
indust	-4475
▁Techn	-4476
▁School	-4477
▁moisture	-4478
▁‘	-4479
▁Dar	-4480
▁ign	-4481
inating	-4482
▁lowest	-4483
▁Eastern	-4484
▁boundary	-4485
▁recycled	-4486
▁replaced	-4487
▁scientist	-4488
▁synthetic	-4489
otechnology	-4490
EI	-4491
▁Rel	-4492
▁doll	-4493
▁palm	-4494
▁store	-4495
tropical	-4496
▁compost	-4497
▁reserves	-4498
▁wildfires	-4499
▁Administration	-4500
cipl	-4501
▁daily	-4502
▁options	-4503
▁economies	-4504
▁sufficient	-4505
lam	-4506
auna	-4507
enda	-4508
▁CEO	-4509
▁Den	-4510
▁upd	-4511
▁Thus	-4512
▁metals	-4513
▁facilit	-4514
▁expanded	-4515
▁dependent	-4516
▁Indigenous	-4517
▁collection	-4518
%),	-4519
▁mal	-4520
ctive	-4521
▁Basin	-4522
▁explor	-4523
▁reject	-4524
▁attract	-4525
▁becomes	-4526
▁diverse	-4527
▁bacteria	-4528
▁solution	-4529
craft	-4530
which	-4531
▁Obama	-4532
▁alter	-4533
▁faster	-4534
▁actually	-4535
▁facility	-4536
vin	-4537
▁Ox	-4538
ancing	-4539
▁accur	-4540
▁absorb	-4541
▁component	-4542
▁sym	-4543
ented	-4544
▁here	-4545
▁melt	-4546
▁Total	-4547
▁cubic	-4548
▁Period	-4549
▁promoting	-4550
rim	-4551
▁cm	-4552
▁nan	-4553
▁rule	-4554
▁accom	-4555
▁court	-4556
▁moved	-4557
▁carried	-4558
▁reprodu	-4559
fficiency	-4560
▁sunlight	-4561
ius	-4562
lev	-4563
▁Pak	-4564
▁counter	-4565
▁Industrial	-4566
▁Sustainability	-4567
▁Cap	-4568
▁gall	-4569
▁offset	-4570
▁recovery	-4571
▁sediments	-4572
▁Furthermore	-4573
head	-4574
▁rich	-4575
▁Latin	-4576
▁langu	-4577
▁volunt	-4578
▁enhance	-4579
▁seasons	-4580
▁forestry	-4581
▁protected	-4582
▁commission	-4583
Acc	-4584
come	-4585
olit	-4586
▁mamm	-4587
▁always	-4588
▁divers	-4589
▁forced	-4590
▁Alberta	-4591
▁connect	-4592
▁conserv	-4593
▁completely	-4594
▁introduction	-4595
▁core	-4596
▁adopt	-4597
▁Columb	-4598
▁consists	-4599
▁intensive	-4600
▁Sil	-4601
▁prem	-4602
▁chair	-4603
▁lives	-4604
▁install	-4605
▁contributes	-4606
Al	-4607
kn	-4608
▁Lab	-4609
▁mus	-4610
▁relig	-4611
▁closed	-4612
▁ecology	-4613
▁managed	-4614
▁{\	-4615
uing	-4616
▁Niño	-4617
▁Rain	-4618
▁says	-4619
▁sent	-4620
urning	-4621
▁block	-4622
▁encourage	-4623
sen	-4624
wan	-4625
obile	-4626
▁beef	-4627
▁mort	-4628
▁util	-4629
▁People	-4630
▁Robert	-4631
▁depends	-4632
▁opinion	-4633
Ph	-4634
▁hor	-4635
ading	-4636
▁Turk	-4637
urance	-4638
▁award	-4639
▁board	-4640
▁proportion	-4641
TS	-4642
sw	-4643
▁—	-4644
fit	-4645
ancy	-4646
viet	-4647
▁Cop	-4648
▁fle	-4649
▁pig	-4650
inery	-4651
▁Paul	-4652
▁deer	-4653
▁flex	-4654
▁shel	-4655
▁Urban	-4656
▁Atmosp	-4657
▁office	-4658
▁simply	-4659
▁derived	-4660
▁dominant	-4661
▁impacted	-4662
▁purchase	-4663
omb	-4664
greg	-4665
▁bran	-4666
▁Exxon	-4667
▁assets	-4668
▁corres	-4669
▁centuries	-4670
▁Eth	-4671
acerb	-4672
▁migr	-4673
insula	-4674
rehens	-4675
▁think	-4676
▁Valley	-4677
▁personal	-4678
▁continues	-4679
▁mechanism	-4680
eorological	-4681
▁fracturing	-4682
▁participation	-4683
ER	-4684
ronic	-4685
▁hundreds	-4686
vironmental	-4687
AA	-4688
rove	-4689
▁Siber	-4690
▁County	-4691
▁purposes	-4692
▁activists	-4693
▁commitment	-4694
▁Ro	-4695
ously	-4696
▁trad	-4697
▁stage	-4698
▁taxes	-4699
▁clouds	-4700
aturally	-4701
▁threats	-4702
According	-4703
▁Triassic	-4704
▁declined	-4705
St	-4706
augh	-4707
▁Inf	-4708
▁Mit	-4709
▁Out	-4710
▁vert	-4711
▁brand	-4712
tenance	-4713
▁Invest	-4714
▁forces	-4715
▁placed	-4716
▁genetic	-4717
▁massive	-4718
▁transform	-4719
▁projections	-4720
eed	-4721
opl	-4722
▁Mer	-4723
▁Roy	-4724
▁Four	-4725
▁cotton	-4726
▁customers	-4727
▁Hemisphere	-4728
▁consistent	-4729
▁vulnerability	-4730
roc	-4731
▁Vir	-4732
▁you	-4733
▁poly	-4734
struct	-4735
▁table	-4736
resents	-4737
▁provin	-4738
▁schools	-4739
▁salinity	-4740
▁shipping	-4741
industrial	-4742
▁controlled	-4743
▁difference	-4744
▁partnership	-4745
bul	-4746
▁CF	-4747
▁Us	-4748
rect	-4749
▁uns	-4750
▁sheet	-4751
▁Sweden	-4752
▁cancer	-4753
idential	-4754
▁advanced	-4755
▁biofuels	-4756
▁circular	-4757
▁possibly	-4758
▁frequently	-4759
}}	-4760
bedo	-4761
▁Steel	-4762
▁label	-4763
▁stable	-4764
ollowing	-4765
▁ongoing	-4766
▁permits	-4767
▁incentives	-4768
▁communication	-4769
eria	-4770
play	-4771
▁mat	-4772
▁Iran	-4773
▁dram	-4774
▁metal	-4775
▁Marine	-4776
▁ancient	-4777
▁Pakistan	-4778
▁Parliament	-4779
▁percentage	-4780
▁Ire	-4781
▁nar	-4782
▁chem	-4783
▁look	-4784
▁White	-4785
▁funds	-4786
▁renew	-4787
▁spent	-4788
▁covers	-4789
▁Florida	-4790
opulation	-4791
▁hazardous	-4792
▁recommend	-4793
elt	-4794
▁Emp	-4795
▁Mil	-4796
▁cry	-4797
▁hold	-4798
idents	-4799
imalay	-4800
▁Italy	-4801
▁Waste	-4802
▁analy	-4803
▁drain	-4804
▁Histor	-4805
▁adjust	-4806
▁exacerb	-4807
▁nitrous	-4808
▁volcanic	-4809
GI	-4810
EPA	-4811
▁CAF	-4812
▁rank	-4813
▁algae	-4814
▁bottom	-4815
othermal	-4816
aran	-4817
odes	-4818
▁Both	-4819
▁Phil	-4820
▁wave	-4821
othing	-4822
▁shall	-4823
▁ultim	-4824
▁hazards	-4825
▁advantage	-4826
▁regulatory	-4827
▁effectively	-4828
rac	-4829
▁AR	-4830
ault	-4831
▁Penn	-4832
▁sell	-4833
▁fewer	-4834
▁millions	-4835
▁Professor	-4836
▁discovered	-4837
▁literature	-4838
▁mang	-4839
▁thin	-4840
istant	-4841
▁argue	-4842
▁disapp	-4843
urricane	-4844
▁biggest	-4845
▁starting	-4846
▁conversion	-4847
ato	-4848
lets	-4849
ocks	-4850
▁How	-4851
apers	-4852
apter	-4853
▁Pers	-4854
ificial	-4855
▁equator	-4856
▁remained	-4857
ademic	-4858
lacial	-4859
▁unique	-4860
▁whereas	-4861
efficient	-4862
▁platform	-4863
▁biodiesel	-4864
▁hydrocarbon	-4865
▁observations	-4866
ev	-4867
uthor	-4868
▁latter	-4869
▁stored	-4870
▁Britain	-4871
▁exports	-4872
▁section	-4873
▁mountains	-4874
▁recognized	-4875
▁represents	-4876
aj	-4877
▁Im	-4878
▁Ter	-4879
▁stop	-4880
▁never	-4881
▁offer	-4882
▁roads	-4883
▁Control	-4884
▁focuses	-4885
▁breeding	-4886
▁weak	-4887
▁went	-4888
encing	-4889
ysical	-4890
▁Their	-4891
▁continuous	-4892
▁influenced	-4893
known	-4894
▁alle	-4895
▁quar	-4896
▁crude	-4897
climate	-4898
▁Common	-4899
▁Soviet	-4900
▁meters	-4901
▁consumed	-4902
▁Education	-4903
▁situation	-4904
▁generations	-4905
ms	-4906
alk	-4907
onom	-4908
▁intens	-4909
▁normal	-4910
▁District	-4911
▁coverage	-4912
ada	-4913
orms	-4914
▁Spain	-4915
▁moving	-4916
▁Himalay	-4917
▁suitable	-4918
▁hydraulic	-4919
▁uncertainty	-4920
IA	-4921
kes	-4922
▁ble	-4923
▁Sand	-4924
▁insp	-4925
▁Plant	-4926
▁motor	-4927
▁remove	-4928
emperate	-4929
▁comment	-4930
▁constant	-4931
▁household	-4932
ctor	-4933
▁trib	-4934
▁favor	-4935
ocratic	-4936
▁plastics	-4937
▁Americans	-4938
▁reservoirs	-4939
Co	-4940
ifth	-4941
▁Est	-4942
▁index	-4943
▁worked	-4944
▁consult	-4945
▁intense	-4946
▁persist	-4947
▁maintenance	-4948
▁characteristics	-4949
▁Ir	-4950
▁Mart	-4951
▁rely	-4952
ourism	-4953
▁listed	-4954
▁photos	-4955
▁Academy	-4956
▁typical	-4957
▁Examples	-4958
▁agreements	-4959
▁pan	-4960
comes	-4961
ifies	-4962
▁except	-4963
ynthesis	-4964
▁Security	-4965
▁scholars	-4966
▁architect	-4967
▁threatened	-4968
▁Philippines	-4969
▁competition	-4970
spe	-4971
ming	-4972
attle	-4973
▁That	-4974
▁adequ	-4975
▁Ireland	-4976
▁portion	-4977
▁Standard	-4978
▁appeared	-4979
▁extended	-4980
▁strongly	-4981
▁findings	-4982
▁connected	-4983
▁converted	-4984
▁cooperation	-4985
▁gl	-4986
▁dur	-4987
▁hun	-4988
gener	-4989
estone	-4990
▁steam	-4991
▁depart	-4992
▁prepar	-4993
▁aquatic	-4994
rehensive	-4995
▁municipal	-4996
▁Pen	-4997
ician	-4998
scill	-4999
▁Form	-5000
▁trig	-5001
imental	-5002
▁height	-5003
▁inject	-5004
▁killed	-5005
▁opened	-5006
▁employees	-5007
▁naturally	-5008
▁Dr	-5009
▁NG	-5010
wood	-5011
elfare	-5012
inding	-5013
▁Prime	-5014
▁George	-5015
▁easily	-5016
▁transp	-5017
▁Special	-5018
▁criticism	-5019
▁Fl	-5020
▁Ve	-5021
arsh	-5022
irth	-5023
with	-5024
▁Mad	-5025
ishes	-5026
enhagen	-5027
▁Similar	-5028
▁creates	-5029
▁Columbia	-5030
▁otherwise	-5031
▁composition	-5032
▁hydroelectric	-5033
orus	-5034
quar	-5035
rief	-5036
cycle	-5037
▁Hong	-5038
▁dynam	-5039
▁persp	-5040
▁sands	-5041
▁centers	-5042
▁oceanic	-5043
▁sequest	-5044
▁exchange	-5045
▁withdraw	-5046
▁concerned	-5047
▁appropriate	-5048
▁Mic	-5049
anish	-5050
ilies	-5051
▁Life	-5052
▁arid	-5053
▁Index	-5054
▁chann	-5055
▁going	-5056
▁ratio	-5057
▁protein	-5058
▁networks	-5059
▁challenge	-5060
▁Sing	-5061
▁repe	-5062
ocarbon	-5063
stanbul	-5064
▁invasive	-5065
▁addressing	-5066
▁quantities	-5067
▁€	-5068
▁Crit	-5069
▁fluor	-5070
▁intern	-5071
▁fisheries	-5072
▁PM	-5073
andon	-5074
irmed	-5075
▁else	-5076
ailand	-5077
▁Trade	-5078
▁Permian	-5079
▁adoption	-5080
▁trillion	-5081
▁boundaries	-5082
▁originally	-5083
ett	-5084
anned	-5085
▁arri	-5086
igraph	-5087
▁aimed	-5088
▁cited	-5089
ulating	-5090
▁Alaska	-5091
▁stages	-5092
▁Official	-5093
▁Cambridge	-5094
▁carbonate	-5095
▁varieties	-5096
SO	-5097
cut	-5098
ietn	-5099
▁Lar	-5100
▁ske	-5101
▁Royal	-5102
▁raise	-5103
▁border	-5104
▁supporting	-5105
▁/	-5106
▁eru	-5107
ested	-5108
▁frag	-5109
▁ones	-5110
▁pests	-5111
▁therm	-5112
▁track	-5113
▁worst	-5114
▁permit	-5115
▁committed	-5116
▁contributions	-5117
ingu	-5118
made	-5119
onic	-5120
▁Home	-5121
▁greatest	-5122
▁indicators	-5123
▁wastewater	-5124
BM	-5125
lar	-5126
▁sq	-5127
▁lic	-5128
erals	-5129
▁Kong	-5130
▁Vari	-5131
▁drug	-5132
▁vill	-5133
▁chief	-5134
angered	-5135
▁failed	-5136
ortheast	-5137
▁Effects	-5138
▁digital	-5139
▁operate	-5140
▁Building	-5141
▁Copenhagen	-5142
▁manufacturers	-5143
RA	-5144
▁sn	-5145
▁Saf	-5146
aceous	-5147
loyment	-5148
▁compens	-5149
▁mineral	-5150
It	-5151
fuel	-5152
ying	-5153
▁Tim	-5154
liest	-5155
▁isol	-5156
▁Labor	-5157
▁delay	-5158
▁ranges	-5159
atically	-5160
▁appoint	-5161
▁housing	-5162
▁streams	-5163
▁Therefore	-5164
idae	-5165
ester	-5166
igned	-5167
▁thick	-5168
western	-5169
▁Second	-5170
▁Senate	-5171
▁barrel	-5172
▁aircraft	-5173
▁principle	-5174
▁prominent	-5175
▁decreasing	-5176
▁Temperature	-5177
US	-5178
ken	-5179
ona	-5180
iary	-5181
▁egg	-5182
anium	-5183
▁Even	-5184
▁Wind	-5185
▁ment	-5186
▁wall	-5187
▁week	-5188
▁users	-5189
▁mention	-5190
▁outcomes	-5191
▁marketing	-5192
▁USA	-5193
▁dead	-5194
▁lobby	-5195
▁Thailand	-5196
▁discussed	-5197
▁latitudes	-5198
eder	-5199
inks	-5200
▁Data	-5201
▁cand	-5202
▁occas	-5203
▁Argent	-5204
▁commod	-5205
▁humanity	-5206
▁identify	-5207
▁Scientific	-5208
▁guidelines	-5209
DT	-5210
mar	-5211
icip	-5212
oring	-5213
▁Darwin	-5214
▁Brazilian	-5215
▁satellite	-5216
")	-5217
rary	-5218
etary	-5219
style	-5220
▁Gore	-5221
▁Vietn	-5222
▁moder	-5223
▁actual	-5224
▁nearby	-5225
▁driving	-5226
▁univers	-5227
▁measurements	-5228
yr	-5229
ati	-5230
ips	-5231
▁eco	-5232
▁Sant	-5233
▁speed	-5234
▁served	-5235
▁advance	-5236
▁Director	-5237
▁district	-5238
gyz	-5239
urt	-5240
▁Uk	-5241
ceed	-5242
▁era	-5243
▁Circ	-5244
▁Franc	-5245
▁equal	-5246
▁serve	-5247
▁views	-5248
▁course	-5249
▁programme	-5250
▁cou	-5251
itors	-5252
income	-5253
▁extinct	-5254
▁winters	-5255
▁clothing	-5256
▁exploration	-5257
▁represented	-5258
▁corporations	-5259
DR	-5260
akh	-5261
men	-5262
▁il	-5263
lege	-5264
olic	-5265
oted	-5266
ients	-5267
lared	-5268
▁anti	-5269
unberg	-5270
▁respir	-5271
abilities	-5272
▁evaporation	-5273
EF	-5274
oo	-5275
ffee	-5276
idal	-5277
being	-5278
▁incl	-5279
ministr	-5280
▁families	-5281
▁probably	-5282
▁conflicts	-5283
▁mortality	-5284
▁§	-5285
▁Aff	-5286
▁Dev	-5287
▁Deal	-5288
▁optim	-5289
▁silic	-5290
▁Virgin	-5291
▁manage	-5292
quarters	-5293
▁Finland	-5294
▁dollars	-5295
▁studied	-5296
▁accounted	-5297
▁permanent	-5298
ua	-5299
EDD	-5300
umes	-5301
▁Pat	-5302
▁fair	-5303
▁semi	-5304
▁lawsu	-5305
▁length	-5306
▁tropics	-5307
▁drilling	-5308
ylv	-5309
green	-5310
▁hunt	-5311
▁Saudi	-5312
▁grain	-5313
▁Rights	-5314
▁unlike	-5315
▁mammals	-5316
▁Regional	-5317
▁reaction	-5318
▁vertical	-5319
acc	-5320
iffs	-5321
pring	-5322
▁lith	-5323
usions	-5324
▁Market	-5325
▁charge	-5326
▁Between	-5327
▁follows	-5328
▁grazing	-5329
▁slightly	-5330
▁considerable	-5331
▁economically	-5332
▁Ant	-5333
▁hem	-5334
▁bear	-5335
▁link	-5336
▁paid	-5337
▁pest	-5338
▁fight	-5339
▁Summit	-5340
▁coming	-5341
ationally	-5342
▁Atmospheric	-5343
▁substantially	-5344
CM	-5345
sembly	-5346
▁drive	-5347
▁contact	-5348
▁temperate	-5349
▁comprehensive	-5350
ns	-5351
▁dro	-5352
▁load	-5353
▁About	-5354
▁illeg	-5355
uations	-5356
▁proced	-5357
▁simple	-5358
▁Economics	-5359
CH	-5360
▁behavi	-5361
▁enforce	-5362
▁drainage	-5363
▁indicated	-5364
▁subsequent	-5365
▁Ev	-5366
olta	-5367
▁Kyr	-5368
▁grew	-5369
▁seeds	-5370
▁medium	-5371
▁abandon	-5372
▁authorities	-5373
▁underground	-5374
alt	-5375
cury	-5376
know	-5377
▁Flo	-5378
▁Haw	-5379
▁bul	-5380
▁gave	-5381
▁lear	-5382
▁spons	-5383
▁Richard	-5384
mentation	-5385
▁planting	-5386
ustainable	-5387
▁Biodiversity	-5388
▁negotiations	-5389
CI	-5390
Re	-5391
asp	-5392
ola	-5393
pet	-5394
▁prec	-5395
▁samp	-5396
▁Carib	-5397
▁Kyrgyz	-5398
▁monsoon	-5399
▁Thunberg	-5400
▁accepted	-5401
▁supports	-5402
▁commitments	-5403
▁distributed	-5404
ST	-5405
teb	-5406
▁Hy	-5407
▁Supp	-5408
▁soft	-5409
▁ammon	-5410
▁worth	-5411
▁layers	-5412
▁Francis	-5413
▁Scotland	-5414
▁barriers	-5415
▁achieving	-5416
▁ownership	-5417
▁classified	-5418
▁Way	-5419
▁adult	-5420
▁Istanbul	-5421
▁Wildlife	-5422
▁decreases	-5423
▁Production	-5424
bour	-5425
roly	-5426
▁Rad	-5427
▁Cost	-5428
▁News	-5429
▁invent	-5430
▁employment	-5431
▁constructed	-5432
▁alternatives	-5433
bert	-5434
ports	-5435
▁pale	-5436
unction	-5437
▁regist	-5438
▁logging	-5439
▁territory	-5440
org	-5441
Some	-5442
▁Dec	-5443
borne	-5444
gence	-5445
usive	-5446
forest	-5447
▁imports	-5448
▁leaving	-5449
▁landfills	-5450
▁reference	-5451
▁sequestration	-5452
ham	-5453
met	-5454
pan	-5455
▁Lead	-5456
▁shar	-5457
▁tank	-5458
▁true	-5459
▁Chile	-5460
▁apply	-5461
▁multi	-5462
▁ranked	-5463
▁deliver	-5464
▁pricing	-5465
struction	-5466
▁operated	-5467
▁strength	-5468
▁initially	-5469
▁containing	-5470
▁extinctions	-5471
born	-5472
cure	-5473
▁Bush	-5474
▁Reef	-5475
▁qual	-5476
▁susp	-5477
▁bears	-5478
▁assist	-5479
▁double	-5480
isations	-5481
▁welfare	-5482
▁criteria	-5483
▁operates	-5484
▁collected	-5485
▁secondary	-5486
▁variation	-5487
era	-5488
▁Gen	-5489
▁dat	-5490
▁extra	-5491
▁treaty	-5492
▁province	-5493
▁artificial	-5494
▁substances	-5495
▁improvements	-5496
.).	-5497
▁inj	-5498
▁Hans	-5499
▁fell	-5500
▁huge	-5501
ovolta	-5502
▁sense	-5503
▁trucks	-5504
▁written	-5505
▁academic	-5506
▁distinct	-5507
▁neighbor	-5508
▁students	-5509
▁Caribbean	-5510
▁destroyed	-5511
▁societies	-5512
▁acidification	-5513
▁Bib	-5514
▁why	-5515
▁Post	-5516
▁dire	-5517
▁exha	-5518
▁Treat	-5519
▁closely	-5520
▁proposal	-5521
▁distribut	-5522
▁Ecological	-5523
▁objectives	-5524
▁restoration	-5525
sylv	-5526
fered	-5527
icians	-5528
▁acknow	-5529
▁sewage	-5530
▁stabil	-5531
▁things	-5532
▁Leg	-5533
▁Zero	-5534
ulates	-5535
▁combat	-5536
▁correl	-5537
▁crucial	-5538
▁aviation	-5539
▁categories	-5540
▁implications	-5541
fish	-5542
uality	-5543
▁ships	-5544
▁belief	-5545
▁microb	-5546
▁profit	-5547
▁entirely	-5548
▁batteries	-5549
▁dominated	-5550
▁opposition	-5551
▁Information	-5552
▁possibility	-5553
ideo	-5554
▁Non	-5555
▁Two	-5556
▁ash	-5557
oreal	-5558
▁Exper	-5559
▁Partn	-5560
▁credit	-5561
▁declared	-5562
▁geologic	-5563
▁imported	-5564
rat	-5565
uck	-5566
▁Super	-5567
▁leaves	-5568
▁thereby	-5569
sufficient	-5570
▁publication	-5571
bit	-5572
anks	-5573
apes	-5574
izon	-5575
▁Bur	-5576
▁III	-5577
licit	-5578
▁albedo	-5579
ospheric	-5580
▁Following	-5581
▁describes	-5582
▁foundation	-5583
▁representing	-5584
ye	-5585
cium	-5586
▁Kar	-5587
field	-5588
scept	-5589
▁NASA	-5590
▁news	-5591
▁smoke	-5592
▁joined	-5593
▁glacier	-5594
▁warning	-5595
▁earliest	-5596
▁limiting	-5597
▁addressed	-5598
▁interview	-5599
▁stability	-5600
▁particulate	-5601
kel	-5602
▁Lit	-5603
iform	-5604
▁Wood	-5605
▁ideas	-5606
iferous	-5607
retaceous	-5608
▁Pennsylv	-5609
▁computer	-5610
▁proposals	-5611
▁generating	-5612
▁implementing	-5613
enz	-5614
▁Gl	-5615
▁Ris	-5616
▁Prov	-5617
▁park	-5618
▁Fossil	-5619
▁prefer	-5620
▁Scientists	-5621
nut	-5622
▁Had	-5623
▁Mel	-5624
fluor	-5625
isory	-5626
▁tool	-5627
▁gives	-5628
▁sheets	-5629
▁biofuel	-5630
▁Chemical	-5631
▁division	-5632
▁assessments	-5633
▁livelihoods	-5634
rea	-5635
▁("	-5636
break	-5637
▁helps	-5638
▁shale	-5639
▁giving	-5640
▁hydrop	-5641
▁distance	-5642
▁humidity	-5643
▁indicates	-5644
▁selection	-5645
▁voluntary	-5646
▁Electricity	-5647
▁characterized	-5648
OS	-5649
erg	-5650
enth	-5651
ican	-5652
ille	-5653
urch	-5654
▁Dow	-5655
▁banks	-5656
▁graph	-5657
▁Organic	-5658
▁committee	-5659
▁structural	-5660
▁Transportation	-5661
cel	-5662
iers	-5663
▁Rec	-5664
▁pie	-5665
itzer	-5666
▁Stern	-5667
▁afford	-5668
▁leader	-5669
▁preval	-5670
▁healthy	-5671
▁Ecosystem	-5672
▁officials	-5673
▁beneficial	-5674
▁•	-5675
▁gold	-5676
▁mines	-5677
▁Author	-5678
▁assert	-5679
▁Economy	-5680
▁cyclone	-5681
▁ultimately	-5682
▁controversy	-5683
uted	-5684
▁Mach	-5685
▁Main	-5686
▁Rail	-5687
▁Thom	-5688
▁rose	-5689
▁sess	-5690
▁Chall	-5691
▁decom	-5692
▁Modern	-5693
▁thresh	-5694
etically	-5695
▁Mitigation	-5696
▁radioactive	-5697
agn	-5698
amin	-5699
flow	-5700
▁Six	-5701
▁try	-5702
raine	-5703
range	-5704
▁expect	-5705
heastern	-5706
▁raising	-5707
▁composed	-5708
▁landfill	-5709
▁offshore	-5710
▁confirmed	-5711
▁leadership	-5712
gra	-5713
lit	-5714
▁Kh	-5715
makers	-5716
▁funda	-5717
▁older	-5718
▁driver	-5719
▁letter	-5720
▁Reduction	-5721
▁abundance	-5722
▁calculated	-5723
▁geothermal	-5724
▁subtropical	-5725
▁Lu	-5726
▁Resp	-5727
▁gain	-5728
ankton	-5729
▁Integ	-5730
▁alumin	-5731
▁shifts	-5732
▁switch	-5733
▁Charles	-5734
▁damages	-5735
▁sanitation	-5736
ipp	-5737
▁Ut	-5738
▁my	-5739
IPCC	-5740
pled	-5741
rick	-5742
▁Dry	-5743
ailed	-5744
astic	-5745
under	-5746
▁Vict	-5747
utical	-5748
▁birth	-5749
▁enact	-5750
▁chance	-5751
▁trains	-5752
▁Vietnam	-5753
▁objective	-5754
▁assistance	-5755
▁phenomenon	-5756
▁stakeholders	-5757
wing	-5758
▁Exp	-5759
▁Ken	-5760
ching	-5761
▁phil	-5762
induced	-5763
▁candid	-5764
▁barrels	-5765
▁minerals	-5766
▁Southeast	-5767
▁gradually	-5768
▁restrictions	-5769
▁certification	-5770
raq	-5771
aker	-5772
etts	-5773
rowth	-5774
rating	-5775
▁ended	-5776
display	-5777
▁acquis	-5778
▁decided	-5779
▁suscept	-5780
▁independ	-5781
scillation	-5782
▁correspon	-5783
▁organized	-5784
conn	-5785
ster	-5786
then	-5787
achus	-5788
▁Inst	-5789
▁Long	-5790
▁enab	-5791
▁copper	-5792
▁dispro	-5793
▁inputs	-5794
▁Virginia	-5795
▁variable	-5796
▁Directive	-5797
▁bleaching	-5798
▁requiring	-5799
▁negatively	-5800
reet	-5801
▁ded	-5802
prise	-5803
▁shut	-5804
powered	-5805
▁advert	-5806
▁immediate	-5807
displaystyle	-5808
col	-5809
▁wa	-5810
▁eat	-5811
▁fer	-5812
▁lot	-5813
▁sale	-5814
▁asked	-5815
▁front	-5816
▁steps	-5817
▁Malays	-5818
▁argues	-5819
▁inland	-5820
achusetts	-5821
▁Holocene	-5822
▁survival	-5823
▁Peninsula	-5824
▁authority	-5825
▁movements	-5826
▁improvement	-5827
obic	-5828
▁DDT	-5829
place	-5830
yanob	-5831
▁Rock	-5832
▁Sund	-5833
▁Among	-5834
▁Forum	-5835
▁panels	-5836
▁settle	-5837
▁absence	-5838
▁showing	-5839
▁marginal	-5840
▁FAO	-5841
▁Notes	-5842
▁canal	-5843
▁aggreg	-5844
▁burned	-5845
▁coffee	-5846
▁shares	-5847
▁£	-5848
ags	-5849
uit	-5850
lock	-5851
▁Pole	-5852
holder	-5853
rategy	-5854
itivity	-5855
▁Fourth	-5856
▁option	-5857
▁Through	-5858
▁summers	-5859
oplankton	-5860
▁covering	-5861
▁Massachusetts	-5862
gian	-5863
▁SDG	-5864
ivery	-5865
▁clos	-5866
▁excl	-5867
▁falls	-5868
▁lifet	-5869
▁Consum	-5870
▁offers	-5871
▁inhabit	-5872
▁abundant	-5873
▁describe	-5874
▁Community	-5875
▁direction	-5876
▁hypothesis	-5877
▁considering	-5878
onia	-5879
▁Tar	-5880
▁sex	-5881
▁won	-5882
▁crust	-5883
▁funded	-5884
▁feeding	-5885
▁running	-5886
▁uranium	-5887
itzerland	-5888
▁magnitude	-5889
▁Cretaceous	-5890
▁recommended	-5891
▁.	-5892
ails	-5893
▁Div	-5894
▁End	-5895
▁Iraq	-5896
▁bank	-5897
▁dams	-5898
▁schem	-5899
▁staff	-5900
ulative	-5901
▁residential	-5902
▁interactions	-5903
IP	-5904
onald	-5905
▁Chev	-5906
▁soon	-5907
profit	-5908
▁exists	-5909
▁Ukraine	-5910
▁offered	-5911
▁substit	-5912
▁underst	-5913
▁attribut	-5914
▁powerful	-5915
ifications	-5916
▁innovation	-5917
nic	-5918
ube	-5919
uff	-5920
iant	-5921
uras	-5922
▁Conc	-5923
▁prev	-5924
▁vers	-5925
▁Space	-5926
itative	-5927
▁marked	-5928
▁predom	-5929
▁employed	-5930
▁language	-5931
▁harvested	-5932
▁highlight	-5933
▁investors	-5934
▁connection	-5935
▁recommendations	-5936
urs	-5937
▁Gh	-5938
iana	-5939
▁Miss	-5940
alysis	-5941
▁undert	-5942
▁Quality	-5943
▁preserv	-5944
▁Strategy	-5945
▁geograph	-5946
▁evaluation	-5947
ls	-5948
▁Equ	-5949
Mobil	-5950
ancial	-5951
▁Local	-5952
▁Women	-5953
▁spill	-5954
▁infect	-5955
▁shared	-5956
▁medical	-5957
▁activist	-5958
▁responses	-5959
▁insecurity	-5960
▁Pennsylvania	-5961
▁disproportion	-5962
ador	-5963
osis	-5964
▁hit	-5965
▁Artic	-5966
▁Stock	-5967
▁fleet	-5968
▁weeds	-5969
alities	-5970
ensions	-5971
▁cooler	-5972
▁helped	-5973
▁insect	-5974
▁revers	-5975
▁adapted	-5976
▁Executive	-5977
▁professor	-5978
▁organisations	-5979
▁Meteorological	-5980
▁desertification	-5981
NO	-5982
▁Ok	-5983
▁Sy	-5984
ball	-5985
▁Mac	-5986
▁die	-5987
essel	-5988
▁Each	-5989
▁Fuel	-5990
▁fram	-5991
▁nine	-5992
▁color	-5993
▁fluct	-5994
▁Martin	-5995
aculture	-5996
▁Argentina	-5997
▁Represent	-5998
▁absorption	-5999
gas	-6000
oil	-6001
▁Pan	-6002
eters	-6003
ogene	-6004
▁save	-6005
▁step	-6006
▁adding	-6007
▁restric	-6008
▁focusing	-6009
▁minister	-6010
▁revolution	-6011
▁Jer	-6012
ogens	-6013
▁stay	-6014
▁panel	-6015
▁Victor	-6016
▁Siberia	-6017
▁disrupt	-6018
▁accident	-6019
▁quantity	-6020
▁Mountains	-6021
▁existence	-6022
SI	-6023
▁~	-6024
▁Kro	-6025
▁ore	-6026
▁syn	-6027
efore	-6028
▁Mill	-6029
▁Oper	-6030
▁seas	-6031
▁Rural	-6032
▁calls	-6033
▁recre	-6034
▁rises	-6035
▁stead	-6036
▁twent	-6037
▁Safety	-6038
▁labour	-6039
▁played	-6040
▁controls	-6041
▁regulate	-6042
▁Petroleum	-6043
▁perspective	-6044
▁subsequently	-6045
▁controversial	-6046
zed	-6047
▁His	-6048
▁ppm	-6049
owned	-6050
▁REDD	-6051
▁cere	-6052
▁word	-6053
▁Scott	-6054
▁Small	-6055
▁sheep	-6056
▁toile	-6057
▁twice	-6058
ception	-6059
▁papers	-6060
▁drivers	-6061
▁finding	-6062
▁latitude	-6063
▁prepared	-6064
▁insurance	-6065
▁geographic	-6066
wa	-6067
▁Ord	-6068
azine	-6069
backs	-6070
▁Decl	-6071
armace	-6072
▁dense	-6073
▁floor	-6074
▁scope	-6075
▁sinks	-6076
▁Empire	-6077
▁scales	-6078
▁appears	-6079
▁turbines	-6080
▁processed	-6081
▁concentrated	-6082
▁consideration	-6083
▁AT	-6084
ture	-6085
▁IBM	-6086
itage	-6087
▁Gold	-6088
▁filed	-6089
▁Kroger	-6090
▁fourth	-6091
standing	-6092
▁Machine	-6093
▁disturb	-6094
▁earthqu	-6095
▁exhaust	-6096
▁stronger	-6097
▁functions	-6098
armaceutical	-6099
▁Switzerland	-6100
▁developments	-6101
▁relationships	-6102
min	-6103
etal	-6104
▁Youn	-6105
▁outd	-6106
▁capable	-6107
▁elected	-6108
▁evolved	-6109
▁quarter	-6110
▁schemes	-6111
▁colonial	-6112
▁regulated	-6113
▁harvesting	-6114
▁Deforestation	-6115
haps	-6116
real	-6117
umen	-6118
▁Use	-6119
aling	-6120
▁Ange	-6121
▁Stat	-6122
▁kept	-6123
icated	-6124
▁Guard	-6125
▁night	-6126
▁noise	-6127
▁shell	-6128
▁manure	-6129
▁prohib	-6130
▁geology	-6131
▁varying	-6132
▁adequate	-6133
▁releases	-6134
▁vegetables	-6135
▁demonstrated	-6136
AP	-6137
avy	-6138
ike	-6139
itt	-6140
▁Up	-6141
▁CNG	-6142
▁Kir	-6143
▁Sup	-6144
▁mor	-6145
echan	-6146
▁Chic	-6147
osaurs	-6148
glacial	-6149
▁Hadley	-6150
▁illegal	-6151
intensive	-6152
▁aerosols	-6153
▁reactors	-6154
▁contained	-6155
▁expanding	-6156
▁sensitive	-6157
▁compliance	-6158
▁operational	-6159
sey	-6160
▁cow	-6161
uable	-6162
ydney	-6163
▁cuts	-6164
herent	-6165
ntario	-6166
▁Color	-6167
▁dates	-6168
▁globe	-6169
▁shore	-6170
▁academ	-6171
▁dating	-6172
▁farmer	-6173
▁Systems	-6174
▁calcium	-6175
▁lithium	-6176
▁selling	-6177
▁Services	-6178
▁obtained	-6179
▁shifting	-6180
▁contaminated	-6181
iop	-6182
oma	-6183
▁Mes	-6184
▁nom	-6185
▁sen	-6186
▁died	-6187
▁drier	-6188
▁choice	-6189
▁rating	-6190
▁Methane	-6191
▁dropped	-6192
▁ranging	-6193
▁endangered	-6194
▁photovolta	-6195
▁establishment	-6196
DC	-6197
my	-6198
anc	-6199
▁dump	-6200
▁mild	-6201
▁Peter	-6202
▁route	-6203
▁hunger	-6204
▁mental	-6205
▁demands	-6206
▁recover	-6207
▁Malaysia	-6208
▁Tropical	-6209
▁detailed	-6210
▁continents	-6211
▁intervention	-6212
SR	-6213
ilm	-6214
also	-6215
ears	-6216
▁Obs	-6217
▁seaw	-6218
advant	-6219
▁Delta	-6220
▁broader	-6221
▁treated	-6222
CL	-6223
IT	-6224
rh	-6225
▁Do	-6226
▁Aut	-6227
▁Mus	-6228
peace	-6229
▁Fore	-6230
▁blue	-6231
▁kind	-6232
▁summit	-6233
▁falling	-6234
▁interior	-6235
▁protests	-6236
▁planetary	-6237
▁Az	-6238
▁bea	-6239
atern	-6240
beans	-6241
▁exem	-6242
▁virt	-6243
▁formal	-6244
▁Changes	-6245
▁Species	-6246
▁forming	-6247
▁Communic	-6248
▁delivery	-6249
▁reconstruct	-6250
▁successfully	-6251
hi	-6252
▁Ca	-6253
▁Ha	-6254
▁Gre	-6255
▁cop	-6256
▁tail	-6257
▁novel	-6258
▁oxides	-6259
▁Weather	-6260
engineering	-6261
▁maintained	-6262
▁association	-6263
▁documentary	-6264
▁Tod	-6265
▁Hydro	-6266
▁exhib	-6267
▁pumps	-6268
▁equity	-6269
▁feedst	-6270
economic	-6271
▁survive	-6272
▁elsewhere	-6273
▁exception	-6274
het	-6275
ror	-6276
lers	-6277
pret	-6278
wave	-6279
▁Mot	-6280
▁sto	-6281
▁feas	-6282
▁fine	-6283
▁onto	-6284
▁diets	-6285
▁facing	-6286
▁fertil	-6287
▁binding	-6288
▁consume	-6289
▁figures	-6290
▁stating	-6291
▁appointed	-6292
▁requirement	-6293
alf	-6294
sis	-6295
band	-6296
edia	-6297
from	-6298
▁Nike	-6299
▁Wall	-6300
▁surf	-6301
erning	-6302
rowing	-6303
▁weeks	-6304
▁Altern	-6305
▁Thomas	-6306
▁Treaty	-6307
▁vessel	-6308
▁Supreme	-6309
▁awarded	-6310
▁condens	-6311
▁ethical	-6312
▁notably	-6313
▁Devonian	-6314
▁Moreover	-6315
▁valuable	-6316
▁ExxonMobil	-6317
▁settlement	-6318
▁opportunity	-6319
▁catastrophic	-6320
▁collaboration	-6321
onn	-6322
▁GM	-6323
▁Mt	-6324
trak	-6325
▁offs	-6326
▁blast	-6327
▁Cities	-6328
▁secret	-6329
▁Product	-6330
▁Wayback	-6331
▁entered	-6332
▁shallow	-6333
▁turbine	-6334
▁articles	-6335
▁emerging	-6336
▁priority	-6337
▁concerning	-6338
▁experiences	-6339
▁immediately	-6340
At	-6341
sk	-6342
ipe	-6343
laci	-6344
▁Dep	-6345
▁Ple	-6346
uated	-6347
▁bird	-6348
▁pain	-6349
▁Model	-6350
▁Third	-6351
▁begun	-6352
▁leave	-6353
compass	-6354
▁Design	-6355
▁Sydney	-6356
▁remote	-6357
▁cooking	-6358
▁council	-6359
▁explain	-6360
▁millenn	-6361
▁version	-6362
▁enhanced	-6363
▁practical	-6364
▁provision	-6365
▁maintaining	-6366
Un	-6367
ECD	-6368
inet	-6369
▁Ang	-6370
▁esc	-6371
chers	-6372
egger	-6373
icism	-6374
▁draft	-6375
▁fruit	-6376
▁oblig	-6377
▁Recent	-6378
▁regime	-6379
▁suffer	-6380
▁attempts	-6381
▁displace	-6382
▁abandoned	-6383
▁involving	-6384
▁protecting	-6385
▁competitive	-6386
▁sensitivity	-6387
fol	-6388
elled	-6389
ifers	-6390
olute	-6391
orous	-6392
▁medic	-6393
▁spray	-6394
▁Ganges	-6395
▁spaces	-6396
▁normally	-6397
CT	-6398
Se	-6399
▁PV	-6400
igan	-6401
▁Nob	-6402
▁gap	-6403
arant	-6404
inter	-6405
ureau	-6406
▁Road	-6407
▁oxid	-6408
▁tack	-6409
lation	-6410
▁faced	-6411
▁attack	-6412
▁lifest	-6413
▁oldest	-6414
▁timber	-6415
▁protest	-6416
▁Colorado	-6417
▁training	-6418
▁consequence	-6419
inds	-6420
▁debt	-6421
▁stim	-6422
▁unus	-6423
warzen	-6424
▁Large	-6425
▁Media	-6426
▁Desert	-6427
▁actors	-6428
▁forward	-6429
▁occurre	-6430
▁currents	-6431
▁distingu	-6432
▁outbreak	-6433
▁acknowled	-6434
care	-6435
food	-6436
rams	-6437
rugg	-6438
▁Time	-6439
▁ampl	-6440
▁diam	-6441
▁eggs	-6442
ilater	-6443
develop	-6444
stances	-6445
▁slowly	-6446
levision	-6447
organisms	-6448
▁ratified	-6449
▁mentioned	-6450
warzenegger	-6451
▁appearance	-6452
▁cultivated	-6453
Ind	-6454
laim	-6455
uris	-6456
▁Max	-6457
iding	-6458
▁feel	-6459
▁want	-6460
▁amend	-6461
▁gross	-6462
▁spect	-6463
▁topic	-6464
▁Affairs	-6465
▁Ontario	-6466
▁concepts	-6467
▁Authority	-6468
▁limestone	-6469
▁conclusions	-6470
▁plantations	-6471
▁headquarters	-6472
CR	-6473
EU	-6474
hat	-6475
▁GE	-6476
book	-6477
epsi	-6478
omew	-6479
ville	-6480
▁Free	-6481
▁Peru	-6482
▁bloc	-6483
▁draw	-6484
▁Spring	-6485
▁female	-6486
▁Station	-6487
▁element	-6488
▁apparent	-6489
▁approval	-6490
▁financing	-6491
▁provinces	-6492
▁questions	-6493
▁shortages	-6494
▁Greenpeace	-6495
▁comparable	-6496
▁genetically	-6497
▁incorporated	-6498
This	-6499
into	-6500
▁Cit	-6501
▁Lib	-6502
▁ing	-6503
aping	-6504
▁prox	-6505
▁root	-6506
market	-6507
preced	-6508
▁doing	-6509
▁fauna	-6510
▁plate	-6511
▁Denmark	-6512
continent	-6513
▁category	-6514
▁revealed	-6515
▁renewables	-6516
▁Declaration	-6517
▁institutional	-6518
▁investigation	-6519
▁classification	-6520
Ar	-6521
rd	-6522
▁Lou	-6523
▁Pot	-6524
▁coc	-6525
▁fib	-6526
▁agro	-6527
▁Prize	-6528
▁abrupt	-6529
▁partly	-6530
ocarbons	-6531
▁Turkish	-6532
▁reaches	-6533
▁savings	-6534
▁utility	-6535
ibilities	-6536
▁Japanese	-6537
▁managing	-6538
▁Republican	-6539
▁collective	-6540
▁subsidiary	-6541
▁Carboniferous	-6542
',	-6543
▁MP	-6544
iced	-6545
olid	-6546
▁hom	-6547
▁map	-6548
▁dism	-6549
▁irre	-6550
▁sets	-6551
▁Hawai	-6552
▁Vehic	-6553
▁deple	-6554
▁chains	-6555
▁devast	-6556
▁grains	-6557
▁owners	-6558
▁preced	-6559
▁Article	-6560
▁mission	-6561
▁testing	-6562
▁absorbed	-6563
▁protocol	-6564
▁encompass	-6565
▁provisions	-6566
For	-6567
▁goes	-6568
▁Amtrak	-6569
▁enable	-6570
istocene	-6571
▁rejected	-6572
▁prevention	-6573
ean	-6574
▁au	-6575
▁Fort	-6576
arency	-6577
▁quite	-6578
▁youth	-6579
position	-6580
▁anticip	-6581
▁notable	-6582
▁tipping	-6583
▁updated	-6584
precedented	-6585
▁criticised	-6586
▁downstream	-6587
▁respiratory	-6588
▁urbanization	-6589
unn	-6590
▁AD	-6591
olar	-6592
oses	-6593
▁Bro	-6594
▁Nile	-6595
▁seem	-6596
▁Grand	-6597
▁Three	-6598
▁Trust	-6599
▁fixed	-6600
▁Commer	-6601
▁Oxford	-6602
▁savann	-6603
ventions	-6604
▁Chicago	-6605
▁altitude	-6606
▁chairman	-6607
▁phosphorus	-6608
▁hydrocarbons	-6609
▁la	-6610
▁tal	-6611
▁Civil	-6612
▁cryst	-6613
▁banned	-6614
▁boreal	-6615
▁inside	-6616
▁viable	-6617
▁devices	-6618
umulative	-6619
▁lifetime	-6620
▁disadvant	-6621
▁explained	-6622
▁composting	-6623
EE	-6624
HP	-6625
va	-6626
▁Our	-6627
▁geo	-6628
atial	-6629
▁Once	-6630
▁flat	-6631
aspian	-6632
▁Award	-6633
▁colder	-6634
▁damaged	-6635
▁gardens	-6636
ochemical	-6637
▁Cambrian	-6638
▁Industry	-6639
▁positions	-6640
▁participants	-6641
▁Bre	-6642
itime	-6643
point	-6644
▁UNEP	-6645
▁evac	-6646
▁flux	-6647
▁game	-6648
▁hour	-6649
▁mono	-6650
▁weap	-6651
▁Based	-6652
▁manag	-6653
▁tends	-6654
▁disput	-6655
▁figure	-6656
▁gained	-6657
▁powered	-6658
▁silicon	-6659
▁Guardian	-6660
▁argument	-6661
▁documents	-6662
▁confidence	-6663
yanobacteria	-6664
▁organisation	-6665
ali	-6666
exp	-6667
ophy	-6668
▁Typ	-6669
▁pow	-6670
thing	-6671
▁Alex	-6672
▁cash	-6673
▁cows	-6674
▁seek	-6675
called	-6676
▁Pepsi	-6677
▁liber	-6678
ionally	-6679
▁philos	-6680
▁serves	-6681
▁correct	-6682
▁lawsuit	-6683
▁regener	-6684
▁discussion	-6685
▁preventing	-6686
▁Engineering	-6687
▁acquisition	-6688
▁historically	-6689
ams	-6690
hum	-6691
ste	-6692
ione	-6693
phal	-6694
ppen	-6695
weet	-6696
useum	-6697
▁Jose	-6698
▁Mark	-6699
▁flor	-6700
▁roof	-6701
iation	-6702
▁Carol	-6703
▁dimin	-6704
▁climat	-6705
▁wetland	-6706
▁Emission	-6707
▁damaging	-6708
▁guidance	-6709
▁Standards	-6710
▁technique	-6711
▁influences	-6712
▁productive	-6713
▁resolution	-6714
▁insufficient	-6715
▁manufactured	-6716
ded	-6717
ague	-6718
coin	-6719
▁Ill	-6720
▁pou	-6721
berry	-6722
▁Mann	-6723
▁Meas	-6724
▁acts	-6725
▁race	-6726
▁sink	-6727
elsius	-6728
▁Swiss	-6729
▁drast	-6730
▁pursu	-6731
▁words	-6732
present	-6733
▁Greece	-6734
▁Hansen	-6735
▁Little	-6736
▁refuge	-6737
▁Assembly	-6738
▁discharge	-6739
▁partially	-6740
▁perceived	-6741
▁purchased	-6742
▁Investment	-6743
▁mechanical	-6744
▁registered	-6745
▁susceptible	-6746
▁transported	-6747
▁Schwarzenegger	-6748
▁representatives	-6749
%).	-6750
abase	-6751
state	-6752
▁boil	-6753
▁kill	-6754
▁male	-6755
▁peer	-6756
▁Child	-6757
▁Roman	-6758
▁Smith	-6759
▁firms	-6760
▁Mechan	-6761
▁weaken	-6762
friendly	-6763
▁cutting	-6764
▁mercury	-6765
▁fraction	-6766
▁payments	-6767
▁fertility	-6768
▁interpret	-6769
▁pressures	-6770
▁measurement	-6771
▁professional	-6772
▁stratosphere	-6773
ilt	-6774
anda	-6775
liers	-6776
urisd	-6777
aharan	-6778
consum	-6779
▁Goals	-6780
▁roots	-6781
ossible	-6782
▁Within	-6783
▁choose	-6784
▁narrow	-6785
▁Anthrop	-6786
▁College	-6787
▁Various	-6788
▁calling	-6789
▁hunting	-6790
▁locally	-6791
▁transit	-6792
▁relation	-6793
▁residues	-6794
ytoplankton	-6795
▁conservative	-6796
no	-6797
ww	-6798
Can	-6799
osm	-6800
pir	-6801
udd	-6802
rium	-6803
▁Mat	-6804
▁dia	-6805
▁fro	-6806
ronom	-6807
▁Coral	-6808
▁buses	-6809
▁maize	-6810
▁video	-6811
▁circum	-6812
▁garden	-6813
▁discipl	-6814
▁emerged	-6815
▁session	-6816
▁assessed	-6817
▁Currently	-6818
▁institute	-6819
▁reactions	-6820
▁strategic	-6821
▁	-6822
e	-6823
t	-6824
a	-6825
i	-6826
n	-6827
o	-6828
r	-6829
s	-6830
l	-6831
c	-6832
h	-6833
d	-6834
u	-6835
m	-6836
f	-6837
p	-6838
g	-6839
y	-6840
b	-6841
w	-6842
,	-6843
v	-6844
.	-6845
0	-6846
k	-6847
2	-6848
C	-6849
1	-6850
T	-6851
A	-6852
S	-6853
I	-6854
x	-6855
-	-6856
P	-6857
E	-6858
)	-6859
(	-6860
M	-6861
9	-6862
"	-6863
N	-6864
R	-6865
B	-6866
D	-6867
G	-6868
5	-6869
F	-6870
O	-6871
3	-6872
z	-6873
U	-6874
H	-6875
W	-6876
8	-6877
'	-6878
4	-6879
q	-6880
7	-6881
6	-6882
L	-6883
j	-6884
:	-6885
%	-6886
J	-6887
K	-6888
–	-6889
;	-6890
V	-6891
/	-6892
°	-6893
$	-6894
 	-6895
Y	-6896
Z	-6897
=	-6898
—	-6899
Q	-6900
&	-6901
’	-6902
]	-6903
[	-6904
+	-6905
X	-6906
{	-6907
}	-6908
\	-6909
é	-6910
−	-6911
“	-6912
”	-6913
?	-6914
ñ	-6915
ö	-6916
‘	-6917
á	-6918
~	-6919
€	-6920
ü	-6921
§	-6922
ó	-6923
•	-6924
£	-6925
_	-6926
í	-6927
×	-6928
ā	-6929
ä	-6930
±	-6931
!	-6932
^	-6933
⁄	-6934
#	-6935
>	-6936
ø	-6937
 	-6938
ã	-6939
ç	-6940
ı	-6941
→	-6942
·	-6943
<	-6944
ú	-6945
ş	-6946
İ	-6947
è	-6948
*	-6949
|	-6950
α	-6951
δ	-6952
μ	-6953
‑	-6954
σ	-6955
 	-6956
ğ	-6957
ə	-6958
æ	-6959
ô	-6960
ō	-6961
Δ	-6962
о	-6963
…	-6964
λ	-6965
ς	-6966
ʻ	-6967
ˈ	-6968
е	-6969
ê	-6970
и	-6971
р	-6972
а	-6973
ν	-6974
ο	-6975
ρ	-6976
′	-6977
É	-6978
à	-6979
τ	-6980
​	-6981
≈	-6982
Ö	-6983
Ş	-6984
″	-6985
н	-6986
ا	-6987
₹	-6988
²	-6989
ε	-6990
â	-6991
т	-6992
‐	-6993
ό	-6994
š	-6995
θ	-6996
₂	-6997
ι	-6998
π	-6999
³	-7000
κ	-7001
Ü	-7002
ë	-7003
с	-7004
µ	-7005
Ç	-7006
å	-7007
ū	-7008
ē	-7009
Á	-7010
ī	-7011
к	-7012
л	-7013
﻿	-7014
ʼ	-7015
ر	-7016
ل	-7017
˚	-7018
̇	-7019
γ	-7020
⋅	-7021
º	-7022
ý	-7023
ł	-7024
ð	-7025
ː	-7026
в	-7027
η	-7028
م	-7029
ć	-7030
ư	-7031
‰	-7032
∂	-7033
ά	-7034
й	-7035
†	-7036
®	-7037
ʁ	-7038
д	-7039
м	-7040
ب	-7041
ï	-7042
Đ	-7043
ơ	-7044
ɐ	-7045
ω	-7046
و	-7047
⁡	-7048
î	-7049
ò	-7050
ń	-7051
ŭ	-7052
ί	-7053
≥	-7054
¢	-7055
¯	-7056
ì	-7057
ˌ	-7058
β	-7059
د	-7060
س	-7061
ي	-7062
⟶	-7063
ġ	-7064
ʊ	-7065
ی	-7066
ả	-7067
∗	-7068
Ø	-7069
č	-7070
ɛ	-7071
з	-7072
ن	-7073
ᵒ	-7074
₿	-7075
@	-7076
Î	-7077
ß	-7078
ă	-7079
ɑ	-7080
ύ	-7081
་	-7082
ậ	-7083
△	-7084
ș	-7085
ɪ	-7086
́	-7087
̯	-7088
υ	-7089
φ	-7090
С	-7091
г	-7092
п	-7093
ה	-7094
´	-7095
đ	-7096
ɔ	-7097
ʃ	-7098
ʷ	-7099
έ	-7100
А	-7101
у	-7102
ت	-7103
ح	-7104
ि	-7105
်	-7106
ḥ	-7107
ắ	-7108
⇌	-7109
豆	-7110
Å	-7111
õ	-7112
Ō	-7113
ɡ	-7114
ζ	-7115
ξ	-7116
ϕ	-7117
К	-7118
ы	-7119
ق	-7120
म	-7121
ह	-7122
ก	-7123
ร	-7124
า	-7125
ა	-7126
ệ	-7127
ἡ	-7128
♭	-7129
♯	-7130
山	-7131
`	-7132
¤	-7133
û	-7134
Š	-7135
ʲ	-7136
͡	-7137
Π	-7138
ή	-7139
ط	-7140
ा	-7141
း	-7142
ṭ	-7143
ớ	-7144
⁠	-7145
≡	-7146
⊗	-7147
ą	-7148
ŋ	-7149
ś	-7150
ɾ	-7151
̃	-7152
Θ	-7153
ϵ	-7154
П	-7155
б	-7156
ч	-7157
י	-7158
ز	-7159
्	-7160
อ	-7161
န	-7162
ḷ	-7163
ộ	-7164
↽	-7165
⇀	-7166
≤	-7167
股	-7168
산	-7169
½	-7170
Ā	-7171
œ	-7172
ƒ	-7173
ɫ	-7174
ɯ	-7175
ɲ	-7176
˙	-7177
Ε	-7178
Б	-7179
Г	-7180
я	-7181
ُ	-7182
ہ	-7183
र	-7184
ल	-7185
व	-7186
ห	-7187
เ	-7188
ང	-7189
ზ	-7190
უ	-7191
ღ	-7192
ᒋ	-7193
ạ	-7194
ἄ	-7195
ῆ	-7196
‒	-7197
―	-7198
„	-7199
™	-7200
∑	-7201
⬚	-7202
・	-7203
神	-7204
華	-7205
限	-7206
강	-7207
금	-7208
ù	-7209
þ	-7210
Č	-7211
ę	-7212
ĩ	-7213
ŏ	-7214
ţ	-7215
ũ	-7216
ŷ	-7217
ž	-7218
ǎ	-7219
ɣ	-7220
ˀ	-7221
Μ	-7222
ψ	-7223
ώ	-7224
ϖ	-7225
И	-7226
М	-7227
Р	-7228
Х	-7229
Ч	-7230
ц	-7231
ш	-7232
ь	-7233
ю	-7234
і	-7235
ד	-7236
ו	-7237
ם	-7238
מ	-7239
ן	-7240
أ	-7241
ش	-7242
ك	-7243
ه	-7244
َ	-7245
ِ	-7246
य	-7247
া	-7248
ด	-7249
บ	-7250
ག	-7251
ས	-7252
ရ	-7253
ာ	-7254
ေ	-7255
ᑭ	-7256
ᑲ	-7257
ᒥ	-7258
ị	-7259
ố	-7260
ồ	-7261
ổ	-7262
ἀ	-7263
Ἀ	-7264
ῖ	-7265
↑	-7266
∫	-7267
⟨	-7268
⟩	-7269
亜	-7270
公	-7271
司	-7272
有	-7273
Ꞓ	-7274
계	-7275
한	-7276
¥	-7277
©	-7278
«	-7279
¶	-7280
»	-7281
Ú	-7282
ė	-7283
Ł	-7284
Ś	-7285
ų	-7286
ǐ	-7287
ǫ	-7288
ț	-7289
ȳ	-7290
ɨ	-7291
ɵ	-7292
ʋ	-7293
ʰ	-7294
ʾ	-7295
ʿ	-7296
̀	-7297
̊	-7298
̩	-7299
Β	-7300
Σ	-7301
Φ	-7302
Ω	-7303
χ	-7304
В	-7305
Е	-7306
З	-7307
Н	-7308
О	-7309
У	-7310
ф	-7311
ъ	-7312
ң	-7313
ү	-7314
ӏ	-7315
א	-7316
כ	-7317
ת	-7318
ة	-7319
ع	-7320
ى	-7321
ّ	-7322
ْ	-7323
ख	-7324
त	-7325
स	-7326
ন	-7327
ব	-7328
ম	-7329
র	-7330
ল	-7331
্	-7332
ค	-7333
ง	-7334
จ	-7335
น	-7336
ะ	-7337
็	-7338
์	-7339
ལ	-7340
ེ	-7341
ོ	-7342
က	-7343
င	-7344
တ	-7345
ဝ	-7346
သ	-7347
ိ	-7348
ვ	-7349
ი	-7350
ს	-7351
ḍ	-7352
ḗ	-7353
ṣ	-7354
ấ	-7355
ầ	-7356
ằ	-7357
ọ	-7358
ữ	-7359
Ἄ	-7360
ἠ	-7361
ἰ	-7362
ἱ	-7363
ὴ	-7364
ῥ	-7365
ῷ	-7366
‌	-7367
‍	-7368
⁰	-7369
⅓	-7370
⅔	-7371
≃	-7372
中	-7373
份	-7374
力	-7375
喜	-7376
國	-7377
拉	-7378
林	-7379
枝	-7380
楓	-7381
油	-7382
浆	-7383
港	-7384
源	-7385
生	-7386
能	-7387
脉	-7388
行	-7389
雅	-7390
電	-7391
香	-7392
骨	-7393
구	-7394
국	-7395
농	-7396
박	-7397
원	-7398
지	-7399
콩	-7400
𐭤	-7401
𐭩	-7402
𐭫	-7403
¬	-7404
¸	-7405
Â	-7406
Ä	-7407
Ó	-7408
÷	-7409
Ć	-7410
ě	-7411
ň	-7412
ő	-7413
ř	-7414
ŝ	-7415
ź	-7416
Ż	-7417
ż	-7418
ǒ	-7419
ǔ	-7420
ɒ	-7421
ɕ	-7422
ɘ	-7423
ɜ	-7424
ɦ	-7425
ɳ	-7426
ɶ	-7427
ɻ	-7428
ʂ	-7429
ʈ	-7430
ʉ	-7431
ʏ	-7432
ʒ	-7433
ʔ	-7434
ʽ	-7435
ˉ	-7436
̂	-7437
̄	-7438
̌	-7439
̝	-7440
̧	-7441
̪	-7442
Ά	-7443
Α	-7444
Γ	-7445
Ν	-7446
Τ	-7447
Υ	-7448
Д	-7449
Л	-7450
Т	-7451
Ф	-7452
Ш	-7453
ж	-7454
щ	-7455
э	-7456
ё	-7457
қ	-7458
ә	-7459
ӯ	-7460
Ս	-7461
ե	-7462
ծ	-7463
ո	-7464
վ	-7465
ւ	-7466
ג	-7467
ז	-7468
ח	-7469
ל	-7470
ע	-7471
ץ	-7472
ר	-7473
خ	-7474
ض	-7475
غ	-7476
ٔ	-7477
ٱ	-7478
ک	-7479
ھ	-7480
ं	-7481
आ	-7482
ज	-7483
ड	-7484
ण	-7485
ध	-7486
न	-7487
प	-7488
श	-7489
े	-7490
ত	-7491
দ	-7492
প	-7493
য	-7494
স	-7495
হ	-7496
়	-7497
ি	-7498
ু	-7499
ਤ	-7500
ਬ	-7501
ਮ	-7502
ਸ	-7503
ਾ	-7504
ੀ	-7505
ම	-7506
ය	-7507
ල	-7508
හ	-7509
ා	-7510
ි	-7511
ช	-7512
ซ	-7513
ถ	-7514
ผ	-7515
ม	-7516
ั	-7517
ิ	-7518
ื	-7519
๊	-7520
།	-7521
ཅ	-7522
ན	-7523
པ	-7524
མ	-7525
ཙ	-7526
ཡ	-7527
ཧ	-7528
ི	-7529
ྗ	-7530
စ	-7531
ဌ	-7532
ထ	-7533
ပ	-7534
မ	-7535
ီ	-7536
့	-7537
ျ	-7538
ြ	-7539
ှ	-7540
ე	-7541
პ	-7542
რ	-7543
შ	-7544
ჩ	-7545
ᐁ	-7546
ᐅ	-7547
ᐊ	-7548
ᐦ	-7549
ᐧ	-7550
ᐯ	-7551
ᑉ	-7552
ᓂ	-7553
ᓈ	-7554
ᔑ	-7555
ᵻ	-7556
ḕ	-7557
Ḳ	-7558
ṓ	-7559
ṛ	-7560
Ṣ	-7561
ẹ	-7562
ế	-7563
ề	-7564
ễ	-7565
ỏ	-7566
ờ	-7567
ở	-7568
ụ	-7569
ừ	-7570
ự	-7571
ỹ	-7572
ἔ	-7573
ἵ	-7574
Ἰ	-7575
ὀ	-7576
ὁ	-7577
ὄ	-7578
ὅ	-7579
ὐ	-7580
ὔ	-7581
ὕ	-7582
Ὠ	-7583
ᾶ	-7584
ῦ	-7585
Ῥ	-7586
ῶ	-7587
 	-7588
 	-7589
‎	-7590
‚	-7591
‟	-7592
₱	-7593
₳	-7594
∆	-7595
∇	-7596
∝	-7597
≳	-7598
こ	-7599
と	-7600
の	-7601
べ	-7602
一	-7603
上	-7604
业	-7605
京	-7606
企	-7607
億	-7608
光	-7609
入	-7610
刑	-7611
剛	-7612
动	-7613
华	-7614
史	-7615
味	-7616
噌	-7617
士	-7618
天	-7619
奶	-7620
妙	-7621
定	-7622
岳	-7623
希	-7624
年	-7625
底	-7626
建	-7627
成	-7628
括	-7629
指	-7630
數	-7631
日	-7632
旬	-7633
書	-7634
期	-7635
構	-7636
樂	-7637
死	-7638
殿	-7639
水	-7640
池	-7641
沈	-7642
波	-7643
津	-7644
海	-7645
涼	-7646
漲	-7647
漿	-7648
燈	-7649
爭	-7650
産	-7651
發	-7652
皆	-7653
盘	-7654
祥	-7655
築	-7656
粉	-7657
納	-7658
級	-7659
紫	-7660
細	-7661
肉	-7662
腐	-7663
舂	-7664
苔	-7665
菜	-7666
萊	-7667
蓬	-7668
薬	-7669
計	-7670
設	-7671
議	-7672
诌	-7673
豉	-7674
赤	-7675
農	-7676
造	-7677
都	-7678
酒	-7679
醤	-7680
金	-7681
鋼	-7682
鐵	-7683
锂	-7684
隊	-7685
音	-7686
預	-7687
首	-7688
馬	-7689
马	-7690
黄	-7691
齐	-7692
ꞌ	-7693
개	-7694
경	-7695
골	-7696
김	-7697
나	-7698
내	-7699
너	-7700
들	-7701
딩	-7702
래	-7703
량	-7704
로	-7705
림	-7706
물	-7707
본	-7708
봉	-7709
빌	-7710
세	-7711
속	-7712
스	-7713
악	-7714
업	-7715
에	-7716
엑	-7717
연	-7718
외	-7719
우	-7720
울	-7721
의	-7722
제	-7723
조	-7724
촌	-7725
통	-7726
풍	-7727
ﺁ	-7728
𐀀	-7729
𐀊	-7730
𐀯	-7731
𐀹	-7732
𐭥	-7733
𐭦	-7734
𐭬	-7735
𒀸	-7736
𒉿	-7737
𒋗	-7738
𝛅	-7739
𝛾	-7740
